{
  "version": "1.0",
  "truncation": null,
  "padding": null,
  "added_tokens": [
    {
      "id": 0,
      "content": "<unk>",
      "single_word": false,
      "lstrip": false,
      "rstrip": false,
      "normalized": false,
      "special": true
    },
    {
      "id": 1,
      "content": "<pad>",
      "single_word": false,
      "lstrip": false,
      "rstrip": false,
      "normalized": false,
      "special": true
    },
    {
      "id": 2,
      "content": "<|endoftext|>",
      "single_word": false,
      "lstrip": false,
      "rstrip": false,
      "normalized": false,
      "special": true
    },
    {
      "id": 3,
      "content": "<|im_start|>",
      "single_word": false,
      "lstrip": false,
      "rstrip": false,
      "normalized": false,
      "special": true
    },
    {
      "id": 4,
      "content": "<|im_end|>",
      "single_word": false,
      "lstrip": false,
      "rstrip": false,
      "normalized": false,
      "special": true
    }
  ],
  "normalizer": null,
  "pre_tokenizer": {
    "type": "Whitespace"
  },
  "post_processor": null,
  "decoder": null,
  "model": {
    "type": "BPE",
    "dropout": null,
    "unk_token": "<unk>",
    "continuing_subword_prefix": null,
    "end_of_word_suffix": null,
    "fuse_unk": false,
    "byte_fallback": false,
    "ignore_merges": false,
    "vocab": {
      "<unk>": 0,
      "<pad>": 1,
      "<|endoftext|>": 2,
      "<|im_start|>": 3,
      "<|im_end|>": 4,
      "!": 5,
      "\"": 6,
      "#": 7,
      "$": 8,
      "%": 9,
      "&": 10,
      "'": 11,
      "(": 12,
      ")": 13,
      "*": 14,
      "+": 15,
      ",": 16,
      "-": 17,
      ".": 18,
      "/": 19,
      "0": 20,
      "1": 21,
      "2": 22,
      "3": 23,
      "4": 24,
      "5": 25,
      "6": 26,
      "7": 27,
      "8": 28,
      "9": 29,
      ":": 30,
      ";": 31,
      "<": 32,
      "=": 33,
      ">": 34,
      "?": 35,
      "@": 36,
      "A": 37,
      "B": 38,
      "C": 39,
      "D": 40,
      "E": 41,
      "F": 42,
      "G": 43,
      "H": 44,
      "I": 45,
      "J": 46,
      "K": 47,
      "L": 48,
      "M": 49,
      "N": 50,
      "O": 51,
      "P": 52,
      "Q": 53,
      "R": 54,
      "S": 55,
      "T": 56,
      "U": 57,
      "V": 58,
      "W": 59,
      "X": 60,
      "Y": 61,
      "Z": 62,
      "[": 63,
      "\\": 64,
      "]": 65,
      "^": 66,
      "_": 67,
      "`": 68,
      "a": 69,
      "b": 70,
      "c": 71,
      "d": 72,
      "e": 73,
      "f": 74,
      "g": 75,
      "h": 76,
      "i": 77,
      "j": 78,
      "k": 79,
      "l": 80,
      "m": 81,
      "n": 82,
      "o": 83,
      "p": 84,
      "q": 85,
      "r": 86,
      "s": 87,
      "t": 88,
      "u": 89,
      "v": 90,
      "w": 91,
      "x": 92,
      "y": 93,
      "z": 94,
      "{": 95,
      "|": 96,
      "}": 97,
      "~": 98,
      "": 99,
      "": 100,
      "": 101,
      "": 102,
      "": 103,
      "": 104,
      "": 105,
      "": 106,
      "": 107,
      "": 108,
      "": 109,
      "¡": 110,
      "¢": 111,
      "£": 112,
      "¤": 113,
      "¥": 114,
      "¦": 115,
      "§": 116,
      "¨": 117,
      "©": 118,
      "ª": 119,
      "«": 120,
      "¬": 121,
      "­": 122,
      "®": 123,
      "¯": 124,
      "°": 125,
      "±": 126,
      "²": 127,
      "³": 128,
      "´": 129,
      "µ": 130,
      "¶": 131,
      "·": 132,
      "¸": 133,
      "¹": 134,
      "º": 135,
      "»": 136,
      "¼": 137,
      "½": 138,
      "¾": 139,
      "¿": 140,
      "À": 141,
      "Á": 142,
      "Â": 143,
      "Ã": 144,
      "Ä": 145,
      "Å": 146,
      "Æ": 147,
      "Ç": 148,
      "È": 149,
      "É": 150,
      "Ê": 151,
      "Ë": 152,
      "Í": 153,
      "Î": 154,
      "Ï": 155,
      "Ð": 156,
      "Ñ": 157,
      "Ò": 158,
      "Ó": 159,
      "Ô": 160,
      "Õ": 161,
      "Ö": 162,
      "×": 163,
      "Ø": 164,
      "Ù": 165,
      "Ú": 166,
      "Ü": 167,
      "Þ": 168,
      "ß": 169,
      "à": 170,
      "á": 171,
      "â": 172,
      "ã": 173,
      "ä": 174,
      "å": 175,
      "æ": 176,
      "ç": 177,
      "è": 178,
      "é": 179,
      "ê": 180,
      "ë": 181,
      "ì": 182,
      "í": 183,
      "î": 184,
      "ï": 185,
      "ð": 186,
      "ñ": 187,
      "ò": 188,
      "ó": 189,
      "ô": 190,
      "õ": 191,
      "ö": 192,
      "÷": 193,
      "ø": 194,
      "ù": 195,
      "ú": 196,
      "û": 197,
      "ü": 198,
      "ý": 199,
      "þ": 200,
      "ÿ": 201,
      "Ā": 202,
      "ā": 203,
      "Ă": 204,
      "ă": 205,
      "ą": 206,
      "Ć": 207,
      "ć": 208,
      "Č": 209,
      "č": 210,
      "Ď": 211,
      "ď": 212,
      "Đ": 213,
      "đ": 214,
      "Ē": 215,
      "ē": 216,
      "ĕ": 217,
      "ė": 218,
      "ę": 219,
      "ě": 220,
      "ĝ": 221,
      "Ğ": 222,
      "ğ": 223,
      "ġ": 224,
      "ģ": 225,
      "Ħ": 226,
      "ħ": 227,
      "ĩ": 228,
      "Ī": 229,
      "ī": 230,
      "Ĭ": 231,
      "İ": 232,
      "ı": 233,
      "ķ": 234,
      "ľ": 235,
      "Ł": 236,
      "ł": 237,
      "ń": 238,
      "ņ": 239,
      "ň": 240,
      "ŋ": 241,
      "Ō": 242,
      "ō": 243,
      "ŏ": 244,
      "ő": 245,
      "Œ": 246,
      "œ": 247,
      "ŗ": 248,
      "Ř": 249,
      "ř": 250,
      "Ś": 251,
      "ś": 252,
      "Ş": 253,
      "ş": 254,
      "Š": 255,
      "š": 256,
      "Ţ": 257,
      "ţ": 258,
      "Ť": 259,
      "ť": 260,
      "ũ": 261,
      "Ū": 262,
      "ū": 263,
      "ů": 264,
      "ű": 265,
      "ų": 266,
      "ŵ": 267,
      "ź": 268,
      "Ż": 269,
      "ż": 270,
      "Ž": 271,
      "ž": 272,
      "Ƅ": 273,
      "Ə": 274,
      "Ɛ": 275,
      "ƒ": 276,
      "Ơ": 277,
      "ơ": 278,
      "Ƭ": 279,
      "Ư": 280,
      "ư": 281,
      "ǀ": 282,
      "ǎ": 283,
      "ǐ": 284,
      "ǒ": 285,
      "ǔ": 286,
      "ǚ": 287,
      "ǝ": 288,
      "ǣ": 289,
      "Ǥ": 290,
      "ǫ": 291,
      "ǲ": 292,
      "ǳ": 293,
      "ǹ": 294,
      "Ȁ": 295,
      "ȁ": 296,
      "Ȇ": 297,
      "Ș": 298,
      "ș": 299,
      "Ț": 300,
      "ț": 301,
      "ɐ": 302,
      "ɑ": 303,
      "ɒ": 304,
      "ɔ": 305,
      "ɕ": 306,
      "ɗ": 307,
      "ə": 308,
      "ɛ": 309,
      "ɜ": 310,
      "ɡ": 311,
      "ɣ": 312,
      "ɦ": 313,
      "ɨ": 314,
      "ɪ": 315,
      "ɫ": 316,
      "ɬ": 317,
      "ɯ": 318,
      "ɲ": 319,
      "ɹ": 320,
      "ɾ": 321,
      "ʀ": 322,
      "ʁ": 323,
      "ʃ": 324,
      "ʉ": 325,
      "ʊ": 326,
      "ʋ": 327,
      "ʌ": 328,
      "ʑ": 329,
      "ʒ": 330,
      "ʔ": 331,
      "ʕ": 332,
      "ʧ": 333,
      "ʰ": 334,
      "ʲ": 335,
      "ʳ": 336,
      "ʷ": 337,
      "ʸ": 338,
      "ʻ": 339,
      "ʼ": 340,
      "ʽ": 341,
      "ʾ": 342,
      "ʿ": 343,
      "ˈ": 344,
      "ˊ": 345,
      "ˋ": 346,
      "ˌ": 347,
      "ː": 348,
      "˚": 349,
      "˜": 350,
      "ˡ": 351,
      "ˢ": 352,
      "ˣ": 353,
      "˥": 354,
      "˧": 355,
      "̀": 356,
      "́": 357,
      "̂": 358,
      "̃": 359,
      "̄": 360,
      "̈": 361,
      "̋": 362,
      "̌": 363,
      "̙": 364,
      "̞": 365,
      "̡": 366,
      "̤": 367,
      "̥": 368,
      "̯": 369,
      "̱": 370,
      "̳": 371,
      "̽": 372,
      "͘": 373,
      "͡": 374,
      "͵": 375,
      "Ό": 376,
      "Α": 377,
      "Β": 378,
      "Γ": 379,
      "Δ": 380,
      "Ε": 381,
      "Ζ": 382,
      "Η": 383,
      "Θ": 384,
      "Ι": 385,
      "Κ": 386,
      "Λ": 387,
      "Μ": 388,
      "Ν": 389,
      "Ξ": 390,
      "Ο": 391,
      "Π": 392,
      "Ρ": 393,
      "΢": 394,
      "Σ": 395,
      "Τ": 396,
      "Υ": 397,
      "Φ": 398,
      "Χ": 399,
      "Ψ": 400,
      "Ω": 401,
      "ά": 402,
      "έ": 403,
      "ή": 404,
      "ί": 405,
      "α": 406,
      "β": 407,
      "γ": 408,
      "δ": 409,
      "ε": 410,
      "ζ": 411,
      "η": 412,
      "θ": 413,
      "ι": 414,
      "κ": 415,
      "λ": 416,
      "μ": 417,
      "ν": 418,
      "ξ": 419,
      "ο": 420,
      "π": 421,
      "ρ": 422,
      "ς": 423,
      "σ": 424,
      "τ": 425,
      "υ": 426,
      "φ": 427,
      "χ": 428,
      "ψ": 429,
      "ω": 430,
      "ϊ": 431,
      "ό": 432,
      "ύ": 433,
      "ώ": 434,
      "ϣ": 435,
      "ϩ": 436,
      "ϭ": 437,
      "ϲ": 438,
      "϶": 439,
      "Ј": 440,
      "Љ": 441,
      "А": 442,
      "Б": 443,
      "В": 444,
      "Г": 445,
      "Д": 446,
      "Е": 447,
      "Ж": 448,
      "З": 449,
      "И": 450,
      "К": 451,
      "Л": 452,
      "М": 453,
      "Н": 454,
      "О": 455,
      "П": 456,
      "Р": 457,
      "С": 458,
      "Т": 459,
      "У": 460,
      "Ф": 461,
      "Х": 462,
      "Ц": 463,
      "Ч": 464,
      "Ш": 465,
      "Ь": 466,
      "Э": 467,
      "Ю": 468,
      "Я": 469,
      "а": 470,
      "б": 471,
      "в": 472,
      "г": 473,
      "д": 474,
      "е": 475,
      "ж": 476,
      "з": 477,
      "и": 478,
      "й": 479,
      "к": 480,
      "л": 481,
      "м": 482,
      "н": 483,
      "о": 484,
      "п": 485,
      "р": 486,
      "с": 487,
      "т": 488,
      "у": 489,
      "ф": 490,
      "х": 491,
      "ц": 492,
      "ч": 493,
      "ш": 494,
      "щ": 495,
      "ъ": 496,
      "ы": 497,
      "ь": 498,
      "э": 499,
      "ю": 500,
      "я": 501,
      "ё": 502,
      "є": 503,
      "ѕ": 504,
      "і": 505,
      "ї": 506,
      "ј": 507,
      "љ": 508,
      "њ": 509,
      "ћ": 510,
      "џ": 511,
      "Ѡ": 512,
      "ѣ": 513,
      "ҙ": 514,
      "Қ": 515,
      "ү": 516,
      "ұ": 517,
      "Ҳ": 518,
      "ҳ": 519,
      "Һ": 520,
      "һ": 521,
      "ҿ": 522,
      "ә": 523,
      "Ө": 524,
      "ө": 525,
      "Ԫ": 526,
      "Ա": 527,
      "Բ": 528,
      "Գ": 529,
      "Դ": 530,
      "Ե": 531,
      "Է": 532,
      "Թ": 533,
      "Ի": 534,
      "Լ": 535,
      "Ծ": 536,
      "Կ": 537,
      "Հ": 538,
      "Ձ": 539,
      "Ճ": 540,
      "Մ": 541,
      "Յ": 542,
      "Ն": 543,
      "Շ": 544,
      "Ո": 545,
      "Պ": 546,
      "Ռ": 547,
      "Վ": 548,
      "Տ": 549,
      "Փ": 550,
      "Ք": 551,
      "՝": 552,
      "՞": 553,
      "ա": 554,
      "բ": 555,
      "գ": 556,
      "դ": 557,
      "ե": 558,
      "զ": 559,
      "է": 560,
      "ը": 561,
      "թ": 562,
      "ժ": 563,
      "ի": 564,
      "լ": 565,
      "խ": 566,
      "ծ": 567,
      "կ": 568,
      "հ": 569,
      "ձ": 570,
      "ղ": 571,
      "ճ": 572,
      "մ": 573,
      "յ": 574,
      "ն": 575,
      "շ": 576,
      "ո": 577,
      "չ": 578,
      "պ": 579,
      "ջ": 580,
      "ռ": 581,
      "ս": 582,
      "վ": 583,
      "տ": 584,
      "ր": 585,
      "ց": 586,
      "ւ": 587,
      "փ": 588,
      "ք": 589,
      "օ": 590,
      "֍": 591,
      "֥": 592,
      "֫": 593,
      "ְ": 594,
      "ֲ": 595,
      "ִ": 596,
      "ֵ": 597,
      "ֶ": 598,
      "ַ": 599,
      "ָ": 600,
      "ֹ": 601,
      "ֺ": 602,
      "ּ": 603,
      "ֽ": 604,
      "־": 605,
      "ׁ": 606,
      "ׂ": 607,
      "׋": 608,
      "א": 609,
      "ב": 610,
      "ג": 611,
      "ד": 612,
      "ה": 613,
      "ו": 614,
      "ז": 615,
      "ח": 616,
      "ט": 617,
      "י": 618,
      "ך": 619,
      "כ": 620,
      "ל": 621,
      "ם": 622,
      "מ": 623,
      "ן": 624,
      "נ": 625,
      "ס": 626,
      "ע": 627,
      "פ": 628,
      "ץ": 629,
      "צ": 630,
      "ק": 631,
      "ר": 632,
      "ש": 633,
      "ת": 634,
      "ױ": 635,
      "׳": 636,
      "״": 637,
      "׷": 638,
      "׹": 639,
      "؆": 640,
      "،": 641,
      "؍": 642,
      "ء": 643,
      "آ": 644,
      "أ": 645,
      "ؤ": 646,
      "إ": 647,
      "ئ": 648,
      "ا": 649,
      "ب": 650,
      "ة": 651,
      "ت": 652,
      "ث": 653,
      "ج": 654,
      "ح": 655,
      "خ": 656,
      "د": 657,
      "ذ": 658,
      "ر": 659,
      "ز": 660,
      "س": 661,
      "ش": 662,
      "ص": 663,
      "ض": 664,
      "ط": 665,
      "ظ": 666,
      "ع": 667,
      "غ": 668,
      "ـ": 669,
      "ف": 670,
      "ق": 671,
      "ك": 672,
      "ل": 673,
      "م": 674,
      "ن": 675,
      "ه": 676,
      "و": 677,
      "ى": 678,
      "ي": 679,
      "َ": 680,
      "ُ": 681,
      "ِ": 682,
      "ّ": 683,
      "ْ": 684,
      "ٯ": 685,
      "ٱ": 686,
      "ٸ": 687,
      "ٹ": 688,
      "پ": 689,
      "چ": 690,
      "ښ": 691,
      "ک": 692,
      "ګ": 693,
      "ڭ": 694,
      "گ": 695,
      "ڳ": 696,
      "ھ": 697,
      "ہ": 698,
      "ی": 699,
      "ە": 700,
      "۱": 701,
      "۲": 702,
      "۳": 703,
      "۴": 704,
      "۵": 705,
      "۶": 706,
      "۷": 707,
      "۸": 708,
      "۹": 709,
      "ܐ": 710,
      "ܘ": 711,
      "ܝ": 712,
      "ܟ": 713,
      "ܡ": 714,
      "ܢ": 715,
      "ܩ": 716,
      "ܸ": 717,
      "߱": 718,
      "ं": 719,
      "अ": 720,
      "आ": 721,
      "इ": 722,
      "ई": 723,
      "ओ": 724,
      "औ": 725,
      "क": 726,
      "ख": 727,
      "ग": 728,
      "च": 729,
      "ज": 730,
      "ट": 731,
      "ड": 732,
      "ण": 733,
      "त": 734,
      "द": 735,
      "ध": 736,
      "न": 737,
      "प": 738,
      "ब": 739,
      "भ": 740,
      "म": 741,
      "य": 742,
      "र": 743,
      "ल": 744,
      "व": 745,
      "श": 746,
      "ष": 747,
      "स": 748,
      "ह": 749,
      "ा": 750,
      "ि": 751,
      "ी": 752,
      "ु": 753,
      "ू": 754,
      "े": 755,
      "ो": 756,
      "ौ": 757,
      "्": 758,
      "०": 759,
      "ং": 760,
      "আ": 761,
      "ক": 762,
      "গ": 763,
      "ছ": 764,
      "ট": 765,
      "ঠ": 766,
      "ড": 767,
      "ত": 768,
      "দ": 769,
      "ন": 770,
      "প": 771,
      "ফ": 772,
      "ব": 773,
      "ম": 774,
      "য": 775,
      "র": 776,
      "ল": 777,
      "শ": 778,
      "স": 779,
      "হ": 780,
      "়": 781,
      "া": 782,
      "ি": 783,
      "ু": 784,
      "ে": 785,
      "ো": 786,
      "্": 787,
      "ৰ": 788,
      "ৱ": 789,
      "਍": 790,
      "ਖ": 791,
      "ਗ": 792,
      "ਤ": 793,
      "ਭ": 794,
      "ਵ": 795,
      "ਸ": 796,
      "ਾ": 797,
      "ੀ": 798,
      "ੈ": 799,
      "ઉ": 800,
      "ક": 801,
      "છ": 802,
      "ટ": 803,
      "ત": 804,
      "દ": 805,
      "પ": 806,
      "ભ": 807,
      "મ": 808,
      "ર": 809,
      "લ": 810,
      "વ": 811,
      "સ": 812,
      "ા": 813,
      "િ": 814,
      "ુ": 815,
      "ે": 816,
      "ો": 817,
      "્": 818,
      "அ": 819,
      "ஆ": 820,
      "இ": 821,
      "உ": 822,
      "ஊ": 823,
      "எ": 824,
      "ஓ": 825,
      "க": 826,
      "ங": 827,
      "ச": 828,
      "ட": 829,
      "ண": 830,
      "த": 831,
      "ந": 832,
      "ன": 833,
      "ப": 834,
      "ம": 835,
      "ய": 836,
      "ர": 837,
      "ற": 838,
      "ல": 839,
      "ள": 840,
      "ழ": 841,
      "வ": 842,
      "ஸ": 843,
      "ா": 844,
      "ி": 845,
      "ீ": 846,
      "ு": 847,
      "ூ": 848,
      "ெ": 849,
      "ே": 850,
      "ை": 851,
      "ொ": 852,
      "ோ": 853,
      "்": 854,
      "ಗ": 855,
      "ತ": 856,
      "ರ": 857,
      "ಳ": 858,
      "ಾ": 859,
      "ಿ": 860,
      "ೆ": 861,
      "ක": 862,
      "ත": 863,
      "ද": 864,
      "ප": 865,
      "ම": 866,
      "ර": 867,
      "ල": 868,
      "ව": 869,
      "්": 870,
      "ා": 871,
      "ි": 872,
      "ු": 873,
      "ෙ": 874,
      "ก": 875,
      "ข": 876,
      "ค": 877,
      "ฆ": 878,
      "ง": 879,
      "จ": 880,
      "ช": 881,
      "ซ": 882,
      "ญ": 883,
      "ฎ": 884,
      "ฒ": 885,
      "ณ": 886,
      "ด": 887,
      "ต": 888,
      "ถ": 889,
      "ท": 890,
      "ธ": 891,
      "น": 892,
      "บ": 893,
      "ป": 894,
      "ผ": 895,
      "พ": 896,
      "ฟ": 897,
      "ภ": 898,
      "ม": 899,
      "ย": 900,
      "ร": 901,
      "ล": 902,
      "ว": 903,
      "ศ": 904,
      "ษ": 905,
      "ส": 906,
      "ห": 907,
      "อ": 908,
      "ฮ": 909,
      "ฯ": 910,
      "ะ": 911,
      "ั": 912,
      "า": 913,
      "ำ": 914,
      "ิ": 915,
      "ี": 916,
      "ื": 917,
      "ุ": 918,
      "ู": 919,
      "เ": 920,
      "แ": 921,
      "โ": 922,
      "ใ": 923,
      "ไ": 924,
      "ๆ": 925,
      "็": 926,
      "่": 927,
      "้": 928,
      "๊": 929,
      "์": 930,
      "ງ": 931,
      "ຖ": 932,
      "ວ": 933,
      "ສ": 934,
      "ອ": 935,
      "ແ": 936,
      "་": 937,
      "།": 938,
      "ཀ": 939,
      "ཁ": 940,
      "ག": 941,
      "ང": 942,
      "ཆ": 943,
      "ཇ": 944,
      "ཏ": 945,
      "ད": 946,
      "ན": 947,
      "པ": 948,
      "ཕ": 949,
      "བ": 950,
      "མ": 951,
      "ཚ": 952,
      "ཛ": 953,
      "ཞ": 954,
      "ཟ": 955,
      "འ": 956,
      "ར": 957,
      "ལ": 958,
      "ཤ": 959,
      "ས": 960,
      "ི": 961,
      "ུ": 962,
      "ེ": 963,
      "ོ": 964,
      "ྒ": 965,
      "ྕ": 966,
      "ྟ": 967,
      "ྡ": 968,
      "ྤ": 969,
      "ྭ": 970,
      "ྱ": 971,
      "ྲ": 972,
      "ླ": 973,
      "ྷ": 974,
      "က": 975,
      "င": 976,
      "စ": 977,
      "ည": 978,
      "ဍ": 979,
      "တ": 980,
      "န": 981,
      "ပ": 982,
      "ဖ": 983,
      "ဗ": 984,
      "မ": 985,
      "ရ": 986,
      "လ": 987,
      "ဟ": 988,
      "အ": 989,
      "ဦ": 990,
      "ါ": 991,
      "ာ": 992,
      "ိ": 993,
      "ီ": 994,
      "ု": 995,
      "ူ": 996,
      "ေ": 997,
      "ဲ": 998,
      "ံ": 999,
      "့": 1000,
      "း": 1001,
      "္": 1002,
      "်": 1003,
      "ျ": 1004,
      "ြ": 1005,
      "ွ": 1006,
      "ှ": 1007,
      "၊": 1008,
      "ၚ": 1009,
      "ၟ": 1010,
      "ၶ": 1011,
      "ႄ": 1012,
      "ႇ": 1013,
      "ა": 1014,
      "ბ": 1015,
      "დ": 1016,
      "ე": 1017,
      "ვ": 1018,
      "ზ": 1019,
      "თ": 1020,
      "ი": 1021,
      "ლ": 1022,
      "მ": 1023,
      "ნ": 1024,
      "ო": 1025,
      "რ": 1026,
      "ს": 1027,
      "უ": 1028,
      "ფ": 1029,
      "ქ": 1030,
      "ყ": 1031,
      "ც": 1032,
      "ძ": 1033,
      "წ": 1034,
      "ჯ": 1035,
      "ჲ": 1036,
      "ማ": 1037,
      "ረ": 1038,
      "ር": 1039,
      "ሰ": 1040,
      "ቓ": 1041,
      "ኛ": 1042,
      "አ": 1043,
      "ጃ": 1044,
      "ᐃ": 1045,
      "ᐳ": 1046,
      "ᓅ": 1047,
      "ᓯ": 1048,
      "ᕋ": 1049,
      "ក": 1050,
      "គ": 1051,
      "ឃ": 1052,
      "ង": 1053,
      "ច": 1054,
      "ជ": 1055,
      "ញ": 1056,
      "ដ": 1057,
      "ឋ": 1058,
      "ត": 1059,
      "ទ": 1060,
      "ធ": 1061,
      "ន": 1062,
      "ព": 1063,
      "ម": 1064,
      "យ": 1065,
      "រ": 1066,
      "វ": 1067,
      "ស": 1068,
      "ហ": 1069,
      "អ": 1070,
      "ឧ": 1071,
      "ា": 1072,
      "ី": 1073,
      "ឹ": 1074,
      "ុ": 1075,
      "េ": 1076,
      "ែ": 1077,
      "ោ": 1078,
      "ំ": 1079,
      "ះ": 1080,
      "៉": 1081,
      "្": 1082,
      "៣": 1083,
      "ᠠ": 1084,
      "ᠡ": 1085,
      "ᠢ": 1086,
      "ᠣ": 1087,
      "ᠤ": 1088,
      "ᠨ": 1089,
      "ᠩ": 1090,
      "ᠪ": 1091,
      "ᠬ": 1092,
      "ᠭ": 1093,
      "ᠮ": 1094,
      "ᠯ": 1095,
      "ᠰ": 1096,
      "ᠲ": 1097,
      "ᠳ": 1098,
      "ᠴ": 1099,
      "ᠵ": 1100,
      "ᠶ": 1101,
      "ᠷ": 1102,
      "ᠸ": 1103,
      "ᡝ": 1104,
      "ᡠ": 1105,
      "ᡤ": 1106,
      "ᡥ": 1107,
      "ᡧ": 1108,
      "ᡨ": 1109,
      "ᡩ": 1110,
      "ᡳ": 1111,
      "ᡴ": 1112,
      "ᡵ": 1113,
      "ᡷ": 1114,
      "ᴀ": 1115,
      "ᴇ": 1116,
      "ᴬ": 1117,
      "ᴮ": 1118,
      "ᴳ": 1119,
      "ᴴ": 1120,
      "ᴵ": 1121,
      "ᴷ": 1122,
      "ᴺ": 1123,
      "ᴾ": 1124,
      "ᴿ": 1125,
      "ᵀ": 1126,
      "ᵃ": 1127,
      "ᵇ": 1128,
      "ᵈ": 1129,
      "ᵉ": 1130,
      "ᵍ": 1131,
      "ᵏ": 1132,
      "ᵐ": 1133,
      "ᵒ": 1134,
      "ᵖ": 1135,
      "ᵗ": 1136,
      "ᵘ": 1137,
      "ᵢ": 1138,
      "ᵤ": 1139,
      "ᵥ": 1140,
      "ᵻ": 1141,
      "ᶜ": 1142,
      "ᶻ": 1143,
      "᷆": 1144,
      "ḍ": 1145,
      "ḏ": 1146,
      "ḕ": 1147,
      "Ḡ": 1148,
      "ḡ": 1149,
      "Ḥ": 1150,
      "ḥ": 1151,
      "ḫ": 1152,
      "ḳ": 1153,
      "ḵ": 1154,
      "ḷ": 1155,
      "ṁ": 1156,
      "ṃ": 1157,
      "ṅ": 1158,
      "Ṇ": 1159,
      "ṇ": 1160,
      "Ṉ": 1161,
      "Ṛ": 1162,
      "ṛ": 1163,
      "Ṡ": 1164,
      "Ṣ": 1165,
      "ṣ": 1166,
      "Ṭ": 1167,
      "ṭ": 1168,
      "ṯ": 1169,
      "ẓ": 1170,
      "ẚ": 1171,
      "ạ": 1172,
      "ả": 1173,
      "ấ": 1174,
      "ầ": 1175,
      "ẩ": 1176,
      "ẫ": 1177,
      "ậ": 1178,
      "ắ": 1179,
      "ằ": 1180,
      "ẵ": 1181,
      "ẻ": 1182,
      "Ế": 1183,
      "ế": 1184,
      "ề": 1185,
      "ể": 1186,
      "ễ": 1187,
      "ệ": 1188,
      "ỉ": 1189,
      "ị": 1190,
      "ọ": 1191,
      "ỏ": 1192,
      "Ố": 1193,
      "ố": 1194,
      "ồ": 1195,
      "ổ": 1196,
      "ộ": 1197,
      "Ớ": 1198,
      "ớ": 1199,
      "Ờ": 1200,
      "ờ": 1201,
      "Ở": 1202,
      "ở": 1203,
      "Ỡ": 1204,
      "ỡ": 1205,
      "Ợ": 1206,
      "ợ": 1207,
      "ụ": 1208,
      "ủ": 1209,
      "Ứ": 1210,
      "ứ": 1211,
      "Ừ": 1212,
      "ừ": 1213,
      "Ử": 1214,
      "ử": 1215,
      "Ữ": 1216,
      "ữ": 1217,
      "Ự": 1218,
      "ự": 1219,
      "ỳ": 1220,
      "Ỷ": 1221,
      "ỹ": 1222,
      "ἀ": 1223,
      "ἁ": 1224,
      "ἄ": 1225,
      "ἅ": 1226,
      "ἆ": 1227,
      "Ἀ": 1228,
      "Ἁ": 1229,
      "Ἄ": 1230,
      "Ἅ": 1231,
      "ἐ": 1232,
      "Ἐ": 1233,
      "Ἑ": 1234,
      "Ἕ": 1235,
      "ἠ": 1236,
      "ἡ": 1237,
      "ἣ": 1238,
      "ἤ": 1239,
      "ἦ": 1240,
      "Ἡ": 1241,
      "Ἥ": 1242,
      "ἰ": 1243,
      "ἱ": 1244,
      "ἴ": 1245,
      "ἵ": 1246,
      "ἶ": 1247,
      "ἷ": 1248,
      "Ἰ": 1249,
      "Ἱ": 1250,
      "Ἴ": 1251,
      "ὀ": 1252,
      "ὁ": 1253,
      "ὄ": 1254,
      "ὅ": 1255,
      "Ὁ": 1256,
      "ὐ": 1257,
      "ὑ": 1258,
      "ὕ": 1259,
      "ὖ": 1260,
      "Ὑ": 1261,
      "ὡ": 1262,
      "Ὥ": 1263,
      "ὰ": 1264,
      "ὲ": 1265,
      "ὴ": 1266,
      "ὶ": 1267,
      "ὸ": 1268,
      "ὺ": 1269,
      "ᾀ": 1270,
      "ᾶ": 1271,
      "ῆ": 1272,
      "ῖ": 1273,
      "ῥ": 1274,
      "ῦ": 1275,
      "Ῥ": 1276,
      "ῳ": 1277,
      "ῶ": 1278,
      "ῷ": 1279,
      "῾": 1280,
      "​": 1281,
      "‌": 1282,
      "‍": 1283,
      "‎": 1284,
      "‏": 1285,
      "‐": 1286,
      "‑": 1287,
      "‒": 1288,
      "–": 1289,
      "—": 1290,
      "―": 1291,
      "‖": 1292,
      "‘": 1293,
      "’": 1294,
      "‚": 1295,
      "“": 1296,
      "”": 1297,
      "„": 1298,
      "‟": 1299,
      "†": 1300,
      "‡": 1301,
      "•": 1302,
      "‣": 1303,
      "‥": 1304,
      "…": 1305,
      "‧": 1306,
      "‪": 1307,
      "‬": 1308,
      "‭": 1309,
      "‰": 1310,
      "′": 1311,
      "″": 1312,
      "‹": 1313,
      "›": 1314,
      "※": 1315,
      "‼": 1316,
      "‾": 1317,
      "⁄": 1318,
      "⁠": 1319,
      "⁰": 1320,
      "ⁱ": 1321,
      "⁴": 1322,
      "⁵": 1323,
      "⁶": 1324,
      "⁷": 1325,
      "⁸": 1326,
      "⁹": 1327,
      "⁺": 1328,
      "⁻": 1329,
      "ⁿ": 1330,
      "₀": 1331,
      "₁": 1332,
      "₂": 1333,
      "₃": 1334,
      "₄": 1335,
      "₅": 1336,
      "₆": 1337,
      "₇": 1338,
      "₈": 1339,
      "₉": 1340,
      "₊": 1341,
      "₍": 1342,
      "₎": 1343,
      "ₐ": 1344,
      "ₑ": 1345,
      "ₓ": 1346,
      "ₕ": 1347,
      "ₖ": 1348,
      "ₘ": 1349,
      "ₙ": 1350,
      "ₚ": 1351,
      "ₛ": 1352,
      "ₜ": 1353,
      "₡": 1354,
      "₤": 1355,
      "€": 1356,
      "₱": 1357,
      "₵": 1358,
      "₹": 1359,
      "₽": 1360,
      "⃣": 1361,
      "℃": 1362,
      "℉": 1363,
      "ℓ": 1364,
      "№": 1365,
      "℗": 1366,
      "℠": 1367,
      "™": 1368,
      "⅓": 1369,
      "⅔": 1370,
      "Ⅰ": 1371,
      "Ⅱ": 1372,
      "Ⅲ": 1373,
      "Ⅳ": 1374,
      "Ⅹ": 1375,
      "Ⅿ": 1376,
      "ⅰ": 1377,
      "ⅱ": 1378,
      "ⅲ": 1379,
      "ↀ": 1380,
      "←": 1381,
      "↑": 1382,
      "→": 1383,
      "↓": 1384,
      "↔": 1385,
      "↖": 1386,
      "↗": 1387,
      "↩": 1388,
      "↵": 1389,
      "⇐": 1390,
      "⇒": 1391,
      "⇧": 1392,
      "⇾": 1393,
      "∀": 1394,
      "∃": 1395,
      "∆": 1396,
      "∈": 1397,
      "∑": 1398,
      "−": 1399,
      "∗": 1400,
      "∙": 1401,
      "√": 1402,
      "∞": 1403,
      "∠": 1404,
      "∧": 1405,
      "∨": 1406,
      "≈": 1407,
      "≠": 1408,
      "≡": 1409,
      "≤": 1410,
      "≥": 1411,
      "⊂": 1412,
      "⊃": 1413,
      "⊢": 1414,
      "⋅": 1415,
      "⋯": 1416,
      "⌘": 1417,
      "〉": 1418,
      "⎯": 1419,
      "⏩": 1420,
      "⏪": 1421,
      "⏰": 1422,
      "①": 1423,
      "②": 1424,
      "③": 1425,
      "④": 1426,
      "⑤": 1427,
      "⑥": 1428,
      "⑦": 1429,
      "⑧": 1430,
      "⑨": 1431,
      "⑴": 1432,
      "⑵": 1433,
      "⑶": 1434,
      "⑷": 1435,
      "ⓒ": 1436,
      "─": 1437,
      "│": 1438,
      "└": 1439,
      "├": 1440,
      "┼": 1441,
      "═": 1442,
      "╞": 1443,
      "╡": 1444,
      "╱": 1445,
      "╵": 1446,
      "╷": 1447,
      "▌": 1448,
      "■": 1449,
      "□": 1450,
      "▪": 1451,
      "▬": 1452,
      "▲": 1453,
      "▶": 1454,
      "▸": 1455,
      "►": 1456,
      "▼": 1457,
      "◄": 1458,
      "◆": 1459,
      "○": 1460,
      "●": 1461,
      "◘": 1462,
      "◢": 1463,
      "◤": 1464,
      "◯": 1465,
      "★": 1466,
      "☆": 1467,
      "☉": 1468,
      "☎": 1469,
      "☐": 1470,
      "☑": 1471,
      "☪": 1472,
      "☺": 1473,
      "☻": 1474,
      "♀": 1475,
      "♂": 1476,
      "♠": 1477,
      "♣": 1478,
      "♥": 1479,
      "♦": 1480,
      "♩": 1481,
      "♪": 1482,
      "♫": 1483,
      "♬": 1484,
      "♭": 1485,
      "♯": 1486,
      "⚒": 1487,
      "⚠": 1488,
      "✅": 1489,
      "✍": 1490,
      "✓": 1491,
      "✔": 1492,
      "✖": 1493,
      "✨": 1494,
      "✩": 1495,
      "❌": 1496,
      "❟": 1497,
      "❤": 1498,
      "❧": 1499,
      "❮": 1500,
      "❯": 1501,
      "➔": 1502,
      "➜": 1503,
      "➝": 1504,
      "➢": 1505,
      "➤": 1506,
      "⟨": 1507,
      "⟩": 1508,
      "⟵": 1509,
      "⟶": 1510,
      "⬅": 1511,
      "⬈": 1512,
      "ⱼ": 1513,
      "ⳟ": 1514,
      "ⳡ": 1515,
      "ⳣ": 1516,
      "⹥": 1517,
      "⽂": 1518,
      "⾥": 1519,
      "⾳": 1520,
      "⾼": 1521,
      "⿰": 1522,
      "、": 1523,
      "。": 1524,
      "々": 1525,
      "〇": 1526,
      "〈": 1527,
      "〉": 1528,
      "《": 1529,
      "》": 1530,
      "「": 1531,
      "」": 1532,
      "『": 1533,
      "』": 1534,
      "【": 1535,
      "】": 1536,
      "〔": 1537,
      "〕": 1538,
      "〜": 1539,
      "〻": 1540,
      "〽": 1541,
      "あ": 1542,
      "い": 1543,
      "う": 1544,
      "え": 1545,
      "お": 1546,
      "か": 1547,
      "が": 1548,
      "き": 1549,
      "ぎ": 1550,
      "く": 1551,
      "ぐ": 1552,
      "け": 1553,
      "げ": 1554,
      "こ": 1555,
      "ご": 1556,
      "さ": 1557,
      "ざ": 1558,
      "し": 1559,
      "じ": 1560,
      "す": 1561,
      "ず": 1562,
      "せ": 1563,
      "ぜ": 1564,
      "そ": 1565,
      "た": 1566,
      "だ": 1567,
      "ち": 1568,
      "っ": 1569,
      "つ": 1570,
      "づ": 1571,
      "て": 1572,
      "で": 1573,
      "と": 1574,
      "ど": 1575,
      "な": 1576,
      "に": 1577,
      "ぬ": 1578,
      "ね": 1579,
      "の": 1580,
      "は": 1581,
      "ば": 1582,
      "ぱ": 1583,
      "ひ": 1584,
      "び": 1585,
      "ぴ": 1586,
      "ふ": 1587,
      "ぶ": 1588,
      "ぷ": 1589,
      "へ": 1590,
      "べ": 1591,
      "ほ": 1592,
      "ぼ": 1593,
      "ま": 1594,
      "み": 1595,
      "む": 1596,
      "め": 1597,
      "も": 1598,
      "ゃ": 1599,
      "や": 1600,
      "ゅ": 1601,
      "ゆ": 1602,
      "ょ": 1603,
      "よ": 1604,
      "ら": 1605,
      "り": 1606,
      "る": 1607,
      "れ": 1608,
      "ろ": 1609,
      "わ": 1610,
      "を": 1611,
      "ん": 1612,
      "ゝ": 1613,
      "ゞ": 1614,
      "ァ": 1615,
      "ア": 1616,
      "ィ": 1617,
      "イ": 1618,
      "ゥ": 1619,
      "ウ": 1620,
      "ェ": 1621,
      "エ": 1622,
      "ォ": 1623,
      "オ": 1624,
      "カ": 1625,
      "ガ": 1626,
      "キ": 1627,
      "ギ": 1628,
      "ク": 1629,
      "グ": 1630,
      "ケ": 1631,
      "ゲ": 1632,
      "コ": 1633,
      "ゴ": 1634,
      "サ": 1635,
      "ザ": 1636,
      "シ": 1637,
      "ジ": 1638,
      "ス": 1639,
      "ズ": 1640,
      "セ": 1641,
      "ゼ": 1642,
      "ソ": 1643,
      "ゾ": 1644,
      "タ": 1645,
      "ダ": 1646,
      "チ": 1647,
      "ヂ": 1648,
      "ッ": 1649,
      "ツ": 1650,
      "テ": 1651,
      "デ": 1652,
      "ト": 1653,
      "ド": 1654,
      "ナ": 1655,
      "ニ": 1656,
      "ヌ": 1657,
      "ネ": 1658,
      "ノ": 1659,
      "ハ": 1660,
      "バ": 1661,
      "パ": 1662,
      "ヒ": 1663,
      "ビ": 1664,
      "ピ": 1665,
      "フ": 1666,
      "ブ": 1667,
      "プ": 1668,
      "ヘ": 1669,
      "ベ": 1670,
      "ペ": 1671,
      "ホ": 1672,
      "ボ": 1673,
      "ポ": 1674,
      "マ": 1675,
      "ミ": 1676,
      "ム": 1677,
      "メ": 1678,
      "モ": 1679,
      "ャ": 1680,
      "ヤ": 1681,
      "ュ": 1682,
      "ユ": 1683,
      "ョ": 1684,
      "ヨ": 1685,
      "ラ": 1686,
      "リ": 1687,
      "ル": 1688,
      "レ": 1689,
      "ロ": 1690,
      "ワ": 1691,
      "ン": 1692,
      "ヴ": 1693,
      "ヶ": 1694,
      "・": 1695,
      "ー": 1696,
      "ヽ": 1697,
      "ㄇ": 1698,
      "ㄈ": 1699,
      "ㄋ": 1700,
      "ㄌ": 1701,
      "ㄑ": 1702,
      "ㄝ": 1703,
      "ㄞ": 1704,
      "ㄣ": 1705,
      "ㄧ": 1706,
      "ㄨ": 1707,
      "ㅂ": 1708,
      "ㅅ": 1709,
      "ㅆ": 1710,
      "ㅊ": 1711,
      "ㅍ": 1712,
      "ㅏ": 1713,
      "ㅐ": 1714,
      "ㅓ": 1715,
      "ㅔ": 1716,
      "ㅗ": 1717,
      "ㅜ": 1718,
      "ㅡ": 1719,
      "ㅣ": 1720,
      "ㅸ": 1721,
      "ㅿ": 1722,
      "ㆍ": 1723,
      "㈠": 1724,
      "㈡": 1725,
      "㎡": 1726,
      "㑩": 1727,
      "㓥": 1728,
      "㖊": 1729,
      "㘣": 1730,
      "㙩": 1731,
      "㚟": 1732,
      "㜲": 1733,
      "㞎": 1734,
      "㫁": 1735,
      "㭴": 1736,
      "㮚": 1737,
      "㯫": 1738,
      "㳇": 1739,
      "㵅": 1740,
      "㷧": 1741,
      "㹴": 1742,
      "䇲": 1743,
      "䊾": 1744,
      "䓬": 1745,
      "䖏": 1746,
      "䙓": 1747,
      "䜣": 1748,
      "䦹": 1749,
      "䧇": 1750,
      "䫂": 1751,
      "䫻": 1752,
      "䱵": 1753,
      "䴘": 1754,
      "䴙": 1755,
      "䵣": 1756,
      "一": 1757,
      "丁": 1758,
      "七": 1759,
      "万": 1760,
      "丈": 1761,
      "三": 1762,
      "上": 1763,
      "下": 1764,
      "不": 1765,
      "与": 1766,
      "丐": 1767,
      "丑": 1768,
      "专": 1769,
      "且": 1770,
      "丕": 1771,
      "世": 1772,
      "丘": 1773,
      "丙": 1774,
      "业": 1775,
      "丛": 1776,
      "东": 1777,
      "丝": 1778,
      "丞": 1779,
      "両": 1780,
      "丢": 1781,
      "两": 1782,
      "严": 1783,
      "並": 1784,
      "丧": 1785,
      "个": 1786,
      "丫": 1787,
      "中": 1788,
      "丰": 1789,
      "串": 1790,
      "临": 1791,
      "丶": 1792,
      "丸": 1793,
      "丹": 1794,
      "为": 1795,
      "主": 1796,
      "丽": 1797,
      "举": 1798,
      "乂": 1799,
      "乃": 1800,
      "久": 1801,
      "么": 1802,
      "义": 1803,
      "之": 1804,
      "乌": 1805,
      "乍": 1806,
      "乎": 1807,
      "乏": 1808,
      "乐": 1809,
      "乒": 1810,
      "乓": 1811,
      "乔": 1812,
      "乖": 1813,
      "乗": 1814,
      "乘": 1815,
      "乙": 1816,
      "乜": 1817,
      "九": 1818,
      "乞": 1819,
      "也": 1820,
      "习": 1821,
      "乡": 1822,
      "乣": 1823,
      "书": 1824,
      "乩": 1825,
      "乪": 1826,
      "买": 1827,
      "乱": 1828,
      "乳": 1829,
      "乾": 1830,
      "亀": 1831,
      "亂": 1832,
      "亅": 1833,
      "了": 1834,
      "予": 1835,
      "争": 1836,
      "事": 1837,
      "二": 1838,
      "于": 1839,
      "亏": 1840,
      "云": 1841,
      "互": 1842,
      "亓": 1843,
      "五": 1844,
      "井": 1845,
      "亘": 1846,
      "亚": 1847,
      "些": 1848,
      "亜": 1849,
      "亞": 1850,
      "亟": 1851,
      "亡": 1852,
      "亢": 1853,
      "交": 1854,
      "亥": 1855,
      "亦": 1856,
      "产": 1857,
      "亨": 1858,
      "亩": 1859,
      "享": 1860,
      "京": 1861,
      "亭": 1862,
      "亮": 1863,
      "亲": 1864,
      "亳": 1865,
      "亵": 1866,
      "亶": 1867,
      "亹": 1868,
      "人": 1869,
      "亻": 1870,
      "亿": 1871,
      "什": 1872,
      "仁": 1873,
      "仃": 1874,
      "仄": 1875,
      "仅": 1876,
      "仆": 1877,
      "仇": 1878,
      "今": 1879,
      "介": 1880,
      "仍": 1881,
      "从": 1882,
      "仏": 1883,
      "仑": 1884,
      "仓": 1885,
      "仔": 1886,
      "仕": 1887,
      "他": 1888,
      "仗": 1889,
      "付": 1890,
      "仙": 1891,
      "仝": 1892,
      "仞": 1893,
      "仟": 1894,
      "仡": 1895,
      "代": 1896,
      "令": 1897,
      "以": 1898,
      "仪": 1899,
      "们": 1900,
      "仮": 1901,
      "仰": 1902,
      "仲": 1903,
      "仳": 1904,
      "仵": 1905,
      "件": 1906,
      "价": 1907,
      "任": 1908,
      "份": 1909,
      "仿": 1910,
      "企": 1911,
      "伉": 1912,
      "伊": 1913,
      "伍": 1914,
      "伎": 1915,
      "伏": 1916,
      "伐": 1917,
      "休": 1918,
      "伕": 1919,
      "众": 1920,
      "优": 1921,
      "伙": 1922,
      "会": 1923,
      "伝": 1924,
      "伞": 1925,
      "伟": 1926,
      "传": 1927,
      "伤": 1928,
      "伥": 1929,
      "伦": 1930,
      "伧": 1931,
      "伪": 1932,
      "伫": 1933,
      "伯": 1934,
      "估": 1935,
      "伴": 1936,
      "伶": 1937,
      "伸": 1938,
      "伺": 1939,
      "似": 1940,
      "伽": 1941,
      "伾": 1942,
      "佀": 1943,
      "佃": 1944,
      "但": 1945,
      "佇": 1946,
      "位": 1947,
      "低": 1948,
      "住": 1949,
      "佐": 1950,
      "佑": 1951,
      "体": 1952,
      "佔": 1953,
      "何": 1954,
      "佗": 1955,
      "佘": 1956,
      "余": 1957,
      "佚": 1958,
      "佛": 1959,
      "作": 1960,
      "佞": 1961,
      "佟": 1962,
      "你": 1963,
      "佢": 1964,
      "佣": 1965,
      "佤": 1966,
      "佥": 1967,
      "佧": 1968,
      "佩": 1969,
      "佬": 1970,
      "佯": 1971,
      "佰": 1972,
      "佳": 1973,
      "佷": 1974,
      "佺": 1975,
      "佻": 1976,
      "佼": 1977,
      "佾": 1978,
      "使": 1979,
      "侂": 1980,
      "侃": 1981,
      "侄": 1982,
      "來": 1983,
      "侈": 1984,
      "例": 1985,
      "侍": 1986,
      "侏": 1987,
      "侑": 1988,
      "侔": 1989,
      "侗": 1990,
      "侘": 1991,
      "供": 1992,
      "依": 1993,
      "侠": 1994,
      "侣": 1995,
      "侥": 1996,
      "侦": 1997,
      "侧": 1998,
      "侨": 1999,
      "侩": 2000,
      "侪": 2001,
      "侬": 2002,
      "侮": 2003,
      "侯": 2004,
      "侵": 2005,
      "侹": 2006,
      "便": 2007,
      "係": 2008,
      "促": 2009,
      "俄": 2010,
      "俅": 2011,
      "俊": 2012,
      "俎": 2013,
      "俏": 2014,
      "俐": 2015,
      "俑": 2016,
      "俗": 2017,
      "俘": 2018,
      "俚": 2019,
      "俛": 2020,
      "保": 2021,
      "俞": 2022,
      "俟": 2023,
      "俠": 2024,
      "信": 2025,
      "俣": 2026,
      "俦": 2027,
      "俨": 2028,
      "俩": 2029,
      "俪": 2030,
      "俫": 2031,
      "俭": 2032,
      "修": 2033,
      "俯": 2034,
      "俰": 2035,
      "俱": 2036,
      "俳": 2037,
      "俵": 2038,
      "俶": 2039,
      "俸": 2040,
      "俺": 2041,
      "俽": 2042,
      "俾": 2043,
      "倂": 2044,
      "倉": 2045,
      "個": 2046,
      "倍": 2047,
      "倏": 2048,
      "們": 2049,
      "倒": 2050,
      "倓": 2051,
      "倔": 2052,
      "倕": 2053,
      "倘": 2054,
      "候": 2055,
      "倚": 2056,
      "倛": 2057,
      "倜": 2058,
      "倞": 2059,
      "借": 2060,
      "倡": 2061,
      "倣": 2062,
      "値": 2063,
      "倦": 2064,
      "倧": 2065,
      "倩": 2066,
      "倪": 2067,
      "倫": 2068,
      "倬": 2069,
      "倭": 2070,
      "倮": 2071,
      "倶": 2072,
      "债": 2073,
      "值": 2074,
      "倾": 2075,
      "偁": 2076,
      "偃": 2077,
      "假": 2078,
      "偈": 2079,
      "偉": 2080,
      "偏": 2081,
      "偕": 2082,
      "做": 2083,
      "停": 2084,
      "健": 2085,
      "偪": 2086,
      "偲": 2087,
      "偵": 2088,
      "偶": 2089,
      "偷": 2090,
      "偻": 2091,
      "偿": 2092,
      "傀": 2093,
      "傅": 2094,
      "傈": 2095,
      "傍": 2096,
      "傑": 2097,
      "傒": 2098,
      "傕": 2099,
      "備": 2100,
      "傣": 2101,
      "傤": 2102,
      "傥": 2103,
      "傧": 2104,
      "储": 2105,
      "傩": 2106,
      "催": 2107,
      "傲": 2108,
      "傳": 2109,
      "傷": 2110,
      "傻": 2111,
      "像": 2112,
      "僑": 2113,
      "僖": 2114,
      "僚": 2115,
      "僧": 2116,
      "僬": 2117,
      "僭": 2118,
      "僮": 2119,
      "僳": 2120,
      "僵": 2121,
      "僶": 2122,
      "價": 2123,
      "僻": 2124,
      "儀": 2125,
      "儁": 2126,
      "儆": 2127,
      "儇": 2128,
      "儋": 2129,
      "儍": 2130,
      "儒": 2131,
      "儡": 2132,
      "優": 2133,
      "儵": 2134,
      "儿": 2135,
      "兀": 2136,
      "允": 2137,
      "元": 2138,
      "兄": 2139,
      "充": 2140,
      "兆": 2141,
      "先": 2142,
      "光": 2143,
      "克": 2144,
      "免": 2145,
      "児": 2146,
      "兑": 2147,
      "兒": 2148,
      "兔": 2149,
      "兖": 2150,
      "党": 2151,
      "兜": 2152,
      "入": 2153,
      "內": 2154,
      "全": 2155,
      "兩": 2156,
      "兪": 2157,
      "八": 2158,
      "公": 2159,
      "六": 2160,
      "兮": 2161,
      "兰": 2162,
      "共": 2163,
      "关": 2164,
      "兴": 2165,
      "兵": 2166,
      "其": 2167,
      "具": 2168,
      "典": 2169,
      "兹": 2170,
      "养": 2171,
      "兼": 2172,
      "兽": 2173,
      "冀": 2174,
      "内": 2175,
      "円": 2176,
      "冈": 2177,
      "冉": 2178,
      "册": 2179,
      "再": 2180,
      "冏": 2181,
      "冒": 2182,
      "冕": 2183,
      "冗": 2184,
      "写": 2185,
      "冚": 2186,
      "军": 2187,
      "农": 2188,
      "冠": 2189,
      "冢": 2190,
      "冤": 2191,
      "冥": 2192,
      "冧": 2193,
      "冬": 2194,
      "冯": 2195,
      "冰": 2196,
      "冲": 2197,
      "决": 2198,
      "冴": 2199,
      "况": 2200,
      "冶": 2201,
      "冷": 2202,
      "冻": 2203,
      "冼": 2204,
      "净": 2205,
      "凃": 2206,
      "凄": 2207,
      "准": 2208,
      "凇": 2209,
      "凉": 2210,
      "凋": 2211,
      "凌": 2212,
      "凍": 2213,
      "减": 2214,
      "凑": 2215,
      "凛": 2216,
      "凜": 2217,
      "凝": 2218,
      "几": 2219,
      "凡": 2220,
      "凤": 2221,
      "凭": 2222,
      "凯": 2223,
      "凰": 2224,
      "凱": 2225,
      "凳": 2226,
      "凶": 2227,
      "凸": 2228,
      "凹": 2229,
      "出": 2230,
      "击": 2231,
      "凼": 2232,
      "函": 2233,
      "凿": 2234,
      "刀": 2235,
      "刁": 2236,
      "刃": 2237,
      "刄": 2238,
      "分": 2239,
      "切": 2240,
      "刈": 2241,
      "刊": 2242,
      "刍": 2243,
      "刎": 2244,
      "刑": 2245,
      "划": 2246,
      "刖": 2247,
      "列": 2248,
      "刘": 2249,
      "则": 2250,
      "刚": 2251,
      "创": 2252,
      "初": 2253,
      "删": 2254,
      "判": 2255,
      "別": 2256,
      "刨": 2257,
      "利": 2258,
      "别": 2259,
      "刭": 2260,
      "刮": 2261,
      "到": 2262,
      "制": 2263,
      "刷": 2264,
      "券": 2265,
      "刹": 2266,
      "刺": 2267,
      "刻": 2268,
      "刽": 2269,
      "剁": 2270,
      "剂": 2271,
      "剃": 2272,
      "則": 2273,
      "削": 2274,
      "剌": 2275,
      "前": 2276,
      "剎": 2277,
      "剐": 2278,
      "剑": 2279,
      "剔": 2280,
      "剖": 2281,
      "剛": 2282,
      "剜": 2283,
      "剟": 2284,
      "剡": 2285,
      "剣": 2286,
      "剤": 2287,
      "剥": 2288,
      "剧": 2289,
      "剩": 2290,
      "剪": 2291,
      "副": 2292,
      "割": 2293,
      "創": 2294,
      "剸": 2295,
      "剽": 2296,
      "剿": 2297,
      "劃": 2298,
      "劇": 2299,
      "劈": 2300,
      "劉": 2301,
      "劍": 2302,
      "劑": 2303,
      "劓": 2304,
      "力": 2305,
      "劝": 2306,
      "办": 2307,
      "功": 2308,
      "加": 2309,
      "务": 2310,
      "劢": 2311,
      "劣": 2312,
      "动": 2313,
      "助": 2314,
      "努": 2315,
      "劫": 2316,
      "劭": 2317,
      "励": 2318,
      "劲": 2319,
      "劳": 2320,
      "劵": 2321,
      "劻": 2322,
      "劾": 2323,
      "势": 2324,
      "勁": 2325,
      "勃": 2326,
      "勇": 2327,
      "勉": 2328,
      "勋": 2329,
      "勍": 2330,
      "勐": 2331,
      "勑": 2332,
      "勒": 2333,
      "勔": 2334,
      "動": 2335,
      "勖": 2336,
      "勘": 2337,
      "務": 2338,
      "勛": 2339,
      "勝": 2340,
      "勞": 2341,
      "募": 2342,
      "勢": 2343,
      "勣": 2344,
      "勤": 2345,
      "勲": 2346,
      "勳": 2347,
      "勷": 2348,
      "勺": 2349,
      "勾": 2350,
      "勿": 2351,
      "匀": 2352,
      "包": 2353,
      "匆": 2354,
      "匈": 2355,
      "匍": 2356,
      "匏": 2357,
      "匐": 2358,
      "匕": 2359,
      "化": 2360,
      "北": 2361,
      "匙": 2362,
      "匜": 2363,
      "匝": 2364,
      "匠": 2365,
      "匡": 2366,
      "匣": 2367,
      "匪": 2368,
      "匮": 2369,
      "匯": 2370,
      "匹": 2371,
      "区": 2372,
      "医": 2373,
      "匾": 2374,
      "匿": 2375,
      "區": 2376,
      "十": 2377,
      "千": 2378,
      "卅": 2379,
      "升": 2380,
      "午": 2381,
      "卉": 2382,
      "半": 2383,
      "卌": 2384,
      "卍": 2385,
      "华": 2386,
      "协": 2387,
      "卑": 2388,
      "卒": 2389,
      "卓": 2390,
      "協": 2391,
      "单": 2392,
      "卖": 2393,
      "南": 2394,
      "博": 2395,
      "卜": 2396,
      "卞": 2397,
      "占": 2398,
      "卡": 2399,
      "卢": 2400,
      "卣": 2401,
      "卤": 2402,
      "卦": 2403,
      "卧": 2404,
      "卫": 2405,
      "卮": 2406,
      "卯": 2407,
      "印": 2408,
      "危": 2409,
      "即": 2410,
      "却": 2411,
      "卵": 2412,
      "卷": 2413,
      "卸": 2414,
      "卻": 2415,
      "卿": 2416,
      "厂": 2417,
      "厄": 2418,
      "厅": 2419,
      "历": 2420,
      "厉": 2421,
      "压": 2422,
      "厌": 2423,
      "厍": 2424,
      "厓": 2425,
      "厔": 2426,
      "厕": 2427,
      "厘": 2428,
      "厙": 2429,
      "厚": 2430,
      "厝": 2431,
      "原": 2432,
      "厢": 2433,
      "厥": 2434,
      "厦": 2435,
      "厨": 2436,
      "厩": 2437,
      "厮": 2438,
      "厯": 2439,
      "去": 2440,
      "县": 2441,
      "叁": 2442,
      "参": 2443,
      "參": 2444,
      "又": 2445,
      "叉": 2446,
      "及": 2447,
      "友": 2448,
      "双": 2449,
      "反": 2450,
      "収": 2451,
      "发": 2452,
      "叒": 2453,
      "叔": 2454,
      "取": 2455,
      "受": 2456,
      "变": 2457,
      "叙": 2458,
      "叚": 2459,
      "叛": 2460,
      "叟": 2461,
      "叠": 2462,
      "叡": 2463,
      "口": 2464,
      "古": 2465,
      "句": 2466,
      "另": 2467,
      "叨": 2468,
      "叩": 2469,
      "只": 2470,
      "叫": 2471,
      "召": 2472,
      "叭": 2473,
      "叮": 2474,
      "可": 2475,
      "台": 2476,
      "叱": 2477,
      "史": 2478,
      "右": 2479,
      "叵": 2480,
      "叶": 2481,
      "号": 2482,
      "司": 2483,
      "叹": 2484,
      "叼": 2485,
      "叽": 2486,
      "吁": 2487,
      "吃": 2488,
      "各": 2489,
      "合": 2490,
      "吉": 2491,
      "吊": 2492,
      "吋": 2493,
      "同": 2494,
      "名": 2495,
      "后": 2496,
      "吏": 2497,
      "吐": 2498,
      "向": 2499,
      "吒": 2500,
      "吓": 2501,
      "吕": 2502,
      "吗": 2503,
      "君": 2504,
      "吝": 2505,
      "吞": 2506,
      "吟": 2507,
      "吠": 2508,
      "吡": 2509,
      "否": 2510,
      "吧": 2511,
      "吨": 2512,
      "吩": 2513,
      "含": 2514,
      "听": 2515,
      "吮": 2516,
      "启": 2517,
      "吲": 2518,
      "吳": 2519,
      "吴": 2520,
      "吵": 2521,
      "吸": 2522,
      "吹": 2523,
      "吻": 2524,
      "吼": 2525,
      "吾": 2526,
      "吿": 2527,
      "呀": 2528,
      "呂": 2529,
      "呃": 2530,
      "呆": 2531,
      "呈": 2532,
      "呉": 2533,
      "告": 2534,
      "呋": 2535,
      "呎": 2536,
      "呐": 2537,
      "呑": 2538,
      "呔": 2539,
      "呕": 2540,
      "呖": 2541,
      "呗": 2542,
      "员": 2543,
      "呛": 2544,
      "呜": 2545,
      "呢": 2546,
      "呤": 2547,
      "呦": 2548,
      "周": 2549,
      "呱": 2550,
      "味": 2551,
      "呵": 2552,
      "呷": 2553,
      "呻": 2554,
      "呼": 2555,
      "命": 2556,
      "呾": 2557,
      "咀": 2558,
      "咁": 2559,
      "咄": 2560,
      "咆": 2561,
      "咋": 2562,
      "和": 2563,
      "咎": 2564,
      "咏": 2565,
      "咐": 2566,
      "咒": 2567,
      "咕": 2568,
      "咖": 2569,
      "咗": 2570,
      "咙": 2571,
      "咚": 2572,
      "咤": 2573,
      "咥": 2574,
      "咧": 2575,
      "咨": 2576,
      "咩": 2577,
      "咪": 2578,
      "咫": 2579,
      "咬": 2580,
      "咭": 2581,
      "咯": 2582,
      "咱": 2583,
      "咲": 2584,
      "咳": 2585,
      "咸": 2586,
      "咻": 2587,
      "咽": 2588,
      "咿": 2589,
      "哀": 2590,
      "品": 2591,
      "哄": 2592,
      "哆": 2593,
      "哇": 2594,
      "哈": 2595,
      "哉": 2596,
      "哋": 2597,
      "哌": 2598,
      "响": 2599,
      "哏": 2600,
      "哑": 2601,
      "哒": 2602,
      "哔": 2603,
      "哗": 2604,
      "哙": 2605,
      "哚": 2606,
      "哟": 2607,
      "員": 2608,
      "哥": 2609,
      "哦": 2610,
      "哨": 2611,
      "哩": 2612,
      "哪": 2613,
      "哭": 2614,
      "哮": 2615,
      "哲": 2616,
      "哺": 2617,
      "哼": 2618,
      "哽": 2619,
      "唁": 2620,
      "唄": 2621,
      "唆": 2622,
      "唇": 2623,
      "唎": 2624,
      "唏": 2625,
      "唐": 2626,
      "唑": 2627,
      "唔": 2628,
      "唛": 2629,
      "唢": 2630,
      "唤": 2631,
      "唬": 2632,
      "售": 2633,
      "唯": 2634,
      "唱": 2635,
      "唷": 2636,
      "唾": 2637,
      "啃": 2638,
      "啄": 2639,
      "商": 2640,
      "啉": 2641,
      "啊": 2642,
      "問": 2643,
      "啓": 2644,
      "啖": 2645,
      "啜": 2646,
      "啟": 2647,
      "啡": 2648,
      "啤": 2649,
      "啥": 2650,
      "啦": 2651,
      "啧": 2652,
      "啪": 2653,
      "啬": 2654,
      "啮": 2655,
      "啰": 2656,
      "啱": 2657,
      "啲": 2658,
      "啵": 2659,
      "啶": 2660,
      "啸": 2661,
      "啼": 2662,
      "啾": 2663,
      "喀": 2664,
      "喁": 2665,
      "喂": 2666,
      "喃": 2667,
      "善": 2668,
      "喆": 2669,
      "喇": 2670,
      "喉": 2671,
      "喊": 2672,
      "喋": 2673,
      "喑": 2674,
      "喔": 2675,
      "喘": 2676,
      "喙": 2677,
      "喜": 2678,
      "喝": 2679,
      "喟": 2680,
      "喧": 2681,
      "喫": 2682,
      "喬": 2683,
      "單": 2684,
      "喱": 2685,
      "喵": 2686,
      "営": 2687,
      "喷": 2688,
      "喹": 2689,
      "喺": 2690,
      "喻": 2691,
      "喽": 2692,
      "嗄": 2693,
      "嗅": 2694,
      "嗇": 2695,
      "嗑": 2696,
      "嗒": 2697,
      "嗓": 2698,
      "嗔": 2699,
      "嗜": 2700,
      "嗟": 2701,
      "嗡": 2702,
      "嗣": 2703,
      "嗤": 2704,
      "嗥": 2705,
      "嗦": 2706,
      "嗨": 2707,
      "嗪": 2708,
      "嗯": 2709,
      "嗲": 2710,
      "嗳": 2711,
      "嗽": 2712,
      "嘀": 2713,
      "嘂": 2714,
      "嘅": 2715,
      "嘉": 2716,
      "嘌": 2717,
      "嘎": 2718,
      "嘏": 2719,
      "嘘": 2720,
      "嘛": 2721,
      "嘢": 2722,
      "嘣": 2723,
      "嘧": 2724,
      "嘱": 2725,
      "嘲": 2726,
      "嘴": 2727,
      "嘶": 2728,
      "嘹": 2729,
      "嘻": 2730,
      "嘿": 2731,
      "噌": 2732,
      "噏": 2733,
      "噗": 2734,
      "噜": 2735,
      "噤": 2736,
      "器": 2737,
      "噩": 2738,
      "噪": 2739,
      "噫": 2740,
      "噬": 2741,
      "噱": 2742,
      "噴": 2743,
      "噶": 2744,
      "噻": 2745,
      "噼": 2746,
      "嚆": 2747,
      "嚎": 2748,
      "嚏": 2749,
      "嚟": 2750,
      "嚢": 2751,
      "嚣": 2752,
      "嚭": 2753,
      "嚴": 2754,
      "嚵": 2755,
      "嚷": 2756,
      "嚼": 2757,
      "囂": 2758,
      "囊": 2759,
      "囍": 2760,
      "囗": 2761,
      "囚": 2762,
      "四": 2763,
      "回": 2764,
      "因": 2765,
      "囡": 2766,
      "团": 2767,
      "団": 2768,
      "囤": 2769,
      "囧": 2770,
      "园": 2771,
      "困": 2772,
      "囱": 2773,
      "囲": 2774,
      "围": 2775,
      "囷": 2776,
      "囹": 2777,
      "固": 2778,
      "国": 2779,
      "图": 2780,
      "囿": 2781,
      "圃": 2782,
      "圄": 2783,
      "圆": 2784,
      "圈": 2785,
      "圉": 2786,
      "國": 2787,
      "圌": 2788,
      "圍": 2789,
      "圏": 2790,
      "園": 2791,
      "圓": 2792,
      "圖": 2793,
      "團": 2794,
      "圜": 2795,
      "土": 2796,
      "圣": 2797,
      "圧": 2798,
      "在": 2799,
      "圩": 2800,
      "圪": 2801,
      "圭": 2802,
      "圮": 2803,
      "圯": 2804,
      "地": 2805,
      "圳": 2806,
      "圹": 2807,
      "场": 2808,
      "圻": 2809,
      "圾": 2810,
      "址": 2811,
      "坂": 2812,
      "均": 2813,
      "坊": 2814,
      "坌": 2815,
      "坍": 2816,
      "坎": 2817,
      "坏": 2818,
      "坐": 2819,
      "坑": 2820,
      "坔": 2821,
      "块": 2822,
      "坚": 2823,
      "坛": 2824,
      "坜": 2825,
      "坝": 2826,
      "坞": 2827,
      "坟": 2828,
      "坠": 2829,
      "坡": 2830,
      "坤": 2831,
      "坦": 2832,
      "坨": 2833,
      "坪": 2834,
      "坭": 2835,
      "坯": 2836,
      "坳": 2837,
      "坵": 2838,
      "坷": 2839,
      "坻": 2840,
      "垂": 2841,
      "垃": 2842,
      "垄": 2843,
      "垅": 2844,
      "垆": 2845,
      "垇": 2846,
      "型": 2847,
      "垌": 2848,
      "垒": 2849,
      "垓": 2850,
      "垕": 2851,
      "垚": 2852,
      "垛": 2853,
      "垟": 2854,
      "垠": 2855,
      "垡": 2856,
      "垢": 2857,
      "垣": 2858,
      "垦": 2859,
      "垧": 2860,
      "垩": 2861,
      "垫": 2862,
      "垭": 2863,
      "垮": 2864,
      "垱": 2865,
      "垴": 2866,
      "垵": 2867,
      "垸": 2868,
      "埂": 2869,
      "埃": 2870,
      "埇": 2871,
      "埈": 2872,
      "埋": 2873,
      "城": 2874,
      "埒": 2875,
      "埔": 2876,
      "埕": 2877,
      "埗": 2878,
      "埙": 2879,
      "埚": 2880,
      "埜": 2881,
      "埝": 2882,
      "域": 2883,
      "埠": 2884,
      "埤": 2885,
      "埭": 2886,
      "埮": 2887,
      "埴": 2888,
      "執": 2889,
      "埸": 2890,
      "培": 2891,
      "基": 2892,
      "埼": 2893,
      "埿": 2894,
      "堀": 2895,
      "堂": 2896,
      "堃": 2897,
      "堅": 2898,
      "堆": 2899,
      "堇": 2900,
      "堈": 2901,
      "堌": 2902,
      "堍": 2903,
      "堑": 2904,
      "堕": 2905,
      "堞": 2906,
      "堠": 2907,
      "堡": 2908,
      "堤": 2909,
      "堪": 2910,
      "堯": 2911,
      "堰": 2912,
      "報": 2913,
      "場": 2914,
      "堵": 2915,
      "堺": 2916,
      "塁": 2917,
      "塄": 2918,
      "塅": 2919,
      "塆": 2920,
      "塉": 2921,
      "塊": 2922,
      "塌": 2923,
      "塑": 2924,
      "塔": 2925,
      "塘": 2926,
      "塚": 2927,
      "塞": 2928,
      "塩": 2929,
      "填": 2930,
      "塬": 2931,
      "塭": 2932,
      "塵": 2933,
      "塾": 2934,
      "墀": 2935,
      "境": 2936,
      "墅": 2937,
      "墉": 2938,
      "墓": 2939,
      "墕": 2940,
      "増": 2941,
      "墘": 2942,
      "墙": 2943,
      "增": 2944,
      "墟": 2945,
      "墨": 2946,
      "墩": 2947,
      "墬": 2948,
      "壁": 2949,
      "壄": 2950,
      "壅": 2951,
      "壆": 2952,
      "壇": 2953,
      "壊": 2954,
      "壑": 2955,
      "壕": 2956,
      "壖": 2957,
      "壘": 2958,
      "壤": 2959,
      "士": 2960,
      "壬": 2961,
      "壮": 2962,
      "壯": 2963,
      "声": 2964,
      "壱": 2965,
      "壳": 2966,
      "壶": 2967,
      "壸": 2968,
      "壹": 2969,
      "壽": 2970,
      "处": 2971,
      "备": 2972,
      "変": 2973,
      "复": 2974,
      "夏": 2975,
      "夔": 2976,
      "夕": 2977,
      "外": 2978,
      "夙": 2979,
      "多": 2980,
      "夜": 2981,
      "够": 2982,
      "夢": 2983,
      "夤": 2984,
      "大": 2985,
      "天": 2986,
      "太": 2987,
      "夫": 2988,
      "夭": 2989,
      "央": 2990,
      "夯": 2991,
      "失": 2992,
      "头": 2993,
      "夷": 2994,
      "夸": 2995,
      "夹": 2996,
      "夺": 2997,
      "夼": 2998,
      "奀": 2999,
      "奁": 3000,
      "奂": 3001,
      "奄": 3002,
      "奇": 3003,
      "奈": 3004,
      "奉": 3005,
      "奋": 3006,
      "奎": 3007,
      "奏": 3008,
      "契": 3009,
      "奔": 3010,
      "奕": 3011,
      "奖": 3012,
      "套": 3013,
      "奘": 3014,
      "奚": 3015,
      "奠": 3016,
      "奢": 3017,
      "奥": 3018,
      "奧": 3019,
      "奪": 3020,
      "奭": 3021,
      "女": 3022,
      "奴": 3023,
      "奶": 3024,
      "奸": 3025,
      "她": 3026,
      "好": 3027,
      "妁": 3028,
      "如": 3029,
      "妃": 3030,
      "妄": 3031,
      "妆": 3032,
      "妇": 3033,
      "妈": 3034,
      "妊": 3035,
      "妍": 3036,
      "妒": 3037,
      "妓": 3038,
      "妖": 3039,
      "妘": 3040,
      "妙": 3041,
      "妝": 3042,
      "妞": 3043,
      "妣": 3044,
      "妤": 3045,
      "妥": 3046,
      "妨": 3047,
      "妪": 3048,
      "妫": 3049,
      "妮": 3050,
      "妲": 3051,
      "妸": 3052,
      "妹": 3053,
      "妻": 3054,
      "妾": 3055,
      "姆": 3056,
      "姉": 3057,
      "姊": 3058,
      "始": 3059,
      "姐": 3060,
      "姑": 3061,
      "姓": 3062,
      "委": 3063,
      "姚": 3064,
      "姜": 3065,
      "姝": 3066,
      "姞": 3067,
      "姣": 3068,
      "姥": 3069,
      "姨": 3070,
      "姫": 3071,
      "姬": 3072,
      "姻": 3073,
      "姿": 3074,
      "威": 3075,
      "娃": 3076,
      "娄": 3077,
      "娅": 3078,
      "娇": 3079,
      "娑": 3080,
      "娘": 3081,
      "娛": 3082,
      "娜": 3083,
      "娟": 3084,
      "娠": 3085,
      "娣": 3086,
      "娥": 3087,
      "娩": 3088,
      "娱": 3089,
      "娲": 3090,
      "娴": 3091,
      "娶": 3092,
      "娼": 3093,
      "婀": 3094,
      "婆": 3095,
      "婉": 3096,
      "婊": 3097,
      "婕": 3098,
      "婚": 3099,
      "婢": 3100,
      "婦": 3101,
      "婪": 3102,
      "婭": 3103,
      "婳": 3104,
      "婴": 3105,
      "婵": 3106,
      "婶": 3107,
      "婷": 3108,
      "婺": 3109,
      "婿": 3110,
      "媒": 3111,
      "媕": 3112,
      "媚": 3113,
      "媛": 3114,
      "媜": 3115,
      "媲": 3116,
      "媳": 3117,
      "媵": 3118,
      "媽": 3119,
      "媾": 3120,
      "嫁": 3121,
      "嫂": 3122,
      "嫄": 3123,
      "嫉": 3124,
      "嫌": 3125,
      "嫔": 3126,
      "嫖": 3127,
      "嫘": 3128,
      "嫚": 3129,
      "嫡": 3130,
      "嫣": 3131,
      "嫦": 3132,
      "嫩": 3133,
      "嫫": 3134,
      "嫲": 3135,
      "嫻": 3136,
      "嬁": 3137,
      "嬅": 3138,
      "嬉": 3139,
      "嬖": 3140,
      "嬗": 3141,
      "嬛": 3142,
      "嬤": 3143,
      "嬪": 3144,
      "嬴": 3145,
      "嬷": 3146,
      "嬿": 3147,
      "孀": 3148,
      "子": 3149,
      "孑": 3150,
      "孓": 3151,
      "孔": 3152,
      "孕": 3153,
      "孖": 3154,
      "字": 3155,
      "存": 3156,
      "孙": 3157,
      "孚": 3158,
      "孛": 3159,
      "孜": 3160,
      "孝": 3161,
      "孟": 3162,
      "孢": 3163,
      "季": 3164,
      "孤": 3165,
      "孥": 3166,
      "学": 3167,
      "孨": 3168,
      "孩": 3169,
      "孪": 3170,
      "孫": 3171,
      "孰": 3172,
      "孱": 3173,
      "孳": 3174,
      "孵": 3175,
      "孶": 3176,
      "學": 3177,
      "孺": 3178,
      "孽": 3179,
      "宁": 3180,
      "它": 3181,
      "宅": 3182,
      "宇": 3183,
      "守": 3184,
      "安": 3185,
      "宋": 3186,
      "完": 3187,
      "宍": 3188,
      "宏": 3189,
      "宓": 3190,
      "宕": 3191,
      "宗": 3192,
      "官": 3193,
      "宙": 3194,
      "定": 3195,
      "宛": 3196,
      "宜": 3197,
      "宝": 3198,
      "实": 3199,
      "実": 3200,
      "宠": 3201,
      "审": 3202,
      "客": 3203,
      "宣": 3204,
      "室": 3205,
      "宥": 3206,
      "宦": 3207,
      "宪": 3208,
      "宫": 3209,
      "宬": 3210,
      "宮": 3211,
      "宰": 3212,
      "害": 3213,
      "宴": 3214,
      "宵": 3215,
      "家": 3216,
      "宷": 3217,
      "宸": 3218,
      "容": 3219,
      "宽": 3220,
      "宾": 3221,
      "宿": 3222,
      "寂": 3223,
      "寄": 3224,
      "寅": 3225,
      "密": 3226,
      "寇": 3227,
      "寊": 3228,
      "富": 3229,
      "寐": 3230,
      "寒": 3231,
      "寓": 3232,
      "寔": 3233,
      "寛": 3234,
      "寝": 3235,
      "寞": 3236,
      "察": 3237,
      "寡": 3238,
      "寥": 3239,
      "實": 3240,
      "寧": 3241,
      "寨": 3242,
      "審": 3243,
      "寫": 3244,
      "寬": 3245,
      "寮": 3246,
      "寰": 3247,
      "寶": 3248,
      "寸": 3249,
      "对": 3250,
      "寺": 3251,
      "寻": 3252,
      "导": 3253,
      "対": 3254,
      "寿": 3255,
      "封": 3256,
      "専": 3257,
      "射": 3258,
      "将": 3259,
      "將": 3260,
      "專": 3261,
      "尉": 3262,
      "尊": 3263,
      "尋": 3264,
      "對": 3265,
      "導": 3266,
      "小": 3267,
      "少": 3268,
      "尔": 3269,
      "尕": 3270,
      "尖": 3271,
      "尘": 3272,
      "尚": 3273,
      "尝": 3274,
      "尢": 3275,
      "尤": 3276,
      "尧": 3277,
      "尪": 3278,
      "尬": 3279,
      "就": 3280,
      "尴": 3281,
      "尸": 3282,
      "尹": 3283,
      "尺": 3284,
      "尻": 3285,
      "尼": 3286,
      "尽": 3287,
      "尾": 3288,
      "尿": 3289,
      "局": 3290,
      "屁": 3291,
      "层": 3292,
      "居": 3293,
      "屆": 3294,
      "屇": 3295,
      "屈": 3296,
      "屉": 3297,
      "届": 3298,
      "屋": 3299,
      "屌": 3300,
      "屍": 3301,
      "屎": 3302,
      "屏": 3303,
      "屐": 3304,
      "屑": 3305,
      "展": 3306,
      "屘": 3307,
      "属": 3308,
      "屠": 3309,
      "屡": 3310,
      "層": 3311,
      "履": 3312,
      "屦": 3313,
      "屬": 3314,
      "屯": 3315,
      "山": 3316,
      "屹": 3317,
      "屾": 3318,
      "屿": 3319,
      "岀": 3320,
      "岁": 3321,
      "岂": 3322,
      "岌": 3323,
      "岐": 3324,
      "岑": 3325,
      "岔": 3326,
      "岖": 3327,
      "岗": 3328,
      "岘": 3329,
      "岙": 3330,
      "岚": 3331,
      "岛": 3332,
      "岞": 3333,
      "岡": 3334,
      "岢": 3335,
      "岩": 3336,
      "岫": 3337,
      "岬": 3338,
      "岭": 3339,
      "岱": 3340,
      "岳": 3341,
      "岵": 3342,
      "岷": 3343,
      "岸": 3344,
      "岽": 3345,
      "峄": 3346,
      "峇": 3347,
      "峋": 3348,
      "峒": 3349,
      "峗": 3350,
      "峙": 3351,
      "峠": 3352,
      "峡": 3353,
      "峤": 3354,
      "峥": 3355,
      "峦": 3356,
      "峨": 3357,
      "峪": 3358,
      "峭": 3359,
      "峯": 3360,
      "峰": 3361,
      "峴": 3362,
      "島": 3363,
      "峻": 3364,
      "峽": 3365,
      "崁": 3366,
      "崂": 3367,
      "崃": 3368,
      "崄": 3369,
      "崇": 3370,
      "崌": 3371,
      "崎": 3372,
      "崐": 3373,
      "崑": 3374,
      "崔": 3375,
      "崖": 3376,
      "崗": 3377,
      "崘": 3378,
      "崙": 3379,
      "崛": 3380,
      "崞": 3381,
      "崠": 3382,
      "崤": 3383,
      "崧": 3384,
      "崩": 3385,
      "崭": 3386,
      "崮": 3387,
      "崴": 3388,
      "崽": 3389,
      "嵇": 3390,
      "嵊": 3391,
      "嵋": 3392,
      "嵌": 3393,
      "嵎": 3394,
      "嵘": 3395,
      "嵙": 3396,
      "嵛": 3397,
      "嵝": 3398,
      "嵩": 3399,
      "嵬": 3400,
      "嵯": 3401,
      "嵴": 3402,
      "嶂": 3403,
      "嶋": 3404,
      "嶍": 3405,
      "嶙": 3406,
      "嶷": 3407,
      "嶺": 3408,
      "嶼": 3409,
      "巅": 3410,
      "巍": 3411,
      "巖": 3412,
      "巘": 3413,
      "川": 3414,
      "州": 3415,
      "巡": 3416,
      "巢": 3417,
      "巣": 3418,
      "工": 3419,
      "左": 3420,
      "巧": 3421,
      "巨": 3422,
      "巩": 3423,
      "巫": 3424,
      "差": 3425,
      "巯": 3426,
      "己": 3427,
      "已": 3428,
      "巳": 3429,
      "巴": 3430,
      "巷": 3431,
      "巻": 3432,
      "巽": 3433,
      "巾": 3434,
      "巿": 3435,
      "币": 3436,
      "市": 3437,
      "布": 3438,
      "帅": 3439,
      "帆": 3440,
      "师": 3441,
      "希": 3442,
      "帏": 3443,
      "帐": 3444,
      "帑": 3445,
      "帔": 3446,
      "帕": 3447,
      "帖": 3448,
      "帘": 3449,
      "帚": 3450,
      "帛": 3451,
      "帜": 3452,
      "帝": 3453,
      "帥": 3454,
      "带": 3455,
      "帧": 3456,
      "帨": 3457,
      "師": 3458,
      "席": 3459,
      "帮": 3460,
      "帰": 3461,
      "帳": 3462,
      "帶": 3463,
      "帷": 3464,
      "常": 3465,
      "帻": 3466,
      "帼": 3467,
      "帽": 3468,
      "幂": 3469,
      "幄": 3470,
      "幅": 3471,
      "幌": 3472,
      "幔": 3473,
      "幕": 3474,
      "幞": 3475,
      "幡": 3476,
      "幢": 3477,
      "幣": 3478,
      "幫": 3479,
      "干": 3480,
      "平": 3481,
      "年": 3482,
      "幵": 3483,
      "并": 3484,
      "幸": 3485,
      "幹": 3486,
      "幺": 3487,
      "幻": 3488,
      "幼": 3489,
      "幽": 3490,
      "幾": 3491,
      "广": 3492,
      "庁": 3493,
      "広": 3494,
      "庄": 3495,
      "庆": 3496,
      "庇": 3497,
      "床": 3498,
      "序": 3499,
      "庐": 3500,
      "庑": 3501,
      "庒": 3502,
      "库": 3503,
      "应": 3504,
      "底": 3505,
      "庖": 3506,
      "店": 3507,
      "庙": 3508,
      "庚": 3509,
      "府": 3510,
      "庞": 3511,
      "废": 3512,
      "庠": 3513,
      "度": 3514,
      "座": 3515,
      "庫": 3516,
      "庭": 3517,
      "庯": 3518,
      "庵": 3519,
      "庶": 3520,
      "康": 3521,
      "庸": 3522,
      "庼": 3523,
      "庾": 3524,
      "廂": 3525,
      "廆": 3526,
      "廈": 3527,
      "廉": 3528,
      "廊": 3529,
      "廍": 3530,
      "廒": 3531,
      "廓": 3532,
      "廖": 3533,
      "廙": 3534,
      "廚": 3535,
      "廟": 3536,
      "廠": 3537,
      "廢": 3538,
      "廣": 3539,
      "廧": 3540,
      "廨": 3541,
      "廪": 3542,
      "廳": 3543,
      "延": 3544,
      "廷": 3545,
      "建": 3546,
      "廿": 3547,
      "开": 3548,
      "弁": 3549,
      "异": 3550,
      "弃": 3551,
      "弄": 3552,
      "弇": 3553,
      "弈": 3554,
      "弊": 3555,
      "弋": 3556,
      "弌": 3557,
      "式": 3558,
      "弑": 3559,
      "弓": 3560,
      "引": 3561,
      "弗": 3562,
      "弘": 3563,
      "弛": 3564,
      "弟": 3565,
      "张": 3566,
      "弢": 3567,
      "弥": 3568,
      "弦": 3569,
      "弧": 3570,
      "弩": 3571,
      "弭": 3572,
      "弯": 3573,
      "弱": 3574,
      "張": 3575,
      "強": 3576,
      "弹": 3577,
      "强": 3578,
      "弼": 3579,
      "弾": 3580,
      "彈": 3581,
      "彊": 3582,
      "彌": 3583,
      "彎": 3584,
      "归": 3585,
      "当": 3586,
      "录": 3587,
      "彗": 3588,
      "彘": 3589,
      "彙": 3590,
      "彝": 3591,
      "形": 3592,
      "彤": 3593,
      "彥": 3594,
      "彦": 3595,
      "彧": 3596,
      "彩": 3597,
      "彪": 3598,
      "彬": 3599,
      "彭": 3600,
      "彰": 3601,
      "影": 3602,
      "彷": 3603,
      "役": 3604,
      "彻": 3605,
      "彼": 3606,
      "往": 3607,
      "征": 3608,
      "徂": 3609,
      "径": 3610,
      "待": 3611,
      "徇": 3612,
      "很": 3613,
      "徊": 3614,
      "律": 3615,
      "後": 3616,
      "徐": 3617,
      "徑": 3618,
      "徒": 3619,
      "徕": 3620,
      "得": 3621,
      "徘": 3622,
      "徙": 3623,
      "從": 3624,
      "御": 3625,
      "徨": 3626,
      "復": 3627,
      "循": 3628,
      "徬": 3629,
      "徭": 3630,
      "微": 3631,
      "徳": 3632,
      "徴": 3633,
      "徵": 3634,
      "德": 3635,
      "徹": 3636,
      "徼": 3637,
      "徽": 3638,
      "心": 3639,
      "必": 3640,
      "忆": 3641,
      "忉": 3642,
      "忌": 3643,
      "忍": 3644,
      "忏": 3645,
      "忒": 3646,
      "忖": 3647,
      "志": 3648,
      "忘": 3649,
      "忙": 3650,
      "応": 3651,
      "忝": 3652,
      "忠": 3653,
      "忡": 3654,
      "忤": 3655,
      "忧": 3656,
      "快": 3657,
      "忱": 3658,
      "念": 3659,
      "忸": 3660,
      "忻": 3661,
      "忽": 3662,
      "忾": 3663,
      "忿": 3664,
      "怀": 3665,
      "态": 3666,
      "怂": 3667,
      "怃": 3668,
      "怅": 3669,
      "怆": 3670,
      "怎": 3671,
      "怒": 3672,
      "怕": 3673,
      "怖": 3674,
      "怙": 3675,
      "怛": 3676,
      "怜": 3677,
      "思": 3678,
      "怠": 3679,
      "怡": 3680,
      "怤": 3681,
      "急": 3682,
      "怦": 3683,
      "性": 3684,
      "怨": 3685,
      "怩": 3686,
      "怪": 3687,
      "怯": 3688,
      "怵": 3689,
      "总": 3690,
      "怼": 3691,
      "恂": 3692,
      "恃": 3693,
      "恆": 3694,
      "恋": 3695,
      "恍": 3696,
      "恐": 3697,
      "恒": 3698,
      "恕": 3699,
      "恙": 3700,
      "恚": 3701,
      "恢": 3702,
      "恣": 3703,
      "恤": 3704,
      "恨": 3705,
      "恩": 3706,
      "恪": 3707,
      "恫": 3708,
      "恬": 3709,
      "恭": 3710,
      "恮": 3711,
      "息": 3712,
      "恰": 3713,
      "恳": 3714,
      "恵": 3715,
      "恶": 3716,
      "恸": 3717,
      "恺": 3718,
      "恻": 3719,
      "恼": 3720,
      "恽": 3721,
      "恾": 3722,
      "恿": 3723,
      "悁": 3724,
      "悃": 3725,
      "悄": 3726,
      "悉": 3727,
      "悌": 3728,
      "悍": 3729,
      "悔": 3730,
      "悖": 3731,
      "悚": 3732,
      "悟": 3733,
      "悠": 3734,
      "患": 3735,
      "悦": 3736,
      "您": 3737,
      "悪": 3738,
      "悫": 3739,
      "悬": 3740,
      "悭": 3741,
      "悯": 3742,
      "悰": 3743,
      "悲": 3744,
      "悳": 3745,
      "悴": 3746,
      "悶": 3747,
      "悸": 3748,
      "悻": 3749,
      "悼": 3750,
      "情": 3751,
      "惆": 3752,
      "惇": 3753,
      "惊": 3754,
      "惋": 3755,
      "惑": 3756,
      "惓": 3757,
      "惕": 3758,
      "惘": 3759,
      "惚": 3760,
      "惜": 3761,
      "惟": 3762,
      "惠": 3763,
      "惣": 3764,
      "惦": 3765,
      "惧": 3766,
      "惨": 3767,
      "惩": 3768,
      "惪": 3769,
      "惫": 3770,
      "惬": 3771,
      "惭": 3772,
      "惮": 3773,
      "惯": 3774,
      "惰": 3775,
      "想": 3776,
      "惴": 3777,
      "惶": 3778,
      "惹": 3779,
      "惺": 3780,
      "愁": 3781,
      "愆": 3782,
      "愈": 3783,
      "愉": 3784,
      "愊": 3785,
      "愍": 3786,
      "愎": 3787,
      "意": 3788,
      "愐": 3789,
      "愔": 3790,
      "愕": 3791,
      "愚": 3792,
      "愛": 3793,
      "感": 3794,
      "愠": 3795,
      "愣": 3796,
      "愤": 3797,
      "愧": 3798,
      "愫": 3799,
      "愷": 3800,
      "愿": 3801,
      "慈": 3802,
      "態": 3803,
      "慌": 3804,
      "慎": 3805,
      "慑": 3806,
      "慕": 3807,
      "慘": 3808,
      "慢": 3809,
      "慧": 3810,
      "慨": 3811,
      "慰": 3812,
      "慳": 3813,
      "慵": 3814,
      "慶": 3815,
      "慷": 3816,
      "慾": 3817,
      "憋": 3818,
      "憍": 3819,
      "憎": 3820,
      "憐": 3821,
      "憑": 3822,
      "憔": 3823,
      "憕": 3824,
      "憙": 3825,
      "憝": 3826,
      "憧": 3827,
      "憨": 3828,
      "憩": 3829,
      "憬": 3830,
      "憲": 3831,
      "憶": 3832,
      "憺": 3833,
      "憾": 3834,
      "懂": 3835,
      "懈": 3836,
      "應": 3837,
      "懊": 3838,
      "懋": 3839,
      "懐": 3840,
      "懑": 3841,
      "懒": 3842,
      "懦": 3843,
      "懵": 3844,
      "懷": 3845,
      "懸": 3846,
      "懼": 3847,
      "懿": 3848,
      "戀": 3849,
      "戆": 3850,
      "戈": 3851,
      "戊": 3852,
      "戌": 3853,
      "戍": 3854,
      "戎": 3855,
      "戏": 3856,
      "成": 3857,
      "我": 3858,
      "戒": 3859,
      "戕": 3860,
      "或": 3861,
      "战": 3862,
      "戚": 3863,
      "戛": 3864,
      "戟": 3865,
      "戡": 3866,
      "戢": 3867,
      "戦": 3868,
      "戩": 3869,
      "截": 3870,
      "戮": 3871,
      "戯": 3872,
      "戰": 3873,
      "戲": 3874,
      "戳": 3875,
      "戴": 3876,
      "戶": 3877,
      "户": 3878,
      "戸": 3879,
      "戻": 3880,
      "戼": 3881,
      "戾": 3882,
      "房": 3883,
      "所": 3884,
      "扁": 3885,
      "扃": 3886,
      "扆": 3887,
      "扇": 3888,
      "扈": 3889,
      "扉": 3890,
      "手": 3891,
      "扌": 3892,
      "才": 3893,
      "扎": 3894,
      "扑": 3895,
      "扒": 3896,
      "打": 3897,
      "扔": 3898,
      "托": 3899,
      "扛": 3900,
      "扣": 3901,
      "扥": 3902,
      "扦": 3903,
      "执": 3904,
      "扩": 3905,
      "扪": 3906,
      "扫": 3907,
      "扬": 3908,
      "扭": 3909,
      "扮": 3910,
      "扯": 3911,
      "扰": 3912,
      "扳": 3913,
      "扶": 3914,
      "批": 3915,
      "扺": 3916,
      "扼": 3917,
      "找": 3918,
      "承": 3919,
      "技": 3920,
      "抃": 3921,
      "抄": 3922,
      "抉": 3923,
      "把": 3924,
      "抑": 3925,
      "抒": 3926,
      "抓": 3927,
      "投": 3928,
      "抖": 3929,
      "抗": 3930,
      "折": 3931,
      "抚": 3932,
      "抛": 3933,
      "択": 3934,
      "抟": 3935,
      "抠": 3936,
      "抡": 3937,
      "抢": 3938,
      "护": 3939,
      "报": 3940,
      "抨": 3941,
      "披": 3942,
      "抬": 3943,
      "抱": 3944,
      "抵": 3945,
      "抹": 3946,
      "押": 3947,
      "抽": 3948,
      "拂": 3949,
      "拄": 3950,
      "担": 3951,
      "拆": 3952,
      "拇": 3953,
      "拈": 3954,
      "拉": 3955,
      "拌": 3956,
      "拍": 3957,
      "拏": 3958,
      "拐": 3959,
      "拒": 3960,
      "拓": 3961,
      "拔": 3962,
      "拖": 3963,
      "拗": 3964,
      "拘": 3965,
      "拙": 3966,
      "招": 3967,
      "拜": 3968,
      "拟": 3969,
      "拢": 3970,
      "拣": 3971,
      "拥": 3972,
      "拦": 3973,
      "拧": 3974,
      "拨": 3975,
      "择": 3976,
      "括": 3977,
      "拭": 3978,
      "拮": 3979,
      "拯": 3980,
      "拱": 3981,
      "拳": 3982,
      "拴": 3983,
      "拷": 3984,
      "拼": 3985,
      "拽": 3986,
      "拾": 3987,
      "拿": 3988,
      "持": 3989,
      "挂": 3990,
      "指": 3991,
      "挈": 3992,
      "按": 3993,
      "挑": 3994,
      "挖": 3995,
      "挚": 3996,
      "挛": 3997,
      "挝": 3998,
      "挞": 3999,
      "挟": 4000,
      "挠": 4001,
      "挡": 4002,
      "挣": 4003,
      "挤": 4004,
      "挥": 4005,
      "挨": 4006,
      "挪": 4007,
      "挫": 4008,
      "振": 4009,
      "挲": 4010,
      "挹": 4011,
      "挺": 4012,
      "挻": 4013,
      "挽": 4014,
      "捃": 4015,
      "捅": 4016,
      "捆": 4017,
      "捉": 4018,
      "捍": 4019,
      "捎": 4020,
      "捏": 4021,
      "捐": 4022,
      "捒": 4023,
      "捕": 4024,
      "捜": 4025,
      "捞": 4026,
      "损": 4027,
      "捡": 4028,
      "换": 4029,
      "捣": 4030,
      "捧": 4031,
      "捩": 4032,
      "据": 4033,
      "捶": 4034,
      "捷": 4035,
      "捺": 4036,
      "捻": 4037,
      "掀": 4038,
      "掃": 4039,
      "授": 4040,
      "掉": 4041,
      "掊": 4042,
      "掌": 4043,
      "掏": 4044,
      "掐": 4045,
      "排": 4046,
      "掖": 4047,
      "掘": 4048,
      "掛": 4049,
      "掞": 4050,
      "掟": 4051,
      "掠": 4052,
      "採": 4053,
      "探": 4054,
      "掣": 4055,
      "接": 4056,
      "控": 4057,
      "推": 4058,
      "掩": 4059,
      "措": 4060,
      "掬": 4061,
      "掰": 4062,
      "掳": 4063,
      "掴": 4064,
      "掷": 4065,
      "掸": 4066,
      "掺": 4067,
      "掾": 4068,
      "揄": 4069,
      "揆": 4070,
      "揉": 4071,
      "揍": 4072,
      "描": 4073,
      "提": 4074,
      "插": 4075,
      "揖": 4076,
      "揚": 4077,
      "換": 4078,
      "握": 4079,
      "揣": 4080,
      "揪": 4081,
      "揭": 4082,
      "揮": 4083,
      "援": 4084,
      "揵": 4085,
      "揶": 4086,
      "揼": 4087,
      "揽": 4088,
      "搀": 4089,
      "搁": 4090,
      "搂": 4091,
      "搅": 4092,
      "搏": 4093,
      "搐": 4094,
      "搓": 4095,
      "搖": 4096,
      "搘": 4097,
      "搜": 4098,
      "搞": 4099,
      "搡": 4100,
      "搢": 4101,
      "搦": 4102,
      "搧": 4103,
      "搪": 4104,
      "搬": 4105,
      "搭": 4106,
      "搶": 4107,
      "携": 4108,
      "搽": 4109,
      "摄": 4110,
      "摆": 4111,
      "摇": 4112,
      "摈": 4113,
      "摊": 4114,
      "摒": 4115,
      "摔": 4116,
      "摘": 4117,
      "摛": 4118,
      "摧": 4119,
      "摩": 4120,
      "摭": 4121,
      "摰": 4122,
      "摳": 4123,
      "摸": 4124,
      "摹": 4125,
      "撂": 4126,
      "撃": 4127,
      "撄": 4128,
      "撇": 4129,
      "撑": 4130,
      "撒": 4131,
      "撕": 4132,
      "撖": 4133,
      "撘": 4134,
      "撙": 4135,
      "撞": 4136,
      "撤": 4137,
      "撩": 4138,
      "撫": 4139,
      "撬": 4140,
      "播": 4141,
      "撮": 4142,
      "撰": 4143,
      "撲": 4144,
      "撵": 4145,
      "撷": 4146,
      "撻": 4147,
      "撼": 4148,
      "撾": 4149,
      "擁": 4150,
      "擂": 4151,
      "擅": 4152,
      "擇": 4153,
      "擊": 4154,
      "操": 4155,
      "擎": 4156,
      "擒": 4157,
      "擔": 4158,
      "擘": 4159,
      "據": 4160,
      "擢": 4161,
      "擦": 4162,
      "擬": 4163,
      "擲": 4164,
      "擾": 4165,
      "攀": 4166,
      "攒": 4167,
      "攘": 4168,
      "攝": 4169,
      "攞": 4170,
      "攟": 4171,
      "攫": 4172,
      "支": 4173,
      "收": 4174,
      "攸": 4175,
      "改": 4176,
      "攻": 4177,
      "放": 4178,
      "政": 4179,
      "故": 4180,
      "敇": 4181,
      "效": 4182,
      "敉": 4183,
      "敌": 4184,
      "敏": 4185,
      "救": 4186,
      "敔": 4187,
      "敕": 4188,
      "敖": 4189,
      "敘": 4190,
      "教": 4191,
      "敛": 4192,
      "敝": 4193,
      "敞": 4194,
      "敢": 4195,
      "散": 4196,
      "敦": 4197,
      "敩": 4198,
      "敬": 4199,
      "数": 4200,
      "敲": 4201,
      "整": 4202,
      "敵": 4203,
      "敷": 4204,
      "數": 4205,
      "文": 4206,
      "斉": 4207,
      "斋": 4208,
      "斌": 4209,
      "斎": 4210,
      "斐": 4211,
      "斑": 4212,
      "斓": 4213,
      "斗": 4214,
      "料": 4215,
      "斛": 4216,
      "斜": 4217,
      "斝": 4218,
      "斟": 4219,
      "斠": 4220,
      "斡": 4221,
      "斤": 4222,
      "斥": 4223,
      "斧": 4224,
      "斩": 4225,
      "斫": 4226,
      "斬": 4227,
      "断": 4228,
      "斯": 4229,
      "新": 4230,
      "斷": 4231,
      "方": 4232,
      "於": 4233,
      "施": 4234,
      "旁": 4235,
      "旂": 4236,
      "旃": 4237,
      "旄": 4238,
      "旅": 4239,
      "旆": 4240,
      "旋": 4241,
      "旌": 4242,
      "族": 4243,
      "旒": 4244,
      "旗": 4245,
      "旟": 4246,
      "无": 4247,
      "既": 4248,
      "日": 4249,
      "旦": 4250,
      "旧": 4251,
      "旨": 4252,
      "早": 4253,
      "旬": 4254,
      "旭": 4255,
      "旱": 4256,
      "时": 4257,
      "旷": 4258,
      "旸": 4259,
      "旺": 4260,
      "旻": 4261,
      "旼": 4262,
      "昀": 4263,
      "昂": 4264,
      "昃": 4265,
      "昆": 4266,
      "昇": 4267,
      "昉": 4268,
      "昊": 4269,
      "昌": 4270,
      "明": 4271,
      "昏": 4272,
      "易": 4273,
      "昔": 4274,
      "昕": 4275,
      "昙": 4276,
      "昜": 4277,
      "昝": 4278,
      "昞": 4279,
      "星": 4280,
      "映": 4281,
      "昤": 4282,
      "春": 4283,
      "昧": 4284,
      "昨": 4285,
      "昪": 4286,
      "昭": 4287,
      "是": 4288,
      "昱": 4289,
      "昴": 4290,
      "昵": 4291,
      "昶": 4292,
      "昻": 4293,
      "昼": 4294,
      "显": 4295,
      "晁": 4296,
      "時": 4297,
      "晃": 4298,
      "晅": 4299,
      "晉": 4300,
      "晋": 4301,
      "晌": 4302,
      "晏": 4303,
      "晒": 4304,
      "晓": 4305,
      "晔": 4306,
      "晕": 4307,
      "晖": 4308,
      "晗": 4309,
      "晚": 4310,
      "晝": 4311,
      "晞": 4312,
      "晟": 4313,
      "晤": 4314,
      "晦": 4315,
      "晨": 4316,
      "晩": 4317,
      "晫": 4318,
      "普": 4319,
      "景": 4320,
      "晰": 4321,
      "晳": 4322,
      "晴": 4323,
      "晶": 4324,
      "晷": 4325,
      "智": 4326,
      "晾": 4327,
      "暁": 4328,
      "暂": 4329,
      "暄": 4330,
      "暇": 4331,
      "暈": 4332,
      "暉": 4333,
      "暊": 4334,
      "暑": 4335,
      "暕": 4336,
      "暖": 4337,
      "暗": 4338,
      "暝": 4339,
      "暠": 4340,
      "暦": 4341,
      "暧": 4342,
      "暨": 4343,
      "暮": 4344,
      "暴": 4345,
      "暸": 4346,
      "暹": 4347,
      "暾": 4348,
      "曆": 4349,
      "曇": 4350,
      "曉": 4351,
      "曔": 4352,
      "曙": 4353,
      "曜": 4354,
      "曝": 4355,
      "曦": 4356,
      "曩": 4357,
      "曰": 4358,
      "曱": 4359,
      "曲": 4360,
      "曳": 4361,
      "更": 4362,
      "曷": 4363,
      "書": 4364,
      "曹": 4365,
      "曼": 4366,
      "曽": 4367,
      "曾": 4368,
      "替": 4369,
      "最": 4370,
      "會": 4371,
      "月": 4372,
      "有": 4373,
      "朋": 4374,
      "服": 4375,
      "朐": 4376,
      "朔": 4377,
      "朕": 4378,
      "朗": 4379,
      "望": 4380,
      "朝": 4381,
      "期": 4382,
      "朦": 4383,
      "木": 4384,
      "未": 4385,
      "末": 4386,
      "本": 4387,
      "札": 4388,
      "术": 4389,
      "朱": 4390,
      "朴": 4391,
      "朵": 4392,
      "机": 4393,
      "朽": 4394,
      "朿": 4395,
      "杀": 4396,
      "杂": 4397,
      "权": 4398,
      "杆": 4399,
      "杉": 4400,
      "李": 4401,
      "杏": 4402,
      "材": 4403,
      "村": 4404,
      "杓": 4405,
      "杖": 4406,
      "杙": 4407,
      "杜": 4408,
      "杞": 4409,
      "束": 4410,
      "杠": 4411,
      "条": 4412,
      "来": 4413,
      "杨": 4414,
      "杪": 4415,
      "杭": 4416,
      "杯": 4417,
      "杰": 4418,
      "東": 4419,
      "杲": 4420,
      "杳": 4421,
      "杵": 4422,
      "杷": 4423,
      "杼": 4424,
      "松": 4425,
      "板": 4426,
      "极": 4427,
      "构": 4428,
      "枇": 4429,
      "枉": 4430,
      "枊": 4431,
      "枋": 4432,
      "枏": 4433,
      "析": 4434,
      "枔": 4435,
      "枕": 4436,
      "林": 4437,
      "枚": 4438,
      "果": 4439,
      "枝": 4440,
      "枞": 4441,
      "枢": 4442,
      "枣": 4443,
      "枥": 4444,
      "枧": 4445,
      "枪": 4446,
      "枫": 4447,
      "枬": 4448,
      "枭": 4449,
      "枯": 4450,
      "枳": 4451,
      "枴": 4452,
      "枵": 4453,
      "架": 4454,
      "枷": 4455,
      "枸": 4456,
      "枹": 4457,
      "柃": 4458,
      "柄": 4459,
      "柏": 4460,
      "某": 4461,
      "柑": 4462,
      "染": 4463,
      "柔": 4464,
      "柘": 4465,
      "柚": 4466,
      "柜": 4467,
      "柝": 4468,
      "柞": 4469,
      "柟": 4470,
      "柠": 4471,
      "柢": 4472,
      "查": 4473,
      "柩": 4474,
      "柬": 4475,
      "柯": 4476,
      "柰": 4477,
      "柱": 4478,
      "柳": 4479,
      "柴": 4480,
      "査": 4481,
      "柽": 4482,
      "柿": 4483,
      "栀": 4484,
      "栂": 4485,
      "栃": 4486,
      "栅": 4487,
      "标": 4488,
      "栈": 4489,
      "栉": 4490,
      "栋": 4491,
      "栎": 4492,
      "栏": 4493,
      "树": 4494,
      "栓": 4495,
      "栖": 4496,
      "栗": 4497,
      "栠": 4498,
      "校": 4499,
      "栩": 4500,
      "株": 4501,
      "栱": 4502,
      "栲": 4503,
      "样": 4504,
      "核": 4505,
      "根": 4506,
      "栻": 4507,
      "格": 4508,
      "栽": 4509,
      "栾": 4510,
      "桀": 4511,
      "桁": 4512,
      "桂": 4513,
      "桃": 4514,
      "桅": 4515,
      "框": 4516,
      "案": 4517,
      "桌": 4518,
      "桎": 4519,
      "桐": 4520,
      "桑": 4521,
      "桓": 4522,
      "桔": 4523,
      "桜": 4524,
      "桠": 4525,
      "桢": 4526,
      "档": 4527,
      "桤": 4528,
      "桥": 4529,
      "桦": 4530,
      "桧": 4531,
      "桨": 4532,
      "桩": 4533,
      "桫": 4534,
      "桲": 4535,
      "桶": 4536,
      "桷": 4537,
      "梁": 4538,
      "梅": 4539,
      "梆": 4540,
      "梉": 4541,
      "梏": 4542,
      "梓": 4543,
      "梗": 4544,
      "條": 4545,
      "梟": 4546,
      "梢": 4547,
      "梦": 4548,
      "梧": 4549,
      "梨": 4550,
      "梭": 4551,
      "梯": 4552,
      "械": 4553,
      "梳": 4554,
      "梵": 4555,
      "梶": 4556,
      "梿": 4557,
      "检": 4558,
      "棁": 4559,
      "棂": 4560,
      "棄": 4561,
      "棉": 4562,
      "棋": 4563,
      "棍": 4564,
      "棒": 4565,
      "棓": 4566,
      "棕": 4567,
      "棘": 4568,
      "棚": 4569,
      "棟": 4570,
      "棠": 4571,
      "棣": 4572,
      "棧": 4573,
      "棨": 4574,
      "棫": 4575,
      "森": 4576,
      "棯": 4577,
      "棰": 4578,
      "棱": 4579,
      "棵": 4580,
      "棹": 4581,
      "棺": 4582,
      "棻": 4583,
      "棼": 4584,
      "椁": 4585,
      "椅": 4586,
      "椋": 4587,
      "植": 4588,
      "椎": 4589,
      "椒": 4590,
      "椙": 4591,
      "検": 4592,
      "椤": 4593,
      "椥": 4594,
      "椪": 4595,
      "椭": 4596,
      "椰": 4597,
      "椴": 4598,
      "椹": 4599,
      "椽": 4600,
      "椿": 4601,
      "楂": 4602,
      "楊": 4603,
      "楓": 4604,
      "楔": 4605,
      "楗": 4606,
      "楙": 4607,
      "楚": 4608,
      "楝": 4609,
      "楞": 4610,
      "楠": 4611,
      "楡": 4612,
      "楢": 4613,
      "楣": 4614,
      "楦": 4615,
      "楨": 4616,
      "楩": 4617,
      "楫": 4618,
      "業": 4619,
      "楮": 4620,
      "楯": 4621,
      "極": 4622,
      "楷": 4623,
      "楸": 4624,
      "楹": 4625,
      "楼": 4626,
      "楽": 4627,
      "概": 4628,
      "榄": 4629,
      "榅": 4630,
      "榆": 4631,
      "榈": 4632,
      "榉": 4633,
      "榊": 4634,
      "榎": 4635,
      "榔": 4636,
      "榕": 4637,
      "榖": 4638,
      "榘": 4639,
      "榛": 4640,
      "榜": 4641,
      "榧": 4642,
      "榨": 4643,
      "榭": 4644,
      "榮": 4645,
      "榴": 4646,
      "榷": 4647,
      "榻": 4648,
      "槁": 4649,
      "槃": 4650,
      "槇": 4651,
      "槊": 4652,
      "構": 4653,
      "槌": 4654,
      "槍": 4655,
      "槎": 4656,
      "槐": 4657,
      "様": 4658,
      "槛": 4659,
      "槜": 4660,
      "槟": 4661,
      "槪": 4662,
      "槰": 4663,
      "槱": 4664,
      "槲": 4665,
      "槳": 4666,
      "槻": 4667,
      "槽": 4668,
      "槿": 4669,
      "樂": 4670,
      "樉": 4671,
      "樊": 4672,
      "樋": 4673,
      "樑": 4674,
      "樓": 4675,
      "樗": 4676,
      "標": 4677,
      "樞": 4678,
      "樟": 4679,
      "模": 4680,
      "樣": 4681,
      "権": 4682,
      "横": 4683,
      "樯": 4684,
      "樱": 4685,
      "樵": 4686,
      "樹": 4687,
      "樺": 4688,
      "樽": 4689,
      "樾": 4690,
      "橃": 4691,
      "橄": 4692,
      "橇": 4693,
      "橋": 4694,
      "橘": 4695,
      "橙": 4696,
      "橞": 4697,
      "機": 4698,
      "橡": 4699,
      "橫": 4700,
      "橱": 4701,
      "橹": 4702,
      "橼": 4703,
      "橿": 4704,
      "檀": 4705,
      "檄": 4706,
      "檊": 4707,
      "檎": 4708,
      "檐": 4709,
      "檜": 4710,
      "檢": 4711,
      "檨": 4712,
      "檬": 4713,
      "檳": 4714,
      "檸": 4715,
      "櫂": 4716,
      "櫛": 4717,
      "櫱": 4718,
      "櫻": 4719,
      "櫼": 4720,
      "欃": 4721,
      "權": 4722,
      "欖": 4723,
      "欠": 4724,
      "次": 4725,
      "欢": 4726,
      "欣": 4727,
      "欤": 4728,
      "欧": 4729,
      "欬": 4730,
      "欲": 4731,
      "欷": 4732,
      "欸": 4733,
      "欺": 4734,
      "欽": 4735,
      "款": 4736,
      "歆": 4737,
      "歇": 4738,
      "歈": 4739,
      "歉": 4740,
      "歌": 4741,
      "歐": 4742,
      "歔": 4743,
      "歙": 4744,
      "歡": 4745,
      "止": 4746,
      "正": 4747,
      "此": 4748,
      "步": 4749,
      "武": 4750,
      "歧": 4751,
      "歩": 4752,
      "歪": 4753,
      "歲": 4754,
      "歳": 4755,
      "歷": 4756,
      "歸": 4757,
      "歹": 4758,
      "死": 4759,
      "歼": 4760,
      "殁": 4761,
      "殃": 4762,
      "殆": 4763,
      "殇": 4764,
      "殉": 4765,
      "殊": 4766,
      "残": 4767,
      "殒": 4768,
      "殓": 4769,
      "殖": 4770,
      "殘": 4771,
      "殚": 4772,
      "殡": 4773,
      "殭": 4774,
      "殴": 4775,
      "段": 4776,
      "殷": 4777,
      "殺": 4778,
      "殼": 4779,
      "殿": 4780,
      "毀": 4781,
      "毁": 4782,
      "毂": 4783,
      "毅": 4784,
      "毆": 4785,
      "毋": 4786,
      "母": 4787,
      "毎": 4788,
      "每": 4789,
      "毒": 4790,
      "毓": 4791,
      "比": 4792,
      "毕": 4793,
      "毗": 4794,
      "毘": 4795,
      "毙": 4796,
      "毛": 4797,
      "毡": 4798,
      "毫": 4799,
      "毯": 4800,
      "氅": 4801,
      "氏": 4802,
      "氐": 4803,
      "民": 4804,
      "氓": 4805,
      "气": 4806,
      "氖": 4807,
      "気": 4808,
      "氘": 4809,
      "氙": 4810,
      "氚": 4811,
      "氛": 4812,
      "氟": 4813,
      "氡": 4814,
      "氢": 4815,
      "氣": 4816,
      "氤": 4817,
      "氦": 4818,
      "氧": 4819,
      "氨": 4820,
      "氩": 4821,
      "氪": 4822,
      "氮": 4823,
      "氯": 4824,
      "氰": 4825,
      "氲": 4826,
      "水": 4827,
      "永": 4828,
      "氹": 4829,
      "氾": 4830,
      "汀": 4831,
      "汁": 4832,
      "求": 4833,
      "汇": 4834,
      "汉": 4835,
      "汎": 4836,
      "汐": 4837,
      "汕": 4838,
      "汗": 4839,
      "汛": 4840,
      "汜": 4841,
      "汝": 4842,
      "汞": 4843,
      "江": 4844,
      "池": 4845,
      "污": 4846,
      "汤": 4847,
      "汧": 4848,
      "汨": 4849,
      "汪": 4850,
      "汭": 4851,
      "汰": 4852,
      "汲": 4853,
      "汴": 4854,
      "汶": 4855,
      "汸": 4856,
      "汹": 4857,
      "決": 4858,
      "汽": 4859,
      "汾": 4860,
      "沁": 4861,
      "沂": 4862,
      "沃": 4863,
      "沄": 4864,
      "沅": 4865,
      "沆": 4866,
      "沈": 4867,
      "沉": 4868,
      "沌": 4869,
      "沐": 4870,
      "沒": 4871,
      "沓": 4872,
      "沔": 4873,
      "沖": 4874,
      "沙": 4875,
      "沛": 4876,
      "沟": 4877,
      "没": 4878,
      "沢": 4879,
      "沣": 4880,
      "沥": 4881,
      "沦": 4882,
      "沧": 4883,
      "沩": 4884,
      "沪": 4885,
      "沫": 4886,
      "沬": 4887,
      "沭": 4888,
      "沮": 4889,
      "沱": 4890,
      "河": 4891,
      "沸": 4892,
      "油": 4893,
      "治": 4894,
      "沼": 4895,
      "沽": 4896,
      "沾": 4897,
      "沿": 4898,
      "泄": 4899,
      "泅": 4900,
      "泉": 4901,
      "泊": 4902,
      "泌": 4903,
      "泐": 4904,
      "泒": 4905,
      "泓": 4906,
      "泔": 4907,
      "法": 4908,
      "泗": 4909,
      "泛": 4910,
      "泞": 4911,
      "泠": 4912,
      "泡": 4913,
      "波": 4914,
      "泣": 4915,
      "泥": 4916,
      "注": 4917,
      "泪": 4918,
      "泫": 4919,
      "泮": 4920,
      "泯": 4921,
      "泰": 4922,
      "泱": 4923,
      "泳": 4924,
      "泵": 4925,
      "泷": 4926,
      "泸": 4927,
      "泻": 4928,
      "泼": 4929,
      "泽": 4930,
      "泾": 4931,
      "洁": 4932,
      "洄": 4933,
      "洋": 4934,
      "洌": 4935,
      "洎": 4936,
      "洒": 4937,
      "洗": 4938,
      "洙": 4939,
      "洛": 4940,
      "洞": 4941,
      "津": 4942,
      "洧": 4943,
      "洨": 4944,
      "洪": 4945,
      "洮": 4946,
      "洱": 4947,
      "洲": 4948,
      "洴": 4949,
      "洵": 4950,
      "洸": 4951,
      "洹": 4952,
      "洺": 4953,
      "活": 4954,
      "洼": 4955,
      "洽": 4956,
      "派": 4957,
      "流": 4958,
      "浅": 4959,
      "浆": 4960,
      "浇": 4961,
      "浈": 4962,
      "浊": 4963,
      "测": 4964,
      "浍": 4965,
      "济": 4966,
      "浏": 4967,
      "浐": 4968,
      "浑": 4969,
      "浒": 4970,
      "浓": 4971,
      "浔": 4972,
      "浙": 4973,
      "浚": 4974,
      "浜": 4975,
      "浠": 4976,
      "浡": 4977,
      "浣": 4978,
      "浤": 4979,
      "浥": 4980,
      "浦": 4981,
      "浩": 4982,
      "浪": 4983,
      "浬": 4984,
      "浮": 4985,
      "浯": 4986,
      "浴": 4987,
      "海": 4988,
      "浸": 4989,
      "涂": 4990,
      "涅": 4991,
      "消": 4992,
      "涉": 4993,
      "涌": 4994,
      "涍": 4995,
      "涎": 4996,
      "涑": 4997,
      "涓": 4998,
      "涔": 4999,
      "涕": 5000,
      "涙": 5001,
      "涛": 5002,
      "涝": 5003,
      "涞": 5004,
      "涟": 5005,
      "涡": 5006,
      "涣": 5007,
      "涤": 5008,
      "润": 5009,
      "涧": 5010,
      "涨": 5011,
      "涩": 5012,
      "涪": 5013,
      "涫": 5014,
      "涯": 5015,
      "液": 5016,
      "涵": 5017,
      "涷": 5018,
      "涸": 5019,
      "涼": 5020,
      "涿": 5021,
      "淀": 5022,
      "淄": 5023,
      "淅": 5024,
      "淆": 5025,
      "淇": 5026,
      "淋": 5027,
      "淌": 5028,
      "淍": 5029,
      "淎": 5030,
      "淑": 5031,
      "淖": 5032,
      "淘": 5033,
      "淙": 5034,
      "淛": 5035,
      "淝": 5036,
      "淞": 5037,
      "淠": 5038,
      "淡": 5039,
      "淤": 5040,
      "淦": 5041,
      "淨": 5042,
      "淫": 5043,
      "淬": 5044,
      "淮": 5045,
      "深": 5046,
      "淳": 5047,
      "淵": 5048,
      "混": 5049,
      "淸": 5050,
      "淹": 5051,
      "淺": 5052,
      "添": 5053,
      "淼": 5054,
      "清": 5055,
      "済": 5056,
      "渉": 5057,
      "渊": 5058,
      "渌": 5059,
      "渍": 5060,
      "渎": 5061,
      "渐": 5062,
      "渑": 5063,
      "渔": 5064,
      "渕": 5065,
      "渗": 5066,
      "渚": 5067,
      "減": 5068,
      "渝": 5069,
      "渟": 5070,
      "渠": 5071,
      "渡": 5072,
      "渣": 5073,
      "渤": 5074,
      "渥": 5075,
      "渦": 5076,
      "温": 5077,
      "測": 5078,
      "渭": 5079,
      "港": 5080,
      "渲": 5081,
      "渴": 5082,
      "游": 5083,
      "渺": 5084,
      "渾": 5085,
      "湃": 5086,
      "湄": 5087,
      "湉": 5088,
      "湊": 5089,
      "湍": 5090,
      "湎": 5091,
      "湓": 5092,
      "湖": 5093,
      "湘": 5094,
      "湛": 5095,
      "湟": 5096,
      "湣": 5097,
      "湧": 5098,
      "湫": 5099,
      "湮": 5100,
      "湯": 5101,
      "湳": 5102,
      "湴": 5103,
      "湾": 5104,
      "湿": 5105,
      "満": 5106,
      "溃": 5107,
      "溅": 5108,
      "溉": 5109,
      "溍": 5110,
      "溎": 5111,
      "源": 5112,
      "準": 5113,
      "溜": 5114,
      "溝": 5115,
      "溟": 5116,
      "溢": 5117,
      "溥": 5118,
      "溧": 5119,
      "溪": 5120,
      "溫": 5121,
      "溯": 5122,
      "溱": 5123,
      "溲": 5124,
      "溴": 5125,
      "溶": 5126,
      "溺": 5127,
      "滁": 5128,
      "滂": 5129,
      "滅": 5130,
      "滇": 5131,
      "滉": 5132,
      "滋": 5133,
      "滑": 5134,
      "滓": 5135,
      "滔": 5136,
      "滕": 5137,
      "滘": 5138,
      "滙": 5139,
      "滚": 5140,
      "滞": 5141,
      "满": 5142,
      "滢": 5143,
      "滤": 5144,
      "滥": 5145,
      "滦": 5146,
      "滨": 5147,
      "滩": 5148,
      "滬": 5149,
      "滴": 5150,
      "滹": 5151,
      "滾": 5152,
      "滿": 5153,
      "漁": 5154,
      "漂": 5155,
      "漆": 5156,
      "漉": 5157,
      "漎": 5158,
      "漏": 5159,
      "漑": 5160,
      "漒": 5161,
      "漓": 5162,
      "演": 5163,
      "漕": 5164,
      "漠": 5165,
      "漢": 5166,
      "漩": 5167,
      "漪": 5168,
      "漫": 5169,
      "漭": 5170,
      "漯": 5171,
      "漱": 5172,
      "漳": 5173,
      "漸": 5174,
      "漼": 5175,
      "漾": 5176,
      "潇": 5177,
      "潋": 5178,
      "潍": 5179,
      "潔": 5180,
      "潘": 5181,
      "潙": 5182,
      "潛": 5183,
      "潜": 5184,
      "潞": 5185,
      "潟": 5186,
      "潢": 5187,
      "潤": 5188,
      "潦": 5189,
      "潧": 5190,
      "潭": 5191,
      "潮": 5192,
      "潯": 5193,
      "潴": 5194,
      "潸": 5195,
      "潺": 5196,
      "潼": 5197,
      "澂": 5198,
      "澄": 5199,
      "澈": 5200,
      "澍": 5201,
      "澎": 5202,
      "澗": 5203,
      "澜": 5204,
      "澠": 5205,
      "澡": 5206,
      "澣": 5207,
      "澤": 5208,
      "澥": 5209,
      "澧": 5210,
      "澨": 5211,
      "澳": 5212,
      "澶": 5213,
      "澹": 5214,
      "澼": 5215,
      "激": 5216,
      "濁": 5217,
      "濂": 5218,
      "濃": 5219,
      "濋": 5220,
      "濑": 5221,
      "濒": 5222,
      "濔": 5223,
      "濕": 5224,
      "濛": 5225,
      "濞": 5226,
      "濟": 5227,
      "濠": 5228,
      "濡": 5229,
      "濩": 5230,
      "濬": 5231,
      "濮": 5232,
      "濯": 5233,
      "濱": 5234,
      "瀅": 5235,
      "瀍": 5236,
      "瀑": 5237,
      "瀚": 5238,
      "瀛": 5239,
      "瀣": 5240,
      "瀨": 5241,
      "瀬": 5242,
      "瀹": 5243,
      "瀾": 5244,
      "灌": 5245,
      "灏": 5246,
      "灘": 5247,
      "灞": 5248,
      "灣": 5249,
      "火": 5250,
      "灭": 5251,
      "灯": 5252,
      "灰": 5253,
      "灵": 5254,
      "灶": 5255,
      "灸": 5256,
      "灼": 5257,
      "災": 5258,
      "灾": 5259,
      "灿": 5260,
      "炀": 5261,
      "炅": 5262,
      "炆": 5263,
      "炉": 5264,
      "炊": 5265,
      "炎": 5266,
      "炒": 5267,
      "炔": 5268,
      "炕": 5269,
      "炖": 5270,
      "炙": 5271,
      "炜": 5272,
      "炤": 5273,
      "炫": 5274,
      "炬": 5275,
      "炭": 5276,
      "炮": 5277,
      "炯": 5278,
      "炱": 5279,
      "炳": 5280,
      "炷": 5281,
      "炸": 5282,
      "点": 5283,
      "為": 5284,
      "炼": 5285,
      "炽": 5286,
      "烁": 5287,
      "烂": 5288,
      "烃": 5289,
      "烈": 5290,
      "烏": 5291,
      "烘": 5292,
      "烙": 5293,
      "烛": 5294,
      "烝": 5295,
      "烟": 5296,
      "烤": 5297,
      "烦": 5298,
      "烧": 5299,
      "烨": 5300,
      "烩": 5301,
      "烫": 5302,
      "烬": 5303,
      "热": 5304,
      "烮": 5305,
      "烯": 5306,
      "烱": 5307,
      "烷": 5308,
      "烹": 5309,
      "烺": 5310,
      "烽": 5311,
      "焉": 5312,
      "焊": 5313,
      "焓": 5314,
      "焔": 5315,
      "焕": 5316,
      "焖": 5317,
      "焗": 5318,
      "焘": 5319,
      "焙": 5320,
      "焚": 5321,
      "焜": 5322,
      "無": 5323,
      "焦": 5324,
      "焯": 5325,
      "焰": 5326,
      "焱": 5327,
      "然": 5328,
      "焿": 5329,
      "煃": 5330,
      "煇": 5331,
      "煉": 5332,
      "煊": 5333,
      "煌": 5334,
      "煎": 5335,
      "煐": 5336,
      "煒": 5337,
      "煙": 5338,
      "煚": 5339,
      "煜": 5340,
      "煞": 5341,
      "煤": 5342,
      "煥": 5343,
      "煦": 5344,
      "照": 5345,
      "煨": 5346,
      "煮": 5347,
      "煲": 5348,
      "煴": 5349,
      "煸": 5350,
      "煽": 5351,
      "熄": 5352,
      "熊": 5353,
      "熏": 5354,
      "熔": 5355,
      "熘": 5356,
      "熙": 5357,
      "熜": 5358,
      "熞": 5359,
      "熟": 5360,
      "熠": 5361,
      "熨": 5362,
      "熬": 5363,
      "熱": 5364,
      "熵": 5365,
      "熷": 5366,
      "熹": 5367,
      "熺": 5368,
      "熾": 5369,
      "燃": 5370,
      "燈": 5371,
      "燊": 5372,
      "燎": 5373,
      "燏": 5374,
      "燒": 5375,
      "燕": 5376,
      "營": 5377,
      "燠": 5378,
      "燥": 5379,
      "燦": 5380,
      "燧": 5381,
      "燭": 5382,
      "燮": 5383,
      "燹": 5384,
      "燿": 5385,
      "爆": 5386,
      "爍": 5387,
      "爔": 5388,
      "爟": 5389,
      "爨": 5390,
      "爪": 5391,
      "爬": 5392,
      "爭": 5393,
      "爰": 5394,
      "爱": 5395,
      "爵": 5396,
      "父": 5397,
      "爷": 5398,
      "爸": 5399,
      "爹": 5400,
      "爻": 5401,
      "爽": 5402,
      "爾": 5403,
      "牁": 5404,
      "牂": 5405,
      "牆": 5406,
      "片": 5407,
      "版": 5408,
      "牌": 5409,
      "牍": 5410,
      "牒": 5411,
      "牙": 5412,
      "牛": 5413,
      "牝": 5414,
      "牟": 5415,
      "牠": 5416,
      "牡": 5417,
      "牢": 5418,
      "牤": 5419,
      "牥": 5420,
      "牦": 5421,
      "牧": 5422,
      "物": 5423,
      "牯": 5424,
      "牲": 5425,
      "牵": 5426,
      "特": 5427,
      "牺": 5428,
      "牿": 5429,
      "犀": 5430,
      "犁": 5431,
      "犄": 5432,
      "犊": 5433,
      "犋": 5434,
      "犍": 5435,
      "犒": 5436,
      "犛": 5437,
      "犬": 5438,
      "犯": 5439,
      "犰": 5440,
      "状": 5441,
      "犷": 5442,
      "犸": 5443,
      "犹": 5444,
      "狀": 5445,
      "狁": 5446,
      "狂": 5447,
      "狄": 5448,
      "狈": 5449,
      "狍": 5450,
      "狎": 5451,
      "狐": 5452,
      "狗": 5453,
      "狙": 5454,
      "狞": 5455,
      "狠": 5456,
      "狡": 5457,
      "狩": 5458,
      "独": 5459,
      "狭": 5460,
      "狮": 5461,
      "狰": 5462,
      "狱": 5463,
      "狳": 5464,
      "狷": 5465,
      "狸": 5466,
      "狹": 5467,
      "狻": 5468,
      "狼": 5469,
      "猁": 5470,
      "猃": 5471,
      "猇": 5472,
      "猊": 5473,
      "猎": 5474,
      "猕": 5475,
      "猖": 5476,
      "猗": 5477,
      "猛": 5478,
      "猜": 5479,
      "猝": 5480,
      "猞": 5481,
      "猥": 5482,
      "猨": 5483,
      "猩": 5484,
      "猪": 5485,
      "猫": 5486,
      "猬": 5487,
      "献": 5488,
      "猰": 5489,
      "猴": 5490,
      "猶": 5491,
      "猷": 5492,
      "猾": 5493,
      "猿": 5494,
      "獄": 5495,
      "獅": 5496,
      "獎": 5497,
      "獐": 5498,
      "獒": 5499,
      "獗": 5500,
      "獠": 5501,
      "獥": 5502,
      "獨": 5503,
      "獭": 5504,
      "獯": 5505,
      "獲": 5506,
      "獵": 5507,
      "獸": 5508,
      "獻": 5509,
      "獾": 5510,
      "玄": 5511,
      "率": 5512,
      "玉": 5513,
      "王": 5514,
      "玎": 5515,
      "玑": 5516,
      "玖": 5517,
      "玗": 5518,
      "玘": 5519,
      "玛": 5520,
      "玟": 5521,
      "玠": 5522,
      "玡": 5523,
      "玢": 5524,
      "玥": 5525,
      "玧": 5526,
      "玨": 5527,
      "玩": 5528,
      "玫": 5529,
      "玮": 5530,
      "环": 5531,
      "现": 5532,
      "玲": 5533,
      "玳": 5534,
      "玷": 5535,
      "玹": 5536,
      "玺": 5537,
      "玻": 5538,
      "珀": 5539,
      "珂": 5540,
      "珅": 5541,
      "珈": 5542,
      "珉": 5543,
      "珊": 5544,
      "珌": 5545,
      "珍": 5546,
      "珎": 5547,
      "珏": 5548,
      "珐": 5549,
      "珑": 5550,
      "珙": 5551,
      "珞": 5552,
      "珠": 5553,
      "珣": 5554,
      "珥": 5555,
      "珧": 5556,
      "珩": 5557,
      "珪": 5558,
      "珫": 5559,
      "班": 5560,
      "珮": 5561,
      "珲": 5562,
      "珺": 5563,
      "珽": 5564,
      "現": 5565,
      "琁": 5566,
      "球": 5567,
      "琅": 5568,
      "理": 5569,
      "琇": 5570,
      "琉": 5571,
      "琊": 5572,
      "琍": 5573,
      "琏": 5574,
      "琐": 5575,
      "琚": 5576,
      "琛": 5577,
      "琠": 5578,
      "琢": 5579,
      "琤": 5580,
      "琥": 5581,
      "琦": 5582,
      "琨": 5583,
      "琪": 5584,
      "琬": 5585,
      "琮": 5586,
      "琯": 5587,
      "琰": 5588,
      "琳": 5589,
      "琴": 5590,
      "琵": 5591,
      "琶": 5592,
      "琼": 5593,
      "瑀": 5594,
      "瑁": 5595,
      "瑄": 5596,
      "瑅": 5597,
      "瑆": 5598,
      "瑋": 5599,
      "瑕": 5600,
      "瑗": 5601,
      "瑙": 5602,
      "瑚": 5603,
      "瑛": 5604,
      "瑜": 5605,
      "瑞": 5606,
      "瑟": 5607,
      "瑠": 5608,
      "瑡": 5609,
      "瑢": 5610,
      "瑤": 5611,
      "瑩": 5612,
      "瑪": 5613,
      "瑰": 5614,
      "瑱": 5615,
      "瑶": 5616,
      "瑷": 5617,
      "瑾": 5618,
      "璀": 5619,
      "璃": 5620,
      "璄": 5621,
      "璇": 5622,
      "璈": 5623,
      "璋": 5624,
      "璎": 5625,
      "璐": 5626,
      "璘": 5627,
      "璜": 5628,
      "璝": 5629,
      "璞": 5630,
      "璟": 5631,
      "璥": 5632,
      "璧": 5633,
      "璨": 5634,
      "璩": 5635,
      "璪": 5636,
      "璮": 5637,
      "環": 5638,
      "璲": 5639,
      "璽": 5640,
      "璿": 5641,
      "瓊": 5642,
      "瓌": 5643,
      "瓏": 5644,
      "瓒": 5645,
      "瓖": 5646,
      "瓘": 5647,
      "瓛": 5648,
      "瓜": 5649,
      "瓠": 5650,
      "瓢": 5651,
      "瓣": 5652,
      "瓤": 5653,
      "瓦": 5654,
      "瓮": 5655,
      "瓯": 5656,
      "瓶": 5657,
      "瓷": 5658,
      "甃": 5659,
      "甄": 5660,
      "甍": 5661,
      "甑": 5662,
      "甓": 5663,
      "甕": 5664,
      "甘": 5665,
      "甚": 5666,
      "甜": 5667,
      "生": 5668,
      "產": 5669,
      "産": 5670,
      "甥": 5671,
      "甦": 5672,
      "用": 5673,
      "甩": 5674,
      "甫": 5675,
      "甬": 5676,
      "甯": 5677,
      "田": 5678,
      "由": 5679,
      "甲": 5680,
      "申": 5681,
      "甴": 5682,
      "电": 5683,
      "男": 5684,
      "甸": 5685,
      "町": 5686,
      "画": 5687,
      "甾": 5688,
      "畀": 5689,
      "畅": 5690,
      "畈": 5691,
      "畊": 5692,
      "畋": 5693,
      "界": 5694,
      "畏": 5695,
      "畑": 5696,
      "畔": 5697,
      "留": 5698,
      "畚": 5699,
      "畜": 5700,
      "畠": 5701,
      "畢": 5702,
      "畤": 5703,
      "略": 5704,
      "畦": 5705,
      "番": 5706,
      "畫": 5707,
      "畬": 5708,
      "畯": 5709,
      "異": 5710,
      "畲": 5711,
      "畴": 5712,
      "當": 5713,
      "畸": 5714,
      "畹": 5715,
      "畿": 5716,
      "疃": 5717,
      "疆": 5718,
      "疇": 5719,
      "疊": 5720,
      "疋": 5721,
      "疍": 5722,
      "疏": 5723,
      "疐": 5724,
      "疑": 5725,
      "疗": 5726,
      "疙": 5727,
      "疚": 5728,
      "疝": 5729,
      "疟": 5730,
      "疡": 5731,
      "疣": 5732,
      "疤": 5733,
      "疫": 5734,
      "疮": 5735,
      "疯": 5736,
      "疱": 5737,
      "疲": 5738,
      "疵": 5739,
      "疸": 5740,
      "疹": 5741,
      "疼": 5742,
      "疽": 5743,
      "疾": 5744,
      "病": 5745,
      "症": 5746,
      "痈": 5747,
      "痉": 5748,
      "痊": 5749,
      "痍": 5750,
      "痒": 5751,
      "痔": 5752,
      "痕": 5753,
      "痘": 5754,
      "痛": 5755,
      "痞": 5756,
      "痢": 5757,
      "痣": 5758,
      "痨": 5759,
      "痪": 5760,
      "痫": 5761,
      "痰": 5762,
      "痳": 5763,
      "痴": 5764,
      "痹": 5765,
      "痼": 5766,
      "痿": 5767,
      "瘀": 5768,
      "瘁": 5769,
      "瘋": 5770,
      "瘘": 5771,
      "瘟": 5772,
      "瘠": 5773,
      "瘤": 5774,
      "瘦": 5775,
      "瘩": 5776,
      "瘫": 5777,
      "瘸": 5778,
      "瘾": 5779,
      "瘿": 5780,
      "療": 5781,
      "癌": 5782,
      "癔": 5783,
      "癖": 5784,
      "癣": 5785,
      "癫": 5786,
      "癸": 5787,
      "発": 5788,
      "登": 5789,
      "發": 5790,
      "白": 5791,
      "百": 5792,
      "皂": 5793,
      "的": 5794,
      "皆": 5795,
      "皇": 5796,
      "皈": 5797,
      "皋": 5798,
      "皎": 5799,
      "皑": 5800,
      "皓": 5801,
      "皖": 5802,
      "皙": 5803,
      "皝": 5804,
      "皞": 5805,
      "皤": 5806,
      "皮": 5807,
      "皱": 5808,
      "皺": 5809,
      "皿": 5810,
      "盂": 5811,
      "盃": 5812,
      "盅": 5813,
      "盆": 5814,
      "盈": 5815,
      "益": 5816,
      "盎": 5817,
      "盏": 5818,
      "盐": 5819,
      "监": 5820,
      "盒": 5821,
      "盔": 5822,
      "盖": 5823,
      "盗": 5824,
      "盘": 5825,
      "盛": 5826,
      "盜": 5827,
      "盟": 5828,
      "盡": 5829,
      "監": 5830,
      "盤": 5831,
      "盥": 5832,
      "盦": 5833,
      "盧": 5834,
      "盩": 5835,
      "盪": 5836,
      "目": 5837,
      "盯": 5838,
      "盱": 5839,
      "盲": 5840,
      "直": 5841,
      "相": 5842,
      "盼": 5843,
      "盾": 5844,
      "省": 5845,
      "眄": 5846,
      "眇": 5847,
      "眉": 5848,
      "看": 5849,
      "県": 5850,
      "眙": 5851,
      "眚": 5852,
      "眛": 5853,
      "真": 5854,
      "眠": 5855,
      "眦": 5856,
      "眨": 5857,
      "眩": 5858,
      "眭": 5859,
      "眯": 5860,
      "眶": 5861,
      "眷": 5862,
      "眺": 5863,
      "眼": 5864,
      "眾": 5865,
      "着": 5866,
      "睁": 5867,
      "睄": 5868,
      "睇": 5869,
      "睐": 5870,
      "睑": 5871,
      "睘": 5872,
      "睛": 5873,
      "睠": 5874,
      "睡": 5875,
      "睢": 5876,
      "督": 5877,
      "睦": 5878,
      "睫": 5879,
      "睬": 5880,
      "睹": 5881,
      "睺": 5882,
      "睽": 5883,
      "睾": 5884,
      "睿": 5885,
      "瞄": 5886,
      "瞋": 5887,
      "瞌": 5888,
      "瞎": 5889,
      "瞑": 5890,
      "瞒": 5891,
      "瞠": 5892,
      "瞥": 5893,
      "瞧": 5894,
      "瞩": 5895,
      "瞪": 5896,
      "瞬": 5897,
      "瞭": 5898,
      "瞰": 5899,
      "瞳": 5900,
      "瞻": 5901,
      "瞽": 5902,
      "瞿": 5903,
      "矗": 5904,
      "矛": 5905,
      "矜": 5906,
      "矞": 5907,
      "矢": 5908,
      "矣": 5909,
      "知": 5910,
      "矩": 5911,
      "矫": 5912,
      "短": 5913,
      "矮": 5914,
      "矯": 5915,
      "石": 5916,
      "矶": 5917,
      "矽": 5918,
      "矾": 5919,
      "矿": 5920,
      "砀": 5921,
      "码": 5922,
      "砂": 5923,
      "砌": 5924,
      "砍": 5925,
      "砒": 5926,
      "研": 5927,
      "砖": 5928,
      "砚": 5929,
      "砜": 5930,
      "砟": 5931,
      "砣": 5932,
      "砥": 5933,
      "砦": 5934,
      "砧": 5935,
      "砩": 5936,
      "砬": 5937,
      "砰": 5938,
      "砲": 5939,
      "破": 5940,
      "砵": 5941,
      "砷": 5942,
      "砸": 5943,
      "砺": 5944,
      "砾": 5945,
      "础": 5946,
      "硅": 5947,
      "硏": 5948,
      "硐": 5949,
      "硒": 5950,
      "硕": 5951,
      "硖": 5952,
      "硚": 5953,
      "硝": 5954,
      "硥": 5955,
      "硫": 5956,
      "硬": 5957,
      "确": 5958,
      "硷": 5959,
      "硼": 5960,
      "碁": 5961,
      "碇": 5962,
      "碉": 5963,
      "碌": 5964,
      "碍": 5965,
      "碎": 5966,
      "碑": 5967,
      "碓": 5968,
      "碕": 5969,
      "碗": 5970,
      "碘": 5971,
      "碚": 5972,
      "碛": 5973,
      "碟": 5974,
      "碣": 5975,
      "碧": 5976,
      "碩": 5977,
      "碰": 5978,
      "碱": 5979,
      "碲": 5980,
      "碳": 5981,
      "碴": 5982,
      "碼": 5983,
      "碾": 5984,
      "磁": 5985,
      "磅": 5986,
      "磊": 5987,
      "磋": 5988,
      "磐": 5989,
      "磔": 5990,
      "磕": 5991,
      "磘": 5992,
      "磚": 5993,
      "磜": 5994,
      "磡": 5995,
      "磨": 5996,
      "磬": 5997,
      "磯": 5998,
      "磲": 5999,
      "磴": 6000,
      "磷": 6001,
      "磺": 6002,
      "礁": 6003,
      "礤": 6004,
      "礦": 6005,
      "礴": 6006,
      "示": 6007,
      "礼": 6008,
      "礽": 6009,
      "社": 6010,
      "祀": 6011,
      "祁": 6012,
      "祂": 6013,
      "祇": 6014,
      "祈": 6015,
      "祉": 6016,
      "祎": 6017,
      "祐": 6018,
      "祓": 6019,
      "祔": 6020,
      "祖": 6021,
      "祗": 6022,
      "祚": 6023,
      "祛": 6024,
      "祜": 6025,
      "祝": 6026,
      "神": 6027,
      "祟": 6028,
      "祠": 6029,
      "祢": 6030,
      "祥": 6031,
      "祧": 6032,
      "票": 6033,
      "祭": 6034,
      "祯": 6035,
      "祲": 6036,
      "祷": 6037,
      "祸": 6038,
      "祺": 6039,
      "祿": 6040,
      "禀": 6041,
      "禁": 6042,
      "禄": 6043,
      "禅": 6044,
      "禆": 6045,
      "禊": 6046,
      "禎": 6047,
      "福": 6048,
      "禖": 6049,
      "禚": 6050,
      "禝": 6051,
      "禠": 6052,
      "禤": 6053,
      "禧": 6054,
      "禩": 6055,
      "禪": 6056,
      "禫": 6057,
      "禮": 6058,
      "禳": 6059,
      "禹": 6060,
      "禺": 6061,
      "离": 6062,
      "禽": 6063,
      "禾": 6064,
      "秀": 6065,
      "私": 6066,
      "秃": 6067,
      "秆": 6068,
      "秉": 6069,
      "秋": 6070,
      "种": 6071,
      "科": 6072,
      "秒": 6073,
      "秕": 6074,
      "秘": 6075,
      "租": 6076,
      "秣": 6077,
      "秤": 6078,
      "秦": 6079,
      "秧": 6080,
      "秩": 6081,
      "秭": 6082,
      "积": 6083,
      "称": 6084,
      "秸": 6085,
      "移": 6086,
      "秽": 6087,
      "秾": 6088,
      "稀": 6089,
      "程": 6090,
      "稍": 6091,
      "税": 6092,
      "稒": 6093,
      "稔": 6094,
      "稖": 6095,
      "稗": 6096,
      "稙": 6097,
      "稚": 6098,
      "稜": 6099,
      "稞": 6100,
      "稠": 6101,
      "稣": 6102,
      "種": 6103,
      "稱": 6104,
      "稲": 6105,
      "稳": 6106,
      "稷": 6107,
      "稹": 6108,
      "稻": 6109,
      "稼": 6110,
      "稽": 6111,
      "稿": 6112,
      "穀": 6113,
      "穂": 6114,
      "穆": 6115,
      "穋": 6116,
      "積": 6117,
      "穎": 6118,
      "穏": 6119,
      "穑": 6120,
      "穗": 6121,
      "穢": 6122,
      "穣": 6123,
      "穰": 6124,
      "穴": 6125,
      "究": 6126,
      "穷": 6127,
      "穹": 6128,
      "空": 6129,
      "穿": 6130,
      "突": 6131,
      "窃": 6132,
      "窄": 6133,
      "窅": 6134,
      "窆": 6135,
      "窈": 6136,
      "窍": 6137,
      "窑": 6138,
      "窒": 6139,
      "窕": 6140,
      "窖": 6141,
      "窗": 6142,
      "窘": 6143,
      "窜": 6144,
      "窝": 6145,
      "窟": 6146,
      "窠": 6147,
      "窣": 6148,
      "窥": 6149,
      "窦": 6150,
      "窩": 6151,
      "窭": 6152,
      "窯": 6153,
      "窿": 6154,
      "竂": 6155,
      "竇": 6156,
      "立": 6157,
      "竑": 6158,
      "竖": 6159,
      "站": 6160,
      "竜": 6161,
      "竞": 6162,
      "竟": 6163,
      "章": 6164,
      "竣": 6165,
      "童": 6166,
      "竦": 6167,
      "竩": 6168,
      "竭": 6169,
      "端": 6170,
      "競": 6171,
      "竹": 6172,
      "竺": 6173,
      "竽": 6174,
      "竿": 6175,
      "笃": 6176,
      "笄": 6177,
      "笈": 6178,
      "笋": 6179,
      "笏": 6180,
      "笑": 6181,
      "笔": 6182,
      "笕": 6183,
      "笙": 6184,
      "笛": 6185,
      "笞": 6186,
      "笠": 6187,
      "符": 6188,
      "笨": 6189,
      "笫": 6190,
      "第": 6191,
      "笳": 6192,
      "笹": 6193,
      "笺": 6194,
      "笼": 6195,
      "笾": 6196,
      "筅": 6197,
      "筆": 6198,
      "等": 6199,
      "筊": 6200,
      "筋": 6201,
      "筏": 6202,
      "筐": 6203,
      "筑": 6204,
      "筒": 6205,
      "答": 6206,
      "策": 6207,
      "筚": 6208,
      "筛": 6209,
      "筝": 6210,
      "筠": 6211,
      "筭": 6212,
      "筱": 6213,
      "筲": 6214,
      "筵": 6215,
      "筷": 6216,
      "筹": 6217,
      "签": 6218,
      "简": 6219,
      "箇": 6220,
      "箊": 6221,
      "箍": 6222,
      "箐": 6223,
      "箓": 6224,
      "箔": 6225,
      "箕": 6226,
      "算": 6227,
      "管": 6228,
      "箧": 6229,
      "箩": 6230,
      "箫": 6231,
      "箬": 6232,
      "箭": 6233,
      "箱": 6234,
      "箴": 6235,
      "箸": 6236,
      "節": 6237,
      "篁": 6238,
      "範": 6239,
      "篆": 6240,
      "篇": 6241,
      "築": 6242,
      "篙": 6243,
      "篝": 6244,
      "篠": 6245,
      "篡": 6246,
      "篥": 6247,
      "篦": 6248,
      "篮": 6249,
      "篱": 6250,
      "篶": 6251,
      "篷": 6252,
      "篾": 6253,
      "簃": 6254,
      "簇": 6255,
      "簋": 6256,
      "簞": 6257,
      "簠": 6258,
      "簡": 6259,
      "簧": 6260,
      "簪": 6261,
      "簷": 6262,
      "簸": 6263,
      "簽": 6264,
      "簾": 6265,
      "簿": 6266,
      "籀": 6267,
      "籁": 6268,
      "籃": 6269,
      "籌": 6270,
      "籍": 6271,
      "籓": 6272,
      "籥": 6273,
      "籧": 6274,
      "米": 6275,
      "类": 6276,
      "籽": 6277,
      "粁": 6278,
      "粄": 6279,
      "粉": 6280,
      "粋": 6281,
      "粑": 6282,
      "粒": 6283,
      "粕": 6284,
      "粗": 6285,
      "粘": 6286,
      "粜": 6287,
      "粟": 6288,
      "粢": 6289,
      "粤": 6290,
      "粥": 6291,
      "粦": 6292,
      "粪": 6293,
      "粮": 6294,
      "粱": 6295,
      "粲": 6296,
      "粳": 6297,
      "粵": 6298,
      "粹": 6299,
      "粽": 6300,
      "精": 6301,
      "粿": 6302,
      "糅": 6303,
      "糊": 6304,
      "糌": 6305,
      "糍": 6306,
      "糕": 6307,
      "糖": 6308,
      "糙": 6309,
      "糜": 6310,
      "糞": 6311,
      "糟": 6312,
      "糠": 6313,
      "糬": 6314,
      "糯": 6315,
      "糸": 6316,
      "系": 6317,
      "紀": 6318,
      "約": 6319,
      "紅": 6320,
      "紊": 6321,
      "紋": 6322,
      "納": 6323,
      "紐": 6324,
      "純": 6325,
      "紗": 6326,
      "紙": 6327,
      "級": 6328,
      "素": 6329,
      "紡": 6330,
      "索": 6331,
      "紧": 6332,
      "紫": 6333,
      "累": 6334,
      "細": 6335,
      "紱": 6336,
      "紳": 6337,
      "紹": 6338,
      "絁": 6339,
      "終": 6340,
      "組": 6341,
      "絅": 6342,
      "経": 6343,
      "結": 6344,
      "絕": 6345,
      "絛": 6346,
      "絜": 6347,
      "絡": 6348,
      "絢": 6349,
      "給": 6350,
      "絨": 6351,
      "絮": 6352,
      "統": 6353,
      "絲": 6354,
      "絵": 6355,
      "絶": 6356,
      "絺": 6357,
      "經": 6358,
      "続": 6359,
      "綜": 6360,
      "綠": 6361,
      "綦": 6362,
      "綫": 6363,
      "維": 6364,
      "綱": 6365,
      "網": 6366,
      "綸": 6367,
      "綺": 6368,
      "綾": 6369,
      "綿": 6370,
      "緈": 6371,
      "緊": 6372,
      "総": 6373,
      "緑": 6374,
      "緒": 6375,
      "線": 6376,
      "緝": 6377,
      "緞": 6378,
      "緣": 6379,
      "編": 6380,
      "緬": 6381,
      "緯": 6382,
      "緲": 6383,
      "練": 6384,
      "縁": 6385,
      "縄": 6386,
      "縠": 6387,
      "縡": 6388,
      "縣": 6389,
      "縮": 6390,
      "縱": 6391,
      "縸": 6392,
      "縻": 6393,
      "總": 6394,
      "績": 6395,
      "繁": 6396,
      "繆": 6397,
      "繇": 6398,
      "繈": 6399,
      "繋": 6400,
      "織": 6401,
      "繚": 6402,
      "繞": 6403,
      "繩": 6404,
      "繪": 6405,
      "繷": 6406,
      "繼": 6407,
      "繽": 6408,
      "纁": 6409,
      "纂": 6410,
      "續": 6411,
      "纘": 6412,
      "纛": 6413,
      "纠": 6414,
      "纡": 6415,
      "红": 6416,
      "纤": 6417,
      "纥": 6418,
      "约": 6419,
      "级": 6420,
      "纨": 6421,
      "纩": 6422,
      "纪": 6423,
      "纫": 6424,
      "纬": 6425,
      "纭": 6426,
      "纮": 6427,
      "纯": 6428,
      "纱": 6429,
      "纲": 6430,
      "纳": 6431,
      "纵": 6432,
      "纶": 6433,
      "纷": 6434,
      "纸": 6435,
      "纹": 6436,
      "纺": 6437,
      "纻": 6438,
      "纽": 6439,
      "纾": 6440,
      "线": 6441,
      "绂": 6442,
      "练": 6443,
      "组": 6444,
      "绅": 6445,
      "细": 6446,
      "织": 6447,
      "终": 6448,
      "绊": 6449,
      "绌": 6450,
      "绍": 6451,
      "绎": 6452,
      "经": 6453,
      "绑": 6454,
      "绒": 6455,
      "结": 6456,
      "绔": 6457,
      "绕": 6458,
      "绖": 6459,
      "绘": 6460,
      "给": 6461,
      "绚": 6462,
      "绛": 6463,
      "络": 6464,
      "绝": 6465,
      "绞": 6466,
      "统": 6467,
      "绡": 6468,
      "绢": 6469,
      "绣": 6470,
      "绥": 6471,
      "绦": 6472,
      "继": 6473,
      "绩": 6474,
      "绪": 6475,
      "绫": 6476,
      "续": 6477,
      "绮": 6478,
      "绯": 6479,
      "绰": 6480,
      "绳": 6481,
      "维": 6482,
      "绵": 6483,
      "绶": 6484,
      "绷": 6485,
      "绸": 6486,
      "绺": 6487,
      "绻": 6488,
      "综": 6489,
      "绽": 6490,
      "绾": 6491,
      "绿": 6492,
      "缀": 6493,
      "缁": 6494,
      "缃": 6495,
      "缄": 6496,
      "缅": 6497,
      "缆": 6498,
      "缇": 6499,
      "缉": 6500,
      "缌": 6501,
      "缎": 6502,
      "缑": 6503,
      "缒": 6504,
      "缓": 6505,
      "缔": 6506,
      "缕": 6507,
      "编": 6508,
      "缗": 6509,
      "缘": 6510,
      "缙": 6511,
      "缚": 6512,
      "缛": 6513,
      "缜": 6514,
      "缝": 6515,
      "缟": 6516,
      "缠": 6517,
      "缢": 6518,
      "缣": 6519,
      "缤": 6520,
      "缥": 6521,
      "缨": 6522,
      "缩": 6523,
      "缪": 6524,
      "缬": 6525,
      "缭": 6526,
      "缮": 6527,
      "缯": 6528,
      "缰": 6529,
      "缱": 6530,
      "缳": 6531,
      "缴": 6532,
      "缵": 6533,
      "缶": 6534,
      "缸": 6535,
      "缺": 6536,
      "罂": 6537,
      "罃": 6538,
      "罄": 6539,
      "罊": 6540,
      "罍": 6541,
      "罐": 6542,
      "网": 6543,
      "罔": 6544,
      "罕": 6545,
      "罗": 6546,
      "罘": 6547,
      "罚": 6548,
      "罟": 6549,
      "罡": 6550,
      "罢": 6551,
      "罩": 6552,
      "罪": 6553,
      "置": 6554,
      "署": 6555,
      "罵": 6556,
      "罷": 6557,
      "罹": 6558,
      "罾": 6559,
      "羁": 6560,
      "羂": 6561,
      "羅": 6562,
      "羊": 6563,
      "羌": 6564,
      "美": 6565,
      "羔": 6566,
      "羕": 6567,
      "羚": 6568,
      "羞": 6569,
      "羟": 6570,
      "羡": 6571,
      "群": 6572,
      "羧": 6573,
      "義": 6574,
      "羯": 6575,
      "羰": 6576,
      "羲": 6577,
      "羸": 6578,
      "羹": 6579,
      "羽": 6580,
      "羿": 6581,
      "翀": 6582,
      "翁": 6583,
      "翃": 6584,
      "翅": 6585,
      "翊": 6586,
      "翌": 6587,
      "翎": 6588,
      "習": 6589,
      "翔": 6590,
      "翕": 6591,
      "翘": 6592,
      "翙": 6593,
      "翛": 6594,
      "翟": 6595,
      "翠": 6596,
      "翡": 6597,
      "翥": 6598,
      "翦": 6599,
      "翩": 6600,
      "翮": 6601,
      "翰": 6602,
      "翱": 6603,
      "翳": 6604,
      "翹": 6605,
      "翺": 6606,
      "翻": 6607,
      "翼": 6608,
      "耀": 6609,
      "老": 6610,
      "考": 6611,
      "耄": 6612,
      "者": 6613,
      "耆": 6614,
      "耋": 6615,
      "而": 6616,
      "耍": 6617,
      "耐": 6618,
      "耒": 6619,
      "耕": 6620,
      "耗": 6621,
      "耘": 6622,
      "耙": 6623,
      "耜": 6624,
      "耦": 6625,
      "耨": 6626,
      "耳": 6627,
      "耶": 6628,
      "耸": 6629,
      "耻": 6630,
      "耽": 6631,
      "耿": 6632,
      "聂": 6633,
      "聃": 6634,
      "聆": 6635,
      "聊": 6636,
      "聋": 6637,
      "职": 6638,
      "联": 6639,
      "聖": 6640,
      "聘": 6641,
      "聚": 6642,
      "聞": 6643,
      "聦": 6644,
      "聨": 6645,
      "聪": 6646,
      "聯": 6647,
      "聰": 6648,
      "聲": 6649,
      "聶": 6650,
      "職": 6651,
      "聼": 6652,
      "聿": 6653,
      "肃": 6654,
      "肄": 6655,
      "肅": 6656,
      "肆": 6657,
      "肇": 6658,
      "肉": 6659,
      "肋": 6660,
      "肌": 6661,
      "肓": 6662,
      "肖": 6663,
      "肘": 6664,
      "肚": 6665,
      "肛": 6666,
      "肜": 6667,
      "肝": 6668,
      "肟": 6669,
      "肠": 6670,
      "股": 6671,
      "肢": 6672,
      "肤": 6673,
      "肥": 6674,
      "肩": 6675,
      "肪": 6676,
      "肮": 6677,
      "肯": 6678,
      "肱": 6679,
      "育": 6680,
      "肴": 6681,
      "肸": 6682,
      "肺": 6683,
      "肼": 6684,
      "肽": 6685,
      "肾": 6686,
      "肿": 6687,
      "胀": 6688,
      "胁": 6689,
      "胃": 6690,
      "胄": 6691,
      "胆": 6692,
      "背": 6693,
      "胎": 6694,
      "胖": 6695,
      "胚": 6696,
      "胛": 6697,
      "胜": 6698,
      "胝": 6699,
      "胞": 6700,
      "胡": 6701,
      "胤": 6702,
      "胥": 6703,
      "胧": 6704,
      "胪": 6705,
      "胫": 6706,
      "胭": 6707,
      "胯": 6708,
      "胰": 6709,
      "胱": 6710,
      "胳": 6711,
      "胴": 6712,
      "胶": 6713,
      "胸": 6714,
      "胺": 6715,
      "能": 6716,
      "脂": 6717,
      "脅": 6718,
      "脆": 6719,
      "脈": 6720,
      "脉": 6721,
      "脊": 6722,
      "脍": 6723,
      "脏": 6724,
      "脐": 6725,
      "脑": 6726,
      "脓": 6727,
      "脖": 6728,
      "脚": 6729,
      "脢": 6730,
      "脩": 6731,
      "脫": 6732,
      "脯": 6733,
      "脰": 6734,
      "脱": 6735,
      "脲": 6736,
      "脷": 6737,
      "脸": 6738,
      "脾": 6739,
      "腆": 6740,
      "腈": 6741,
      "腊": 6742,
      "腋": 6743,
      "腌": 6744,
      "腎": 6745,
      "腐": 6746,
      "腑": 6747,
      "腓": 6748,
      "腔": 6749,
      "腕": 6750,
      "腘": 6751,
      "腥": 6752,
      "腦": 6753,
      "腫": 6754,
      "腭": 6755,
      "腮": 6756,
      "腰": 6757,
      "腱": 6758,
      "腳": 6759,
      "腴": 6760,
      "腸": 6761,
      "腹": 6762,
      "腺": 6763,
      "腻": 6764,
      "腼": 6765,
      "腾": 6766,
      "腿": 6767,
      "膀": 6768,
      "膊": 6769,
      "膏": 6770,
      "膛": 6771,
      "膜": 6772,
      "膝": 6773,
      "膠": 6774,
      "膨": 6775,
      "膳": 6776,
      "膺": 6777,
      "膻": 6778,
      "膽": 6779,
      "臀": 6780,
      "臂": 6781,
      "臃": 6782,
      "臆": 6783,
      "臌": 6784,
      "臘": 6785,
      "臞": 6786,
      "臟": 6787,
      "臣": 6788,
      "臥": 6789,
      "臧": 6790,
      "臨": 6791,
      "自": 6792,
      "臬": 6793,
      "臭": 6794,
      "至": 6795,
      "致": 6796,
      "臺": 6797,
      "臻": 6798,
      "臼": 6799,
      "臾": 6800,
      "舀": 6801,
      "舂": 6802,
      "舄": 6803,
      "舅": 6804,
      "舆": 6805,
      "與": 6806,
      "興": 6807,
      "舉": 6808,
      "舊": 6809,
      "舌": 6810,
      "舍": 6811,
      "舎": 6812,
      "舐": 6813,
      "舒": 6814,
      "舔": 6815,
      "舖": 6816,
      "舗": 6817,
      "舛": 6818,
      "舜": 6819,
      "舞": 6820,
      "舟": 6821,
      "舢": 6822,
      "舨": 6823,
      "航": 6824,
      "舫": 6825,
      "般": 6826,
      "舯": 6827,
      "舰": 6828,
      "舱": 6829,
      "舵": 6830,
      "舶": 6831,
      "舷": 6832,
      "船": 6833,
      "舺": 6834,
      "舾": 6835,
      "艇": 6836,
      "艉": 6837,
      "艋": 6838,
      "艏": 6839,
      "艘": 6840,
      "艛": 6841,
      "艟": 6842,
      "艦": 6843,
      "艨": 6844,
      "艮": 6845,
      "良": 6846,
      "艰": 6847,
      "色": 6848,
      "艳": 6849,
      "艶": 6850,
      "艷": 6851,
      "艺": 6852,
      "艾": 6853,
      "节": 6854,
      "芄": 6855,
      "芈": 6856,
      "芊": 6857,
      "芋": 6858,
      "芍": 6859,
      "芎": 6860,
      "芐": 6861,
      "芒": 6862,
      "芗": 6863,
      "芙": 6864,
      "芛": 6865,
      "芜": 6866,
      "芝": 6867,
      "芡": 6868,
      "芥": 6869,
      "芦": 6870,
      "芫": 6871,
      "芬": 6872,
      "芭": 6873,
      "芮": 6874,
      "芯": 6875,
      "花": 6876,
      "芳": 6877,
      "芷": 6878,
      "芸": 6879,
      "芹": 6880,
      "芺": 6881,
      "芽": 6882,
      "芾": 6883,
      "苅": 6884,
      "苇": 6885,
      "苋": 6886,
      "苌": 6887,
      "苍": 6888,
      "苎": 6889,
      "苏": 6890,
      "苑": 6891,
      "苓": 6892,
      "苔": 6893,
      "苕": 6894,
      "苗": 6895,
      "苛": 6896,
      "苞": 6897,
      "苟": 6898,
      "苣": 6899,
      "若": 6900,
      "苦": 6901,
      "苯": 6902,
      "英": 6903,
      "苳": 6904,
      "苴": 6905,
      "苷": 6906,
      "苹": 6907,
      "苺": 6908,
      "苻": 6909,
      "苾": 6910,
      "茀": 6911,
      "茁": 6912,
      "茂": 6913,
      "范": 6914,
      "茄": 6915,
      "茅": 6916,
      "茆": 6917,
      "茈": 6918,
      "茉": 6919,
      "茌": 6920,
      "茍": 6921,
      "茎": 6922,
      "茑": 6923,
      "茔": 6924,
      "茕": 6925,
      "茗": 6926,
      "茜": 6927,
      "茧": 6928,
      "茨": 6929,
      "茫": 6930,
      "茬": 6931,
      "茭": 6932,
      "茯": 6933,
      "茱": 6934,
      "茲": 6935,
      "茴": 6936,
      "茵": 6937,
      "茶": 6938,
      "茷": 6939,
      "茸": 6940,
      "茹": 6941,
      "荀": 6942,
      "荃": 6943,
      "荆": 6944,
      "草": 6945,
      "荏": 6946,
      "荐": 6947,
      "荒": 6948,
      "荔": 6949,
      "荖": 6950,
      "荘": 6951,
      "荚": 6952,
      "荛": 6953,
      "荞": 6954,
      "荟": 6955,
      "荠": 6956,
      "荡": 6957,
      "荣": 6958,
      "荥": 6959,
      "荦": 6960,
      "荧": 6961,
      "荨": 6962,
      "荩": 6963,
      "荪": 6964,
      "荫": 6965,
      "药": 6966,
      "荷": 6967,
      "荻": 6968,
      "荼": 6969,
      "荽": 6970,
      "莅": 6971,
      "莆": 6972,
      "莉": 6973,
      "莊": 6974,
      "莎": 6975,
      "莒": 6976,
      "莓": 6977,
      "莘": 6978,
      "莝": 6979,
      "莞": 6980,
      "莨": 6981,
      "莩": 6982,
      "莪": 6983,
      "莫": 6984,
      "莬": 6985,
      "莱": 6986,
      "莲": 6987,
      "莳": 6988,
      "获": 6989,
      "莸": 6990,
      "莹": 6991,
      "莺": 6992,
      "莼": 6993,
      "莽": 6994,
      "菀": 6995,
      "菁": 6996,
      "菅": 6997,
      "菆": 6998,
      "菇": 6999,
      "菈": 7000,
      "菊": 7001,
      "菌": 7002,
      "菏": 7003,
      "菓": 7004,
      "菘": 7005,
      "菜": 7006,
      "菟": 7007,
      "菠": 7008,
      "菩": 7009,
      "菪": 7010,
      "華": 7011,
      "菰": 7012,
      "菱": 7013,
      "菲": 7014,
      "菴": 7015,
      "菽": 7016,
      "萁": 7017,
      "萃": 7018,
      "萄": 7019,
      "萊": 7020,
      "萋": 7021,
      "萌": 7022,
      "萍": 7023,
      "萎": 7024,
      "萜": 7025,
      "萝": 7026,
      "萤": 7027,
      "营": 7028,
      "萦": 7029,
      "萧": 7030,
      "萨": 7031,
      "萩": 7032,
      "萬": 7033,
      "萱": 7034,
      "萸": 7035,
      "萼": 7036,
      "落": 7037,
      "葆": 7038,
      "葉": 7039,
      "葖": 7040,
      "著": 7041,
      "葛": 7042,
      "葡": 7043,
      "董": 7044,
      "葦": 7045,
      "葩": 7046,
      "葫": 7047,
      "葬": 7048,
      "葭": 7049,
      "葱": 7050,
      "葳": 7051,
      "葵": 7052,
      "葶": 7053,
      "葺": 7054,
      "蒂": 7055,
      "蒋": 7056,
      "蒌": 7057,
      "蒐": 7058,
      "蒙": 7059,
      "蒜": 7060,
      "蒟": 7061,
      "蒡": 7062,
      "蒥": 7063,
      "蒨": 7064,
      "蒭": 7065,
      "蒯": 7066,
      "蒲": 7067,
      "蒴": 7068,
      "蒸": 7069,
      "蒻": 7070,
      "蒼": 7071,
      "蒽": 7072,
      "蒿": 7073,
      "蓁": 7074,
      "蓄": 7075,
      "蓇": 7076,
      "蓉": 7077,
      "蓋": 7078,
      "蓑": 7079,
      "蓓": 7080,
      "蓖": 7081,
      "蓚": 7082,
      "蓝": 7083,
      "蓟": 7084,
      "蓢": 7085,
      "蓥": 7086,
      "蓦": 7087,
      "蓬": 7088,
      "蓮": 7089,
      "蓼": 7090,
      "蔑": 7091,
      "蔓": 7092,
      "蔗": 7093,
      "蔚": 7094,
      "蔡": 7095,
      "蔣": 7096,
      "蔬": 7097,
      "蔭": 7098,
      "蔴": 7099,
      "蔵": 7100,
      "蔷": 7101,
      "蔹": 7102,
      "蔺": 7103,
      "蔻": 7104,
      "蔼": 7105,
      "蔽": 7106,
      "蕃": 7107,
      "蕈": 7108,
      "蕉": 7109,
      "蕊": 7110,
      "蕖": 7111,
      "蕙": 7112,
      "蕤": 7113,
      "蕨": 7114,
      "蕭": 7115,
      "蕰": 7116,
      "蕲": 7117,
      "蕴": 7118,
      "蕸": 7119,
      "蕾": 7120,
      "薄": 7121,
      "薅": 7122,
      "薇": 7123,
      "薈": 7124,
      "薏": 7125,
      "薙": 7126,
      "薛": 7127,
      "薜": 7128,
      "薤": 7129,
      "薨": 7130,
      "薩": 7131,
      "薪": 7132,
      "薫": 7133,
      "薬": 7134,
      "薮": 7135,
      "薯": 7136,
      "薰": 7137,
      "薲": 7138,
      "薳": 7139,
      "薸": 7140,
      "藁": 7141,
      "藉": 7142,
      "藍": 7143,
      "藏": 7144,
      "藐": 7145,
      "藓": 7146,
      "藔": 7147,
      "藕": 7148,
      "藜": 7149,
      "藝": 7150,
      "藤": 7151,
      "藥": 7152,
      "藩": 7153,
      "藻": 7154,
      "蘆": 7155,
      "蘇": 7156,
      "蘑": 7157,
      "蘖": 7158,
      "蘧": 7159,
      "蘭": 7160,
      "蘸": 7161,
      "蘿": 7162,
      "虎": 7163,
      "虏": 7164,
      "虐": 7165,
      "虑": 7166,
      "虔": 7167,
      "處": 7168,
      "虚": 7169,
      "虛": 7170,
      "虞": 7171,
      "號": 7172,
      "虢": 7173,
      "虫": 7174,
      "虬": 7175,
      "虱": 7176,
      "虵": 7177,
      "虹": 7178,
      "虺": 7179,
      "虻": 7180,
      "虽": 7181,
      "虾": 7182,
      "虿": 7183,
      "蚀": 7184,
      "蚁": 7185,
      "蚂": 7186,
      "蚊": 7187,
      "蚋": 7188,
      "蚌": 7189,
      "蚓": 7190,
      "蚕": 7191,
      "蚜": 7192,
      "蚝": 7193,
      "蚣": 7194,
      "蚤": 7195,
      "蚧": 7196,
      "蚨": 7197,
      "蚩": 7198,
      "蚪": 7199,
      "蚬": 7200,
      "蚯": 7201,
      "蚰": 7202,
      "蚱": 7203,
      "蚴": 7204,
      "蚵": 7205,
      "蚶": 7206,
      "蛀": 7207,
      "蛆": 7208,
      "蛇": 7209,
      "蛉": 7210,
      "蛊": 7211,
      "蛋": 7212,
      "蛎": 7213,
      "蛏": 7214,
      "蛙": 7215,
      "蛛": 7216,
      "蛞": 7217,
      "蛟": 7218,
      "蛤": 7219,
      "蛭": 7220,
      "蛮": 7221,
      "蛰": 7222,
      "蛳": 7223,
      "蛹": 7224,
      "蛺": 7225,
      "蛾": 7226,
      "蜀": 7227,
      "蜂": 7228,
      "蜃": 7229,
      "蜈": 7230,
      "蜊": 7231,
      "蜍": 7232,
      "蜑": 7233,
      "蜒": 7234,
      "蜓": 7235,
      "蜕": 7236,
      "蜗": 7237,
      "蜘": 7238,
      "蜚": 7239,
      "蜜": 7240,
      "蜡": 7241,
      "蜢": 7242,
      "蜥": 7243,
      "蜩": 7244,
      "蜴": 7245,
      "蜷": 7246,
      "蜻": 7247,
      "蜿": 7248,
      "蝇": 7249,
      "蝉": 7250,
      "蝌": 7251,
      "蝎": 7252,
      "蝓": 7253,
      "蝗": 7254,
      "蝙": 7255,
      "蝠": 7256,
      "蝤": 7257,
      "蝦": 7258,
      "蝨": 7259,
      "蝰": 7260,
      "蝴": 7261,
      "蝶": 7262,
      "蝸": 7263,
      "螂": 7264,
      "螃": 7265,
      "螅": 7266,
      "螉": 7267,
      "融": 7268,
      "螞": 7269,
      "螟": 7270,
      "螢": 7271,
      "螫": 7272,
      "螭": 7273,
      "螯": 7274,
      "螳": 7275,
      "螺": 7276,
      "螽": 7277,
      "蟀": 7278,
      "蟋": 7279,
      "蟑": 7280,
      "蟒": 7281,
      "蟜": 7282,
      "蟠": 7283,
      "蟧": 7284,
      "蟲": 7285,
      "蟹": 7286,
      "蟻": 7287,
      "蟾": 7288,
      "蠄": 7289,
      "蠅": 7290,
      "蠋": 7291,
      "蠍": 7292,
      "蠓": 7293,
      "蠕": 7294,
      "蠟": 7295,
      "蠡": 7296,
      "蠢": 7297,
      "蠣": 7298,
      "蠲": 7299,
      "蠹": 7300,
      "血": 7301,
      "衅": 7302,
      "衆": 7303,
      "行": 7304,
      "衍": 7305,
      "術": 7306,
      "衔": 7307,
      "街": 7308,
      "衙": 7309,
      "衛": 7310,
      "衝": 7311,
      "衡": 7312,
      "衢": 7313,
      "衣": 7314,
      "补": 7315,
      "表": 7316,
      "衪": 7317,
      "衫": 7318,
      "衬": 7319,
      "衮": 7320,
      "衰": 7321,
      "衲": 7322,
      "衷": 7323,
      "衹": 7324,
      "衽": 7325,
      "衾": 7326,
      "衿": 7327,
      "袁": 7328,
      "袂": 7329,
      "袄": 7330,
      "袅": 7331,
      "袆": 7332,
      "袈": 7333,
      "袋": 7334,
      "袍": 7335,
      "袒": 7336,
      "袖": 7337,
      "袘": 7338,
      "袛": 7339,
      "袜": 7340,
      "袡": 7341,
      "袤": 7342,
      "袪": 7343,
      "被": 7344,
      "袭": 7345,
      "袱": 7346,
      "袴": 7347,
      "袷": 7348,
      "袼": 7349,
      "裁": 7350,
      "裂": 7351,
      "装": 7352,
      "裆": 7353,
      "裈": 7354,
      "裋": 7355,
      "裏": 7356,
      "裒": 7357,
      "裔": 7358,
      "裕": 7359,
      "裘": 7360,
      "裙": 7361,
      "補": 7362,
      "裝": 7363,
      "裟": 7364,
      "裡": 7365,
      "裤": 7366,
      "裨": 7367,
      "裰": 7368,
      "裲": 7369,
      "裳": 7370,
      "裴": 7371,
      "裸": 7372,
      "裹": 7373,
      "裻": 7374,
      "裼": 7375,
      "製": 7376,
      "裾": 7377,
      "褂": 7378,
      "複": 7379,
      "褎": 7380,
      "褐": 7381,
      "褒": 7382,
      "褓": 7383,
      "褔": 7384,
      "褕": 7385,
      "褖": 7386,
      "褘": 7387,
      "褙": 7388,
      "褚": 7389,
      "褛": 7390,
      "褥": 7391,
      "褪": 7392,
      "褫": 7393,
      "褰": 7394,
      "褴": 7395,
      "褵": 7396,
      "褶": 7397,
      "襄": 7398,
      "襆": 7399,
      "襕": 7400,
      "襜": 7401,
      "襞": 7402,
      "襟": 7403,
      "襦": 7404,
      "襲": 7405,
      "襷": 7406,
      "西": 7407,
      "要": 7408,
      "覃": 7409,
      "覆": 7410,
      "見": 7411,
      "規": 7412,
      "視": 7413,
      "覡": 7414,
      "覧": 7415,
      "親": 7416,
      "観": 7417,
      "覽": 7418,
      "觀": 7419,
      "见": 7420,
      "观": 7421,
      "规": 7422,
      "觅": 7423,
      "视": 7424,
      "觇": 7425,
      "览": 7426,
      "觉": 7427,
      "觊": 7428,
      "觎": 7429,
      "觐": 7430,
      "觑": 7431,
      "角": 7432,
      "觜": 7433,
      "觞": 7434,
      "解": 7435,
      "触": 7436,
      "觯": 7437,
      "觷": 7438,
      "言": 7439,
      "訇": 7440,
      "計": 7441,
      "訊": 7442,
      "討": 7443,
      "訓": 7444,
      "託": 7445,
      "記": 7446,
      "訚": 7447,
      "訟": 7448,
      "訣": 7449,
      "訥": 7450,
      "訪": 7451,
      "設": 7452,
      "許": 7453,
      "訴": 7454,
      "訶": 7455,
      "訾": 7456,
      "詈": 7457,
      "評": 7458,
      "詞": 7459,
      "詠": 7460,
      "詣": 7461,
      "試": 7462,
      "詩": 7463,
      "詭": 7464,
      "詰": 7465,
      "話": 7466,
      "該": 7467,
      "詹": 7468,
      "誉": 7469,
      "誊": 7470,
      "誌": 7471,
      "認": 7472,
      "誓": 7473,
      "誕": 7474,
      "語": 7475,
      "誠": 7476,
      "誤": 7477,
      "誥": 7478,
      "說": 7479,
      "説": 7480,
      "読": 7481,
      "誰": 7482,
      "課": 7483,
      "誴": 7484,
      "誼": 7485,
      "調": 7486,
      "談": 7487,
      "請": 7488,
      "諒": 7489,
      "論": 7490,
      "諸": 7491,
      "諾": 7492,
      "謀": 7493,
      "謇": 7494,
      "謊": 7495,
      "謎": 7496,
      "謐": 7497,
      "謙": 7498,
      "講": 7499,
      "謝": 7500,
      "謟": 7501,
      "謠": 7502,
      "謤": 7503,
      "謨": 7504,
      "謷": 7505,
      "證": 7506,
      "識": 7507,
      "譚": 7508,
      "譜": 7509,
      "譠": 7510,
      "警": 7511,
      "譬": 7512,
      "議": 7513,
      "護": 7514,
      "譽": 7515,
      "讀": 7516,
      "變": 7517,
      "讓": 7518,
      "计": 7519,
      "订": 7520,
      "讣": 7521,
      "认": 7522,
      "讥": 7523,
      "讦": 7524,
      "讧": 7525,
      "讨": 7526,
      "让": 7527,
      "讪": 7528,
      "讫": 7529,
      "训": 7530,
      "议": 7531,
      "讯": 7532,
      "记": 7533,
      "讱": 7534,
      "讲": 7535,
      "讳": 7536,
      "讴": 7537,
      "讵": 7538,
      "讶": 7539,
      "讷": 7540,
      "许": 7541,
      "讹": 7542,
      "论": 7543,
      "讼": 7544,
      "讽": 7545,
      "设": 7546,
      "访": 7547,
      "诀": 7548,
      "证": 7549,
      "诂": 7550,
      "诃": 7551,
      "评": 7552,
      "诅": 7553,
      "识": 7554,
      "诈": 7555,
      "诉": 7556,
      "诊": 7557,
      "诋": 7558,
      "词": 7559,
      "诏": 7560,
      "诐": 7561,
      "译": 7562,
      "诒": 7563,
      "诔": 7564,
      "试": 7565,
      "诗": 7566,
      "诘": 7567,
      "诙": 7568,
      "诚": 7569,
      "诛": 7570,
      "诜": 7571,
      "话": 7572,
      "诞": 7573,
      "诟": 7574,
      "诠": 7575,
      "诡": 7576,
      "询": 7577,
      "诣": 7578,
      "诤": 7579,
      "该": 7580,
      "详": 7581,
      "诧": 7582,
      "诨": 7583,
      "诩": 7584,
      "诫": 7585,
      "诬": 7586,
      "语": 7587,
      "误": 7588,
      "诰": 7589,
      "诱": 7590,
      "诲": 7591,
      "说": 7592,
      "诵": 7593,
      "请": 7594,
      "诸": 7595,
      "诹": 7596,
      "诺": 7597,
      "读": 7598,
      "诽": 7599,
      "课": 7600,
      "诿": 7601,
      "谀": 7602,
      "谁": 7603,
      "谂": 7604,
      "调": 7605,
      "谄": 7606,
      "谅": 7607,
      "谈": 7608,
      "谊": 7609,
      "谋": 7610,
      "谌": 7611,
      "谍": 7612,
      "谎": 7613,
      "谏": 7614,
      "谐": 7615,
      "谑": 7616,
      "谒": 7617,
      "谓": 7618,
      "谔": 7619,
      "谕": 7620,
      "谗": 7621,
      "谘": 7622,
      "谙": 7623,
      "谚": 7624,
      "谛": 7625,
      "谜": 7626,
      "谟": 7627,
      "谡": 7628,
      "谢": 7629,
      "谣": 7630,
      "谤": 7631,
      "谥": 7632,
      "谦": 7633,
      "谧": 7634,
      "谨": 7635,
      "谩": 7636,
      "谪": 7637,
      "谬": 7638,
      "谭": 7639,
      "谯": 7640,
      "谱": 7641,
      "谲": 7642,
      "谳": 7643,
      "谴": 7644,
      "谵": 7645,
      "谶": 7646,
      "谷": 7647,
      "谼": 7648,
      "谿": 7649,
      "豁": 7650,
      "豆": 7651,
      "豉": 7652,
      "豊": 7653,
      "豌": 7654,
      "豐": 7655,
      "豔": 7656,
      "豕": 7657,
      "豚": 7658,
      "象": 7659,
      "豢": 7660,
      "豨": 7661,
      "豪": 7662,
      "豫": 7663,
      "豬": 7664,
      "豳": 7665,
      "豸": 7666,
      "豹": 7667,
      "豺": 7668,
      "貂": 7669,
      "貉": 7670,
      "貊": 7671,
      "貌": 7672,
      "貍": 7673,
      "貐": 7674,
      "貓": 7675,
      "貔": 7676,
      "貘": 7677,
      "貝": 7678,
      "貞": 7679,
      "負": 7680,
      "財": 7681,
      "貢": 7682,
      "貨": 7683,
      "貫": 7684,
      "責": 7685,
      "貭": 7686,
      "貴": 7687,
      "買": 7688,
      "貸": 7689,
      "費": 7690,
      "貿": 7691,
      "賀": 7692,
      "資": 7693,
      "賈": 7694,
      "賊": 7695,
      "賓": 7696,
      "賜": 7697,
      "賞": 7698,
      "賢": 7699,
      "賣": 7700,
      "賤": 7701,
      "賦": 7702,
      "賨": 7703,
      "質": 7704,
      "賴": 7705,
      "購": 7706,
      "賽": 7707,
      "贈": 7708,
      "贊": 7709,
      "贝": 7710,
      "贞": 7711,
      "负": 7712,
      "贡": 7713,
      "财": 7714,
      "责": 7715,
      "贤": 7716,
      "败": 7717,
      "账": 7718,
      "货": 7719,
      "质": 7720,
      "贩": 7721,
      "贪": 7722,
      "贫": 7723,
      "贬": 7724,
      "购": 7725,
      "贮": 7726,
      "贯": 7727,
      "贰": 7728,
      "贱": 7729,
      "贲": 7730,
      "贴": 7731,
      "贵": 7732,
      "贶": 7733,
      "贷": 7734,
      "贸": 7735,
      "费": 7736,
      "贺": 7737,
      "贻": 7738,
      "贼": 7739,
      "贽": 7740,
      "贾": 7741,
      "贿": 7742,
      "赀": 7743,
      "赁": 7744,
      "赂": 7745,
      "赃": 7746,
      "资": 7747,
      "赈": 7748,
      "赉": 7749,
      "赊": 7750,
      "赋": 7751,
      "赌": 7752,
      "赍": 7753,
      "赎": 7754,
      "赏": 7755,
      "赐": 7756,
      "赓": 7757,
      "赔": 7758,
      "赕": 7759,
      "赖": 7760,
      "赗": 7761,
      "赘": 7762,
      "赙": 7763,
      "赚": 7764,
      "赛": 7765,
      "赝": 7766,
      "赞": 7767,
      "赟": 7768,
      "赠": 7769,
      "赡": 7770,
      "赢": 7771,
      "赣": 7772,
      "赤": 7773,
      "赦": 7774,
      "赧": 7775,
      "赫": 7776,
      "赭": 7777,
      "走": 7778,
      "赳": 7779,
      "赴": 7780,
      "赵": 7781,
      "赶": 7782,
      "起": 7783,
      "趁": 7784,
      "超": 7785,
      "越": 7786,
      "趋": 7787,
      "趙": 7788,
      "趟": 7789,
      "趣": 7790,
      "趯": 7791,
      "足": 7792,
      "趴": 7793,
      "趸": 7794,
      "趺": 7795,
      "趾": 7796,
      "跃": 7797,
      "跄": 7798,
      "跆": 7799,
      "跋": 7800,
      "跌": 7801,
      "跎": 7802,
      "跏": 7803,
      "跑": 7804,
      "跖": 7805,
      "跗": 7806,
      "跚": 7807,
      "跛": 7808,
      "距": 7809,
      "跟": 7810,
      "跡": 7811,
      "跣": 7812,
      "跤": 7813,
      "跨": 7814,
      "跪": 7815,
      "路": 7816,
      "跳": 7817,
      "践": 7818,
      "跷": 7819,
      "跹": 7820,
      "跺": 7821,
      "跻": 7822,
      "踈": 7823,
      "踊": 7824,
      "踌": 7825,
      "踏": 7826,
      "踘": 7827,
      "踝": 7828,
      "踞": 7829,
      "踢": 7830,
      "踣": 7831,
      "踩": 7832,
      "踪": 7833,
      "踯": 7834,
      "踱": 7835,
      "踵": 7836,
      "踹": 7837,
      "蹀": 7838,
      "蹂": 7839,
      "蹄": 7840,
      "蹅": 7841,
      "蹇": 7842,
      "蹈": 7843,
      "蹊": 7844,
      "蹋": 7845,
      "蹑": 7846,
      "蹒": 7847,
      "蹙": 7848,
      "蹦": 7849,
      "蹩": 7850,
      "蹬": 7851,
      "蹲": 7852,
      "蹴": 7853,
      "蹶": 7854,
      "蹼": 7855,
      "蹿": 7856,
      "躁": 7857,
      "躄": 7858,
      "躅": 7859,
      "躇": 7860,
      "躍": 7861,
      "躏": 7862,
      "躞": 7863,
      "身": 7864,
      "躬": 7865,
      "躯": 7866,
      "躱": 7867,
      "躲": 7868,
      "躺": 7869,
      "軆": 7870,
      "車": 7871,
      "軌": 7872,
      "軍": 7873,
      "軒": 7874,
      "軟": 7875,
      "転": 7876,
      "軫": 7877,
      "軸": 7878,
      "載": 7879,
      "輔": 7880,
      "輕": 7881,
      "輛": 7882,
      "輝": 7883,
      "輪": 7884,
      "輯": 7885,
      "輸": 7886,
      "輻": 7887,
      "轆": 7888,
      "轉": 7889,
      "轎": 7890,
      "轘": 7891,
      "轟": 7892,
      "车": 7893,
      "轧": 7894,
      "轨": 7895,
      "轩": 7896,
      "轫": 7897,
      "转": 7898,
      "轭": 7899,
      "轮": 7900,
      "软": 7901,
      "轰": 7902,
      "轲": 7903,
      "轴": 7904,
      "轶": 7905,
      "轸": 7906,
      "轻": 7907,
      "轼": 7908,
      "载": 7909,
      "轿": 7910,
      "辂": 7911,
      "较": 7912,
      "辄": 7913,
      "辅": 7914,
      "辆": 7915,
      "辇": 7916,
      "辈": 7917,
      "辉": 7918,
      "辋": 7919,
      "辍": 7920,
      "辎": 7921,
      "辐": 7922,
      "辑": 7923,
      "输": 7924,
      "辕": 7925,
      "辖": 7926,
      "辗": 7927,
      "辘": 7928,
      "辙": 7929,
      "辛": 7930,
      "辜": 7931,
      "辞": 7932,
      "辟": 7933,
      "辣": 7934,
      "辦": 7935,
      "辧": 7936,
      "辨": 7937,
      "辩": 7938,
      "辫": 7939,
      "辯": 7940,
      "辰": 7941,
      "辱": 7942,
      "農": 7943,
      "边": 7944,
      "辺": 7945,
      "辻": 7946,
      "込": 7947,
      "辽": 7948,
      "达": 7949,
      "迁": 7950,
      "迂": 7951,
      "迄": 7952,
      "迅": 7953,
      "过": 7954,
      "迈": 7955,
      "迎": 7956,
      "运": 7957,
      "近": 7958,
      "返": 7959,
      "还": 7960,
      "这": 7961,
      "进": 7962,
      "远": 7963,
      "违": 7964,
      "连": 7965,
      "迟": 7966,
      "迢": 7967,
      "迤": 7968,
      "迥": 7969,
      "迦": 7970,
      "迨": 7971,
      "迩": 7972,
      "迪": 7973,
      "迫": 7974,
      "迭": 7975,
      "述": 7976,
      "迳": 7977,
      "迴": 7978,
      "迷": 7979,
      "迸": 7980,
      "迹": 7981,
      "迺": 7982,
      "追": 7983,
      "退": 7984,
      "送": 7985,
      "适": 7986,
      "逃": 7987,
      "逄": 7988,
      "逅": 7989,
      "逆": 7990,
      "选": 7991,
      "逊": 7992,
      "逋": 7993,
      "逍": 7994,
      "透": 7995,
      "逐": 7996,
      "逑": 7997,
      "递": 7998,
      "途": 7999,
      "逖": 8000,
      "逗": 8001,
      "這": 8002,
      "通": 8003,
      "逛": 8004,
      "逝": 8005,
      "逞": 8006,
      "速": 8007,
      "造": 8008,
      "逢": 8009,
      "連": 8010,
      "逮": 8011,
      "週": 8012,
      "進": 8013,
      "逵": 8014,
      "逶": 8015,
      "逸": 8016,
      "逹": 8017,
      "逺": 8018,
      "逻": 8019,
      "逼": 8020,
      "逾": 8021,
      "遁": 8022,
      "遂": 8023,
      "遄": 8024,
      "遇": 8025,
      "遊": 8026,
      "運": 8027,
      "遍": 8028,
      "過": 8029,
      "遏": 8030,
      "遐": 8031,
      "遑": 8032,
      "遒": 8033,
      "道": 8034,
      "達": 8035,
      "違": 8036,
      "遗": 8037,
      "遘": 8038,
      "遙": 8039,
      "遜": 8040,
      "遝": 8041,
      "遞": 8042,
      "遠": 8043,
      "遢": 8044,
      "遣": 8045,
      "遥": 8046,
      "遨": 8047,
      "適": 8048,
      "遭": 8049,
      "遮": 8050,
      "遴": 8051,
      "遵": 8052,
      "遶": 8053,
      "選": 8054,
      "遹": 8055,
      "遺": 8056,
      "遼": 8057,
      "遽": 8058,
      "避": 8059,
      "邀": 8060,
      "邁": 8061,
      "邂": 8062,
      "邃": 8063,
      "還": 8064,
      "邇": 8065,
      "邈": 8066,
      "邊": 8067,
      "邋": 8068,
      "邑": 8069,
      "邓": 8070,
      "邕": 8071,
      "邗": 8072,
      "邙": 8073,
      "邛": 8074,
      "邝": 8075,
      "邠": 8076,
      "邢": 8077,
      "那": 8078,
      "邦": 8079,
      "邨": 8080,
      "邪": 8081,
      "邬": 8082,
      "邮": 8083,
      "邯": 8084,
      "邱": 8085,
      "邲": 8086,
      "邳": 8087,
      "邴": 8088,
      "邵": 8089,
      "邸": 8090,
      "邹": 8091,
      "邺": 8092,
      "邻": 8093,
      "邽": 8094,
      "邾": 8095,
      "郁": 8096,
      "郃": 8097,
      "郅": 8098,
      "郇": 8099,
      "郊": 8100,
      "郎": 8101,
      "郏": 8102,
      "郐": 8103,
      "郑": 8104,
      "郓": 8105,
      "郗": 8106,
      "郛": 8107,
      "郜": 8108,
      "郝": 8109,
      "郞": 8110,
      "郡": 8111,
      "郢": 8112,
      "郤": 8113,
      "郦": 8114,
      "郧": 8115,
      "部": 8116,
      "郫": 8117,
      "郭": 8118,
      "郯": 8119,
      "郴": 8120,
      "郵": 8121,
      "郷": 8122,
      "郸": 8123,
      "都": 8124,
      "郾": 8125,
      "郿": 8126,
      "鄀": 8127,
      "鄂": 8128,
      "鄄": 8129,
      "鄈": 8130,
      "鄉": 8131,
      "鄒": 8132,
      "鄗": 8133,
      "鄙": 8134,
      "鄚": 8135,
      "鄜": 8136,
      "鄞": 8137,
      "鄡": 8138,
      "鄢": 8139,
      "鄣": 8140,
      "鄧": 8141,
      "鄭": 8142,
      "鄮": 8143,
      "鄯": 8144,
      "鄰": 8145,
      "鄱": 8146,
      "鄲": 8147,
      "鄺": 8148,
      "酉": 8149,
      "酋": 8150,
      "酌": 8151,
      "配": 8152,
      "酎": 8153,
      "酐": 8154,
      "酒": 8155,
      "酗": 8156,
      "酚": 8157,
      "酝": 8158,
      "酢": 8159,
      "酣": 8160,
      "酥": 8161,
      "酪": 8162,
      "酬": 8163,
      "酮": 8164,
      "酯": 8165,
      "酰": 8166,
      "酱": 8167,
      "酵": 8168,
      "酶": 8169,
      "酷": 8170,
      "酸": 8171,
      "酾": 8172,
      "酿": 8173,
      "醂": 8174,
      "醇": 8175,
      "醉": 8176,
      "醋": 8177,
      "醌": 8178,
      "醍": 8179,
      "醐": 8180,
      "醒": 8181,
      "醚": 8182,
      "醛": 8183,
      "醢": 8184,
      "醨": 8185,
      "醪": 8186,
      "醫": 8187,
      "醬": 8188,
      "醮": 8189,
      "醴": 8190,
      "醵": 8191,
      "采": 8192,
      "釉": 8193,
      "释": 8194,
      "釋": 8195,
      "里": 8196,
      "重": 8197,
      "野": 8198,
      "量": 8199,
      "釐": 8200,
      "金": 8201,
      "釗": 8202,
      "釘": 8203,
      "釙": 8204,
      "釜": 8205,
      "釦": 8206,
      "釧": 8207,
      "釴": 8208,
      "鈎": 8209,
      "鈕": 8210,
      "鈞": 8211,
      "鈣": 8212,
      "鈴": 8213,
      "鈺": 8214,
      "鉀": 8215,
      "鉁": 8216,
      "鉄": 8217,
      "鉅": 8218,
      "鉗": 8219,
      "鉛": 8220,
      "鉱": 8221,
      "鉴": 8222,
      "鉾": 8223,
      "銀": 8224,
      "銅": 8225,
      "銓": 8226,
      "銘": 8227,
      "銙": 8228,
      "銮": 8229,
      "銳": 8230,
      "銹": 8231,
      "鋆": 8232,
      "鋋": 8233,
      "鋌": 8234,
      "鋒": 8235,
      "鋭": 8236,
      "鋸": 8237,
      "鋹": 8238,
      "鋺": 8239,
      "鋼": 8240,
      "錄": 8241,
      "錐": 8242,
      "錡": 8243,
      "錢": 8244,
      "錦": 8245,
      "錫": 8246,
      "錬": 8247,
      "録": 8248,
      "錾": 8249,
      "鍈": 8250,
      "鍊": 8251,
      "鍑": 8252,
      "鍛": 8253,
      "鍠": 8254,
      "鍪": 8255,
      "鍱": 8256,
      "鍵": 8257,
      "鍾": 8258,
      "鎁": 8259,
      "鎅": 8260,
      "鎏": 8261,
      "鎖": 8262,
      "鎜": 8263,
      "鎡": 8264,
      "鎮": 8265,
      "鏇": 8266,
      "鏈": 8267,
      "鏊": 8268,
      "鏓": 8269,
      "鏖": 8270,
      "鏘": 8271,
      "鏞": 8272,
      "鏡": 8273,
      "鏢": 8274,
      "鐄": 8275,
      "鐘": 8276,
      "鐡": 8277,
      "鐤": 8278,
      "鐵": 8279,
      "鐸": 8280,
      "鐻": 8281,
      "鑄": 8282,
      "鑊": 8283,
      "鑑": 8284,
      "鑒": 8285,
      "鑨": 8286,
      "鑫": 8287,
      "鑰": 8288,
      "鑼": 8289,
      "钇": 8290,
      "针": 8291,
      "钉": 8292,
      "钊": 8293,
      "钋": 8294,
      "钌": 8295,
      "钍": 8296,
      "钏": 8297,
      "钐": 8298,
      "钒": 8299,
      "钓": 8300,
      "钔": 8301,
      "钕": 8302,
      "钗": 8303,
      "钙": 8304,
      "钚": 8305,
      "钛": 8306,
      "钜": 8307,
      "钝": 8308,
      "钞": 8309,
      "钟": 8310,
      "钠": 8311,
      "钡": 8312,
      "钢": 8313,
      "钤": 8314,
      "钥": 8315,
      "钦": 8316,
      "钧": 8317,
      "钨": 8318,
      "钩": 8319,
      "钪": 8320,
      "钮": 8321,
      "钯": 8322,
      "钰": 8323,
      "钱": 8324,
      "钲": 8325,
      "钳": 8326,
      "钵": 8327,
      "钶": 8328,
      "钹": 8329,
      "钺": 8330,
      "钻": 8331,
      "钼": 8332,
      "钽": 8333,
      "钾": 8334,
      "钿": 8335,
      "铀": 8336,
      "铁": 8337,
      "铂": 8338,
      "铃": 8339,
      "铄": 8340,
      "铅": 8341,
      "铆": 8342,
      "铈": 8343,
      "铉": 8344,
      "铊": 8345,
      "铋": 8346,
      "铌": 8347,
      "铍": 8348,
      "铎": 8349,
      "铐": 8350,
      "铙": 8351,
      "铛": 8352,
      "铜": 8353,
      "铝": 8354,
      "铟": 8355,
      "铠": 8356,
      "铡": 8357,
      "铢": 8358,
      "铣": 8359,
      "铤": 8360,
      "铦": 8361,
      "铧": 8362,
      "铨": 8363,
      "铩": 8364,
      "铪": 8365,
      "铬": 8366,
      "铭": 8367,
      "铮": 8368,
      "铰": 8369,
      "铲": 8370,
      "铳": 8371,
      "铵": 8372,
      "银": 8373,
      "铸": 8374,
      "铹": 8375,
      "铺": 8376,
      "铼": 8377,
      "链": 8378,
      "铿": 8379,
      "销": 8380,
      "锁": 8381,
      "锂": 8382,
      "锄": 8383,
      "锅": 8384,
      "锆": 8385,
      "锈": 8386,
      "锉": 8387,
      "锋": 8388,
      "锌": 8389,
      "锎": 8390,
      "锏": 8391,
      "锐": 8392,
      "锑": 8393,
      "锔": 8394,
      "锕": 8395,
      "锗": 8396,
      "错": 8397,
      "锚": 8398,
      "锛": 8399,
      "锜": 8400,
      "锝": 8401,
      "锞": 8402,
      "锟": 8403,
      "锡": 8404,
      "锢": 8405,
      "锣": 8406,
      "锤": 8407,
      "锥": 8408,
      "锦": 8409,
      "锨": 8410,
      "锫": 8411,
      "锬": 8412,
      "锭": 8413,
      "键": 8414,
      "锯": 8415,
      "锰": 8416,
      "锱": 8417,
      "锲": 8418,
      "锳": 8419,
      "锴": 8420,
      "锵": 8421,
      "锷": 8422,
      "锹": 8423,
      "锺": 8424,
      "锻": 8425,
      "锽": 8426,
      "锾": 8427,
      "镀": 8428,
      "镁": 8429,
      "镂": 8430,
      "镃": 8431,
      "镆": 8432,
      "镇": 8433,
      "镈": 8434,
      "镌": 8435,
      "镍": 8436,
      "镏": 8437,
      "镐": 8438,
      "镑": 8439,
      "镒": 8440,
      "镓": 8441,
      "镔": 8442,
      "镕": 8443,
      "镖": 8444,
      "镗": 8445,
      "镛": 8446,
      "镜": 8447,
      "镝": 8448,
      "镞": 8449,
      "镟": 8450,
      "镠": 8451,
      "镣": 8452,
      "镧": 8453,
      "镫": 8454,
      "镬": 8455,
      "镭": 8456,
      "镯": 8457,
      "镰": 8458,
      "镱": 8459,
      "镳": 8460,
      "镶": 8461,
      "長": 8462,
      "长": 8463,
      "門": 8464,
      "閃": 8465,
      "閇": 8466,
      "閉": 8467,
      "開": 8468,
      "閏": 8469,
      "間": 8470,
      "閟": 8471,
      "関": 8472,
      "閣": 8473,
      "閦": 8474,
      "閩": 8475,
      "閬": 8476,
      "閰": 8477,
      "閻": 8478,
      "閼": 8479,
      "闊": 8480,
      "闍": 8481,
      "闕": 8482,
      "闘": 8483,
      "關": 8484,
      "闞": 8485,
      "门": 8486,
      "闩": 8487,
      "闪": 8488,
      "闫": 8489,
      "闭": 8490,
      "问": 8491,
      "闯": 8492,
      "闰": 8493,
      "闱": 8494,
      "闲": 8495,
      "闳": 8496,
      "间": 8497,
      "闵": 8498,
      "闷": 8499,
      "闸": 8500,
      "闹": 8501,
      "闺": 8502,
      "闻": 8503,
      "闼": 8504,
      "闽": 8505,
      "闾": 8506,
      "闿": 8507,
      "阀": 8508,
      "阁": 8509,
      "阂": 8510,
      "阃": 8511,
      "阅": 8512,
      "阆": 8513,
      "阇": 8514,
      "阈": 8515,
      "阉": 8516,
      "阊": 8517,
      "阋": 8518,
      "阍": 8519,
      "阎": 8520,
      "阏": 8521,
      "阐": 8522,
      "阑": 8523,
      "阔": 8524,
      "阖": 8525,
      "阗": 8526,
      "阙": 8527,
      "阚": 8528,
      "阜": 8529,
      "阝": 8530,
      "队": 8531,
      "阡": 8532,
      "阪": 8533,
      "阮": 8534,
      "阯": 8535,
      "阰": 8536,
      "阱": 8537,
      "防": 8538,
      "阳": 8539,
      "阴": 8540,
      "阵": 8541,
      "阶": 8542,
      "阻": 8543,
      "阿": 8544,
      "陀": 8545,
      "陂": 8546,
      "附": 8547,
      "际": 8548,
      "陆": 8549,
      "陇": 8550,
      "陈": 8551,
      "陉": 8552,
      "陋": 8553,
      "陌": 8554,
      "降": 8555,
      "限": 8556,
      "陔": 8557,
      "陕": 8558,
      "陛": 8559,
      "陞": 8560,
      "陟": 8561,
      "陡": 8562,
      "院": 8563,
      "陣": 8564,
      "除": 8565,
      "陨": 8566,
      "险": 8567,
      "陪": 8568,
      "陰": 8569,
      "陲": 8570,
      "陳": 8571,
      "陵": 8572,
      "陶": 8573,
      "陷": 8574,
      "陸": 8575,
      "険": 8576,
      "陽": 8577,
      "隅": 8578,
      "隆": 8579,
      "隈": 8580,
      "隊": 8581,
      "隋": 8582,
      "隍": 8583,
      "階": 8584,
      "随": 8585,
      "隐": 8586,
      "隔": 8587,
      "隕": 8588,
      "隗": 8589,
      "隘": 8590,
      "隙": 8591,
      "際": 8592,
      "障": 8593,
      "隟": 8594,
      "隧": 8595,
      "隨": 8596,
      "險": 8597,
      "隰": 8598,
      "隱": 8599,
      "隶": 8600,
      "隸": 8601,
      "隻": 8602,
      "隼": 8603,
      "隽": 8604,
      "难": 8605,
      "雀": 8606,
      "雁": 8607,
      "雄": 8608,
      "雅": 8609,
      "集": 8610,
      "雇": 8611,
      "雉": 8612,
      "雌": 8613,
      "雍": 8614,
      "雎": 8615,
      "雏": 8616,
      "雒": 8617,
      "雕": 8618,
      "雙": 8619,
      "雛": 8620,
      "雜": 8621,
      "雞": 8622,
      "雠": 8623,
      "離": 8624,
      "難": 8625,
      "雨": 8626,
      "雩": 8627,
      "雪": 8628,
      "雫": 8629,
      "雯": 8630,
      "雲": 8631,
      "雳": 8632,
      "零": 8633,
      "雷": 8634,
      "雹": 8635,
      "電": 8636,
      "雾": 8637,
      "需": 8638,
      "霁": 8639,
      "霄": 8640,
      "霆": 8641,
      "震": 8642,
      "霈": 8643,
      "霉": 8644,
      "霊": 8645,
      "霍": 8646,
      "霎": 8647,
      "霏": 8648,
      "霑": 8649,
      "霓": 8650,
      "霖": 8651,
      "霜": 8652,
      "霞": 8653,
      "霭": 8654,
      "霰": 8655,
      "露": 8656,
      "霸": 8657,
      "霹": 8658,
      "霾": 8659,
      "靈": 8660,
      "靑": 8661,
      "青": 8662,
      "靓": 8663,
      "靖": 8664,
      "静": 8665,
      "靜": 8666,
      "非": 8667,
      "靠": 8668,
      "靡": 8669,
      "面": 8670,
      "革": 8671,
      "靮": 8672,
      "靰": 8673,
      "靳": 8674,
      "靴": 8675,
      "靶": 8676,
      "靺": 8677,
      "靼": 8678,
      "靿": 8679,
      "鞅": 8680,
      "鞋": 8681,
      "鞍": 8682,
      "鞑": 8683,
      "鞘": 8684,
      "鞠": 8685,
      "鞡": 8686,
      "鞨": 8687,
      "鞭": 8688,
      "鞮": 8689,
      "鞯": 8690,
      "鞲": 8691,
      "鞴": 8692,
      "鞸": 8693,
      "韋": 8694,
      "韓": 8695,
      "韜": 8696,
      "韡": 8697,
      "韦": 8698,
      "韧": 8699,
      "韩": 8700,
      "韪": 8701,
      "韫": 8702,
      "韬": 8703,
      "韭": 8704,
      "音": 8705,
      "韴": 8706,
      "韵": 8707,
      "韶": 8708,
      "韺": 8709,
      "響": 8710,
      "頁": 8711,
      "頂": 8712,
      "項": 8713,
      "順": 8714,
      "須": 8715,
      "頌": 8716,
      "預": 8717,
      "頑": 8718,
      "頒": 8719,
      "頓": 8720,
      "領": 8721,
      "頠": 8722,
      "頦": 8723,
      "頫": 8724,
      "頭": 8725,
      "頰": 8726,
      "頲": 8727,
      "頻": 8728,
      "頽": 8729,
      "題": 8730,
      "額": 8731,
      "顏": 8732,
      "顒": 8733,
      "顕": 8734,
      "願": 8735,
      "顚": 8736,
      "類": 8737,
      "顧": 8738,
      "顯": 8739,
      "页": 8740,
      "顶": 8741,
      "顷": 8742,
      "顸": 8743,
      "项": 8744,
      "顺": 8745,
      "须": 8746,
      "顽": 8747,
      "顾": 8748,
      "顿": 8749,
      "颁": 8750,
      "颂": 8751,
      "预": 8752,
      "颅": 8753,
      "领": 8754,
      "颇": 8755,
      "颈": 8756,
      "颉": 8757,
      "颊": 8758,
      "颋": 8759,
      "颌": 8760,
      "颍": 8761,
      "颎": 8762,
      "颏": 8763,
      "颐": 8764,
      "频": 8765,
      "颓": 8766,
      "颔": 8767,
      "颖": 8768,
      "颗": 8769,
      "题": 8770,
      "颙": 8771,
      "颚": 8772,
      "颜": 8773,
      "额": 8774,
      "颞": 8775,
      "颟": 8776,
      "颠": 8777,
      "颢": 8778,
      "颤": 8779,
      "颧": 8780,
      "風": 8781,
      "颱": 8782,
      "飄": 8783,
      "风": 8784,
      "飑": 8785,
      "飒": 8786,
      "飓": 8787,
      "飘": 8788,
      "飙": 8789,
      "飚": 8790,
      "飛": 8791,
      "飞": 8792,
      "食": 8793,
      "飢": 8794,
      "飨": 8795,
      "飩": 8796,
      "飬": 8797,
      "飭": 8798,
      "飯": 8799,
      "飲": 8800,
      "飾": 8801,
      "餅": 8802,
      "養": 8803,
      "餐": 8804,
      "餛": 8805,
      "館": 8806,
      "餾": 8807,
      "饎": 8808,
      "饒": 8809,
      "饥": 8810,
      "饨": 8811,
      "饪": 8812,
      "饫": 8813,
      "饬": 8814,
      "饭": 8815,
      "饮": 8816,
      "饯": 8817,
      "饰": 8818,
      "饱": 8819,
      "饲": 8820,
      "饴": 8821,
      "饵": 8822,
      "饶": 8823,
      "饷": 8824,
      "饺": 8825,
      "饼": 8826,
      "饿": 8827,
      "馀": 8828,
      "馁": 8829,
      "馄": 8830,
      "馅": 8831,
      "馆": 8832,
      "馈": 8833,
      "馊": 8834,
      "馏": 8835,
      "馑": 8836,
      "馒": 8837,
      "馔": 8838,
      "馕": 8839,
      "首": 8840,
      "馗": 8841,
      "馘": 8842,
      "香": 8843,
      "馥": 8844,
      "馨": 8845,
      "馬": 8846,
      "馮": 8847,
      "馳": 8848,
      "馴": 8849,
      "駄": 8850,
      "駅": 8851,
      "駐": 8852,
      "駒": 8853,
      "駝": 8854,
      "駭": 8855,
      "駱": 8856,
      "騎": 8857,
      "騏": 8858,
      "騒": 8859,
      "験": 8860,
      "騧": 8861,
      "騨": 8862,
      "騰": 8863,
      "騷": 8864,
      "騾": 8865,
      "驅": 8866,
      "驎": 8867,
      "驒": 8868,
      "驗": 8869,
      "驠": 8870,
      "驢": 8871,
      "驩": 8872,
      "驪": 8873,
      "马": 8874,
      "驭": 8875,
      "驮": 8876,
      "驯": 8877,
      "驰": 8878,
      "驱": 8879,
      "驳": 8880,
      "驴": 8881,
      "驶": 8882,
      "驷": 8883,
      "驸": 8884,
      "驹": 8885,
      "驺": 8886,
      "驻": 8887,
      "驼": 8888,
      "驾": 8889,
      "驿": 8890,
      "骀": 8891,
      "骁": 8892,
      "骂": 8893,
      "骃": 8894,
      "骄": 8895,
      "骅": 8896,
      "骆": 8897,
      "骇": 8898,
      "骈": 8899,
      "骊": 8900,
      "骋": 8901,
      "验": 8902,
      "骍": 8903,
      "骏": 8904,
      "骐": 8905,
      "骑": 8906,
      "骓": 8907,
      "骕": 8908,
      "骖": 8909,
      "骗": 8910,
      "骘": 8911,
      "骙": 8912,
      "骚": 8913,
      "骜": 8914,
      "骝": 8915,
      "骞": 8916,
      "骠": 8917,
      "骢": 8918,
      "骤": 8919,
      "骥": 8920,
      "骧": 8921,
      "骨": 8922,
      "骫": 8923,
      "骰": 8924,
      "骷": 8925,
      "骸": 8926,
      "骺": 8927,
      "骼": 8928,
      "髂": 8929,
      "髅": 8930,
      "髆": 8931,
      "髋": 8932,
      "髑": 8933,
      "髓": 8934,
      "體": 8935,
      "高": 8936,
      "髙": 8937,
      "髡": 8938,
      "髦": 8939,
      "髪": 8940,
      "髯": 8941,
      "髹": 8942,
      "髻": 8943,
      "鬃": 8944,
      "鬏": 8945,
      "鬓": 8946,
      "鬚": 8947,
      "鬟": 8948,
      "鬣": 8949,
      "鬥": 8950,
      "鬬": 8951,
      "鬭": 8952,
      "鬯": 8953,
      "鬲": 8954,
      "鬻": 8955,
      "鬼": 8956,
      "魁": 8957,
      "魂": 8958,
      "魄": 8959,
      "魅": 8960,
      "魇": 8961,
      "魉": 8962,
      "魍": 8963,
      "魏": 8964,
      "魑": 8965,
      "魔": 8966,
      "魚": 8967,
      "魠": 8968,
      "魦": 8969,
      "魨": 8970,
      "魮": 8971,
      "魯": 8972,
      "魴": 8973,
      "魾": 8974,
      "鮁": 8975,
      "鮄": 8976,
      "鮋": 8977,
      "鮑": 8978,
      "鮟": 8979,
      "鮠": 8980,
      "鮡": 8981,
      "鮨": 8982,
      "鮭": 8983,
      "鮮": 8984,
      "鮰": 8985,
      "鮻": 8986,
      "鯃": 8987,
      "鯉": 8988,
      "鯊": 8989,
      "鯒": 8990,
      "鯓": 8991,
      "鯔": 8992,
      "鯛": 8993,
      "鯤": 8994,
      "鯥": 8995,
      "鯧": 8996,
      "鯨": 8997,
      "鯮": 8998,
      "鯰": 8999,
      "鯻": 9000,
      "鯽": 9001,
      "鰈": 9002,
      "鰋": 9003,
      "鰏": 9004,
      "鰓": 9005,
      "鰤": 9006,
      "鰭": 9007,
      "鰺": 9008,
      "鰻": 9009,
      "鰾": 9010,
      "鱂": 9011,
      "鱇": 9012,
      "鱈": 9013,
      "鱉": 9014,
      "鱒": 9015,
      "鱗": 9016,
      "鱝": 9017,
      "鱠": 9018,
      "鱥": 9019,
      "鱨": 9020,
      "鱯": 9021,
      "鱲": 9022,
      "鱵": 9023,
      "鱷": 9024,
      "鱸": 9025,
      "鱼": 9026,
      "鱿": 9027,
      "鲀": 9028,
      "鲁": 9029,
      "鲂": 9030,
      "鲆": 9031,
      "鲈": 9032,
      "鲉": 9033,
      "鲊": 9034,
      "鲍": 9035,
      "鲐": 9036,
      "鲑": 9037,
      "鲔": 9038,
      "鲗": 9039,
      "鲚": 9040,
      "鲛": 9041,
      "鲜": 9042,
      "鲞": 9043,
      "鲟": 9044,
      "鲠": 9045,
      "鲢": 9046,
      "鲤": 9047,
      "鲦": 9048,
      "鲨": 9049,
      "鲫": 9050,
      "鲬": 9051,
      "鲭": 9052,
      "鲱": 9053,
      "鲲": 9054,
      "鲳": 9055,
      "鲵": 9056,
      "鲶": 9057,
      "鲷": 9058,
      "鲸": 9059,
      "鲹": 9060,
      "鲻": 9061,
      "鲽": 9062,
      "鲿": 9063,
      "鳀": 9064,
      "鳃": 9065,
      "鳄": 9066,
      "鳅": 9067,
      "鳉": 9068,
      "鳌": 9069,
      "鳍": 9070,
      "鳏": 9071,
      "鳐": 9072,
      "鳔": 9073,
      "鳕": 9074,
      "鳖": 9075,
      "鳗": 9076,
      "鳙": 9077,
      "鳚": 9078,
      "鳝": 9079,
      "鳞": 9080,
      "鳟": 9081,
      "鳠": 9082,
      "鳣": 9083,
      "鳥": 9084,
      "鳳": 9085,
      "鳴": 9086,
      "鴉": 9087,
      "鴐": 9088,
      "鴨": 9089,
      "鴻": 9090,
      "鴿": 9091,
      "鵀": 9092,
      "鵄": 9093,
      "鵑": 9094,
      "鵝": 9095,
      "鵬": 9096,
      "鵰": 9097,
      "鵺": 9098,
      "鶴": 9099,
      "鷚": 9100,
      "鷹": 9101,
      "鷺": 9102,
      "鸚": 9103,
      "鸞": 9104,
      "鸟": 9105,
      "鸠": 9106,
      "鸡": 9107,
      "鸢": 9108,
      "鸣": 9109,
      "鸥": 9110,
      "鸦": 9111,
      "鸨": 9112,
      "鸩": 9113,
      "鸫": 9114,
      "鸬": 9115,
      "鸭": 9116,
      "鸮": 9117,
      "鸯": 9118,
      "鸰": 9119,
      "鸱": 9120,
      "鸳": 9121,
      "鸵": 9122,
      "鸶": 9123,
      "鸻": 9124,
      "鸽": 9125,
      "鸾": 9126,
      "鸿": 9127,
      "鹀": 9128,
      "鹁": 9129,
      "鹃": 9130,
      "鹄": 9131,
      "鹅": 9132,
      "鹈": 9133,
      "鹉": 9134,
      "鹊": 9135,
      "鹌": 9136,
      "鹎": 9137,
      "鹏": 9138,
      "鹑": 9139,
      "鹓": 9140,
      "鹕": 9141,
      "鹗": 9142,
      "鹘": 9143,
      "鹚": 9144,
      "鹛": 9145,
      "鹜": 9146,
      "鹞": 9147,
      "鹡": 9148,
      "鹣": 9149,
      "鹤": 9150,
      "鹦": 9151,
      "鹨": 9152,
      "鹫": 9153,
      "鹬": 9154,
      "鹭": 9155,
      "鹰": 9156,
      "鹳": 9157,
      "鹼": 9158,
      "鹽": 9159,
      "鹾": 9160,
      "鹿": 9161,
      "麁": 9162,
      "麂": 9163,
      "麈": 9164,
      "麋": 9165,
      "麐": 9166,
      "麒": 9167,
      "麓": 9168,
      "麖": 9169,
      "麗": 9170,
      "麝": 9171,
      "麟": 9172,
      "麥": 9173,
      "麦": 9174,
      "麵": 9175,
      "麸": 9176,
      "麹": 9177,
      "麺": 9178,
      "麻": 9179,
      "麾": 9180,
      "麿": 9181,
      "黃": 9182,
      "黄": 9183,
      "黉": 9184,
      "黍": 9185,
      "黎": 9186,
      "黏": 9187,
      "黑": 9188,
      "黒": 9189,
      "黔": 9190,
      "默": 9191,
      "黛": 9192,
      "黜": 9193,
      "黝": 9194,
      "點": 9195,
      "黟": 9196,
      "黨": 9197,
      "黩": 9198,
      "黯": 9199,
      "黻": 9200,
      "黼": 9201,
      "鼂": 9202,
      "鼋": 9203,
      "鼍": 9204,
      "鼎": 9205,
      "鼐": 9206,
      "鼒": 9207,
      "鼓": 9208,
      "鼙": 9209,
      "鼠": 9210,
      "鼬": 9211,
      "鼹": 9212,
      "鼻": 9213,
      "鼾": 9214,
      "齊": 9215,
      "齋": 9216,
      "齐": 9217,
      "齒": 9218,
      "齡": 9219,
      "齢": 9220,
      "齿": 9221,
      "龁": 9222,
      "龄": 9223,
      "龍": 9224,
      "龐": 9225,
      "龔": 9226,
      "龙": 9227,
      "龚": 9228,
      "龛": 9229,
      "龜": 9230,
      "龟": 9231,
      "龢": 9232,
      "鿔": 9233,
      "鿫": 9234,
      "鿬": 9235,
      "가": 9236,
      "감": 9237,
      "갑": 9238,
      "강": 9239,
      "같": 9240,
      "거": 9241,
      "건": 9242,
      "검": 9243,
      "게": 9244,
      "경": 9245,
      "곁": 9246,
      "계": 9247,
      "고": 9248,
      "곡": 9249,
      "공": 9250,
      "과": 9251,
      "관": 9252,
      "광": 9253,
      "굉": 9254,
      "교": 9255,
      "구": 9256,
      "국": 9257,
      "군": 9258,
      "귓": 9259,
      "규": 9260,
      "균": 9261,
      "그": 9262,
      "근": 9263,
      "글": 9264,
      "금": 9265,
      "급": 9266,
      "기": 9267,
      "김": 9268,
      "꼴": 9269,
      "나": 9270,
      "남": 9271,
      "낭": 9272,
      "내": 9273,
      "너": 9274,
      "녕": 9275,
      "노": 9276,
      "놀": 9277,
      "눈": 9278,
      "눔": 9279,
      "뉴": 9280,
      "는": 9281,
      "늘": 9282,
      "니": 9283,
      "다": 9284,
      "단": 9285,
      "달": 9286,
      "답": 9287,
      "당": 9288,
      "대": 9289,
      "댓": 9290,
      "덕": 9291,
      "도": 9292,
      "돌": 9293,
      "동": 9294,
      "돼": 9295,
      "된": 9296,
      "두": 9297,
      "드": 9298,
      "듯": 9299,
      "딱": 9300,
      "딸": 9301,
      "땀": 9302,
      "떠": 9303,
      "라": 9304,
      "랑": 9305,
      "래": 9306,
      "레": 9307,
      "령": 9308,
      "로": 9309,
      "료": 9310,
      "룡": 9311,
      "루": 9312,
      "르": 9313,
      "른": 9314,
      "를": 9315,
      "름": 9316,
      "릅": 9317,
      "리": 9318,
      "릭": 9319,
      "린": 9320,
      "릲": 9321,
      "릴": 9322,
      "림": 9323,
      "마": 9324,
      "만": 9325,
      "말": 9326,
      "망": 9327,
      "맨": 9328,
      "먹": 9329,
      "메": 9330,
      "면": 9331,
      "명": 9332,
      "모": 9333,
      "목": 9334,
      "무": 9335,
      "문": 9336,
      "물": 9337,
      "뮤": 9338,
      "므": 9339,
      "미": 9340,
      "바": 9341,
      "반": 9342,
      "밤": 9343,
      "방": 9344,
      "배": 9345,
      "백": 9346,
      "버": 9347,
      "범": 9348,
      "별": 9349,
      "보": 9350,
      "복": 9351,
      "봉": 9352,
      "부": 9353,
      "불": 9354,
      "붙": 9355,
      "뷰": 9356,
      "브": 9357,
      "블": 9358,
      "비": 9359,
      "빈": 9360,
      "빙": 9361,
      "사": 9362,
      "산": 9363,
      "살": 9364,
      "상": 9365,
      "새": 9366,
      "샤": 9367,
      "서": 9368,
      "석": 9369,
      "선": 9370,
      "설": 9371,
      "성": 9372,
      "세": 9373,
      "션": 9374,
      "셜": 9375,
      "소": 9376,
      "송": 9377,
      "쇠": 9378,
      "수": 9379,
      "숙": 9380,
      "순": 9381,
      "스": 9382,
      "승": 9383,
      "시": 9384,
      "식": 9385,
      "신": 9386,
      "실": 9387,
      "십": 9388,
      "쌀": 9389,
      "씨": 9390,
      "아": 9391,
      "안": 9392,
      "알": 9393,
      "압": 9394,
      "애": 9395,
      "야": 9396,
      "양": 9397,
      "얘": 9398,
      "어": 9399,
      "언": 9400,
      "없": 9401,
      "에": 9402,
      "엑": 9403,
      "여": 9404,
      "연": 9405,
      "열": 9406,
      "영": 9407,
      "오": 9408,
      "옥": 9409,
      "온": 9410,
      "옹": 9411,
      "와": 9412,
      "완": 9413,
      "왕": 9414,
      "외": 9415,
      "요": 9416,
      "용": 9417,
      "우": 9418,
      "울": 9419,
      "워": 9420,
      "원": 9421,
      "월": 9422,
      "위": 9423,
      "유": 9424,
      "윤": 9425,
      "으": 9426,
      "은": 9427,
      "을": 9428,
      "읍": 9429,
      "응": 9430,
      "의": 9431,
      "이": 9432,
      "익": 9433,
      "인": 9434,
      "일": 9435,
      "임": 9436,
      "입": 9437,
      "있": 9438,
      "자": 9439,
      "작": 9440,
      "장": 9441,
      "재": 9442,
      "저": 9443,
      "전": 9444,
      "점": 9445,
      "정": 9446,
      "제": 9447,
      "젠": 9448,
      "졌": 9449,
      "조": 9450,
      "좀": 9451,
      "종": 9452,
      "좋": 9453,
      "주": 9454,
      "준": 9455,
      "중": 9456,
      "줘": 9457,
      "즈": 9458,
      "증": 9459,
      "지": 9460,
      "진": 9461,
      "차": 9462,
      "창": 9463,
      "챘": 9464,
      "챦": 9465,
      "천": 9466,
      "철": 9467,
      "첨": 9468,
      "청": 9469,
      "체": 9470,
      "초": 9471,
      "최": 9472,
      "추": 9473,
      "춘": 9474,
      "출": 9475,
      "충": 9476,
      "츠": 9477,
      "치": 9478,
      "카": 9479,
      "커": 9480,
      "케": 9481,
      "크": 9482,
      "타": 9483,
      "탄": 9484,
      "탑": 9485,
      "태": 9486,
      "택": 9487,
      "터": 9488,
      "토": 9489,
      "통": 9490,
      "투": 9491,
      "튀": 9492,
      "트": 9493,
      "특": 9494,
      "티": 9495,
      "파": 9496,
      "판": 9497,
      "팔": 9498,
      "팩": 9499,
      "페": 9500,
      "펜": 9501,
      "평": 9502,
      "포": 9503,
      "폰": 9504,
      "표": 9505,
      "프": 9506,
      "플": 9507,
      "피": 9508,
      "하": 9509,
      "학": 9510,
      "한": 9511,
      "할": 9512,
      "핫": 9513,
      "항": 9514,
      "해": 9515,
      "행": 9516,
      "향": 9517,
      "헌": 9518,
      "헤": 9519,
      "현": 9520,
      "형": 9521,
      "혜": 9522,
      "호": 9523,
      "화": 9524,
      "회": 9525,
      "획": 9526,
      "효": 9527,
      "후": 9528,
      "훈": 9529,
      "흑": 9530,
      "흠": 9531,
      "흥": 9532,
      "": 9533,
      "": 9534,
      "": 9535,
      "": 9536,
      "": 9537,
      "": 9538,
      "": 9539,
      "": 9540,
      "": 9541,
      "": 9542,
      "": 9543,
      "": 9544,
      "": 9545,
      "": 9546,
      "": 9547,
      "": 9548,
      "": 9549,
      "": 9550,
      "": 9551,
      "ﬀ": 9552,
      "ﬁ": 9553,
      "ﬂ": 9554,
      "ﬃ": 9555,
      "︎": 9556,
      "️": 9557,
      "︰": 9558,
      "﹐": 9559,
      "﹑": 9560,
      "﹒": 9561,
      "﹔": 9562,
      "﹕": 9563,
      "﹙": 9564,
      "﹚": 9565,
      "﹝": 9566,
      "﹞": 9567,
      "﹣": 9568,
      "﻿": 9569,
      "！": 9570,
      "＂": 9571,
      "＃": 9572,
      "％": 9573,
      "＆": 9574,
      "（": 9575,
      "）": 9576,
      "＋": 9577,
      "，": 9578,
      "－": 9579,
      "．": 9580,
      "／": 9581,
      "０": 9582,
      "１": 9583,
      "２": 9584,
      "３": 9585,
      "４": 9586,
      "５": 9587,
      "６": 9588,
      "７": 9589,
      "８": 9590,
      "９": 9591,
      "：": 9592,
      "；": 9593,
      "＜": 9594,
      "＝": 9595,
      "＞": 9596,
      "？": 9597,
      "＠": 9598,
      "Ａ": 9599,
      "Ｃ": 9600,
      "Ｄ": 9601,
      "Ｅ": 9602,
      "Ｆ": 9603,
      "Ｇ": 9604,
      "Ｉ": 9605,
      "Ｋ": 9606,
      "Ｌ": 9607,
      "Ｍ": 9608,
      "Ｎ": 9609,
      "Ｏ": 9610,
      "Ｐ": 9611,
      "Ｒ": 9612,
      "Ｓ": 9613,
      "Ｔ": 9614,
      "Ｕ": 9615,
      "Ｖ": 9616,
      "Ｘ": 9617,
      "［": 9618,
      "］": 9619,
      "ａ": 9620,
      "ｄ": 9621,
      "ｅ": 9622,
      "ｆ": 9623,
      "ｉ": 9624,
      "ｎ": 9625,
      "ｏ": 9626,
      "ｐ": 9627,
      "ｒ": 9628,
      "ｓ": 9629,
      "ｔ": 9630,
      "ｗ": 9631,
      "ｘ": 9632,
      "ｙ": 9633,
      "｜": 9634,
      "～": 9635,
      "｡": 9636,
      "￼": 9637,
      "�": 9638,
      "￾": 9639,
      "𐤂": 9640,
      "𐤍": 9641,
      "𐤓": 9642,
      "𐤕": 9643,
      "𐰉": 9644,
      "𐰍": 9645,
      "𐰲": 9646,
      "𐱃": 9647,
      "🇭": 9648,
      "🇰": 9649,
      "🌐": 9650,
      "🌖": 9651,
      "🌸": 9652,
      "🍎": 9653,
      "🍷": 9654,
      "🎙": 9655,
      "🏆": 9656,
      "🏠": 9657,
      "🏵": 9658,
      "🏻": 9659,
      "🏽": 9660,
      "🐛": 9661,
      "👈": 9662,
      "👉": 9663,
      "👍": 9664,
      "👏": 9665,
      "💗": 9666,
      "💙": 9667,
      "💝": 9668,
      "💞": 9669,
      "💫": 9670,
      "💯": 9671,
      "📄": 9672,
      "📈": 9673,
      "📑": 9674,
      "📖": 9675,
      "📝": 9676,
      "📧": 9677,
      "📲": 9678,
      "📷": 9679,
      "🔔": 9680,
      "🔥": 9681,
      "🔴": 9682,
      "🔸": 9683,
      "🕷": 9684,
      "🖨": 9685,
      "😀": 9686,
      "😁": 9687,
      "😄": 9688,
      "😅": 9689,
      "😇": 9690,
      "😉": 9691,
      "😊": 9692,
      "😛": 9693,
      "😥": 9694,
      "😦": 9695,
      "😷": 9696,
      "🙁": 9697,
      "🙂": 9698,
      "🙌": 9699,
      "🙏": 9700,
      "🤔": 9701,
      "🤚": 9702,
      "🤣": 9703,
      "🤦": 9704,
      "🤨": 9705,
      "🤪": 9706,
      "🤷": 9707,
      "🥀": 9708,
      "𡚒": 9709,
      "𡧽": 9710,
      "𡩄": 9711,
      "𣁽": 9712,
      "𣚴": 9713,
      "𣴓": 9714,
      "𣸣": 9715,
      "𤠣": 9716,
      "𦈡": 9717,
      "𦟖": 9718,
      "𦣻": 9719,
      "𦨭": 9720,
      "𨑮": 9721,
      "𨱅": 9722,
      "𨱇": 9723,
      "𨱈": 9724,
      "𨱑": 9725,
      "𨷶": 9726,
      "𩵚": 9727,
      "𩶤": 9728,
      "𩽾": 9729,
      "𩾃": 9730,
      "𩾌": 9731,
      "𪟝": 9732,
      "𪩘": 9733,
      "𪹚": 9734,
      "𫄸": 9735,
      "𫏋": 9736,
      "𫓧": 9737,
      "𫓹": 9738,
      "𫖮": 9739,
      "𫖯": 9740,
      "𫗧": 9741,
      "𫚉": 9742,
      "𫚒": 9743,
      "𫚔": 9744,
      "𫟹": 9745,
      "𫫇": 9746,
      "𫷷": 9747,
      "𬀩": 9748,
      "𬀪": 9749,
      "𬇙": 9750,
      "𬞟": 9751,
      "𬩽": 9752,
      "𬬮": 9753,
      "𬬻": 9754,
      "𬭎": 9755,
      "𬭚": 9756,
      "𬱖": 9757,
      "𬶏": 9758,
      "𬶐": 9759,
      "𬶨": 9760,
      "xe": 9761,
      "x8": 9762,
      "xb": 9763,
      "x9": 9764,
      "xa": 9765,
      "th": 9766,
      "in": 9767,
      "xe5": 9768,
      "er": 9769,
      "an": 9770,
      "on": 9771,
      "the": 9772,
      "re": 9773,
      "xe6": 9774,
      "at": 9775,
      "en": 9776,
      "or": 9777,
      "xe7": 9778,
      "al": 9779,
      "st": 9780,
      "ed": 9781,
      "ar": 9782,
      "xe8": 9783,
      "and": 9784,
      "es": 9785,
      "of": 9786,
      "is": 9787,
      "ing": 9788,
      "ou": 9789,
      "to": 9790,
      "it": 9791,
      "xe4": 9792,
      "x80": 9793,
      "as": 9794,
      "xe9": 9795,
      "ion": 9796,
      "ic": 9797,
      "x8c": 9798,
      "xbc": 9799,
      "le": 9800,
      "om": 9801,
      "ent": 9802,
      "xb8": 9803,
      "AR": 9804,
      "he": 9805,
      "xef": 9806,
      "x9c": 9807,
      "xba": 9808,
      "de": 9809,
      "il": 9810,
      "ac": 9811,
      "se": 9812,
      "ro": 9813,
      "_S": 9814,
      "x82": 9815,
      "xe3": 9816,
      "x88": 9817,
      "x8b": 9818,
      "ve": 9819,
      "x9a": 9820,
      "for": 9821,
      "be": 9822,
      "x8d": 9823,
      "ART": 9824,
      "am": 9825,
      "x89": 9826,
      "NE": 9827,
      "ch": 9828,
      "xbb": 9829,
      "ol": 9830,
      "x84": 9831,
      "x96": 9832,
      "x81": 9833,
      "xad": 9834,
      "ly": 9835,
      "xa8": 9836,
      "ad": 9837,
      "ation": 9838,
      "_ST": 9839,
      "_START": 9840,
      "ct": 9841,
      "ow": 9842,
      "im": 9843,
      "xb9": 9844,
      "x85": 9845,
      "xbe": 9846,
      "xb0": 9847,
      "x8f": 9848,
      "ur": 9849,
      "ver": 9850,
      "x87": 9851,
      "ig": 9852,
      "ay": 9853,
      "ce": 9854,
      "20": 9855,
      "un": 9856,
      "wh": 9857,
      "id": 9858,
      "ge": 9859,
      "x8a": 9860,
      "xb4": 9861,
      "x94": 9862,
      "xaf": 9863,
      "ot": 9864,
      "x99": 9865,
      "x9b": 9866,
      "ter": 9867,
      "xa5": 9868,
      "xb1": 9869,
      "that": 9870,
      "ith": 9871,
      "xbd": 9872,
      "x90": 9873,
      "con": 9874,
      "xb7": 9875,
      "ir": 9876,
      "ut": 9877,
      "The": 9878,
      "x9f": 9879,
      "us": 9880,
      "are": 9881,
      "x83": 9882,
      "ab": 9883,
      "xa4": 9884,
      "with": 9885,
      "xae": 9886,
      "lo": 9887,
      "ul": 9888,
      "com": 9889,
      "x97": 9890,
      "x95": 9891,
      "was": 9892,
      "xa1": 9893,
      "ap": 9894,
      "li": 9895,
      "xb3": 9896,
      "19": 9897,
      "ne": 9898,
      "pro": 9899,
      "_START_": 9900,
      "te": 9901,
      "ri": 9902,
      "co": 9903,
      "ate": 9904,
      "xa6": 9905,
      "res": 9906,
      "xb2": 9907,
      "ment": 9908,
      "ers": 9909,
      "x98": 9910,
      "xab": 9911,
      "LI": 9912,
      "pe": 9913,
      "xb6": 9914,
      "xa9": 9915,
      "xac": 9916,
      "su": 9917,
      "ere": 9918,
      "NEW": 9919,
      "LINE": 9920,
      "_NEW": 9921,
      "_NEWLINE": 9922,
      "our": 9923,
      "xbf": 9924,
      "x86": 9925,
      "xa3": 9926,
      "_NEWLINE_": 9927,
      "xa7": 9928,
      "</": 9929,
      "x8e": 9930,
      "x9d": 9931,
      "all": 9932,
      "mo": 9933,
      "el": 9934,
      "x91": 9935,
      "ke": 9936,
      "xa0": 9937,
      "by": 9938,
      "pl": 9939,
      "fr": 9940,
      "tr": 9941,
      "di": 9942,
      "oun": 9943,
      "ain": 9944,
      "op": 9945,
      "In": 9946,
      "ess": 9947,
      "RA": 9948,
      "ag": 9949,
      "x93": 9950,
      "qu": 9951,
      "ity": 9952,
      "AG": 9953,
      "ill": 9954,
      "art": 9955,
      "PH": 9956,
      "PAR": 9957,
      "RAPH": 9958,
      "PARAG": 9959,
      "_START_PARAG": 9960,
      "RAPH_": 9961,
      "_START_PARAGRAPH_": 9962,
      "xa2": 9963,
      "em": 9964,
      "so": 9965,
      "sh": 9966,
      "xaa": 9967,
      "ht": 9968,
      "ON": 9969,
      "ha": 9970,
      "ist": 9971,
      "TI": 9972,
      "x9e": 9973,
      "xb5": 9974,
      "out": 9975,
      "EC": 9976,
      "ther": 9977,
      "ld": 9978,
      "TION": 9979,
      "his": 9980,
      "ex": 9981,
      "et": 9982,
      "from": 9983,
      "ant": 9984,
      "um": 9985,
      "we": 9986,
      "ci": 9987,
      "ECTION": 9988,
      "_SECTION": 9989,
      "_START_SECTION": 9990,
      "_START_SECTION_": 9991,
      "x92": 9992,
      "00": 9993,
      "po": 9994,
      "ort": 9995,
      "per": 9996,
      "act": 9997,
      "cl": 9998,
      "one": 9999,
      "fe": 10000,
      "wor": 10001,
      "not": 10002,
      "ive": 10003,
      "201": 10004,
      "ies": 10005,
      "pre": 10006,
      "code": 10007,
      "you": 10008,
      "od": 10009,
      "this": 10010,
      "end": 10011,
      "pr": 10012,
      "gr": 10013,
      "any": 10014,
      "ust": 10015,
      "if": 10016,
      "ma": 10017,
      "have": 10018,
      "ame": 10019,
      "ber": 10020,
      "ear": 10021,
      "der": 10022,
      "est": 10023,
      "ard": 10024,
      "age": 10025,
      "but": 10026,
      "ich": 10027,
      "vi": 10028,
      "do": 10029,
      "port": 10030,
      "ast": 10031,
      "ine": 10032,
      "ight": 10033,
      "ated": 10034,
      "ong": 10035,
      "can": 10036,
      "form": 10037,
      "ction": 10038,
      "ud": 10039,
      "me": 10040,
      "ass": 10041,
      "ome": 10042,
      "ally": 10043,
      "ould": 10044,
      "str": 10045,
      "ack": 10046,
      "av": 10047,
      "ary": 10048,
      "up": 10049,
      "has": 10050,
      "ure": 10051,
      "St": 10052,
      "ans": 10053,
      "au": 10054,
      "ll": 10055,
      "200": 10056,
      "iv": 10057,
      "go": 10058,
      "ip": 10059,
      "able": 10060,
      "ish": 10061,
      "ice": 10062,
      "ser": 10063,
      "which": 10064,
      "work": 10065,
      "ound": 10066,
      "ts": 10067,
      "Ch": 10068,
      "ew": 10069,
      "du": 10070,
      "ach": 10071,
      "af": 10072,
      "bo": 10073,
      "oug": 10074,
      "si": 10075,
      "Th": 10076,
      "ub": 10077,
      "ore": 10078,
      "aw": 10079,
      "gt": 10080,
      "ind": 10081,
      "ok": 10082,
      "LE": 10083,
      "ions": 10084,
      "tim": 10085,
      "cre": 10086,
      "IC": 10087,
      "ev": 10088,
      "part": 10089,
      "fer": 10090,
      "ence": 10091,
      "lt": 10092,
      "own": 10093,
      "ous": 10094,
      "..": 10095,
      "its": 10096,
      "pt": 10097,
      "their": 10098,
      "An": 10099,
      "ance": 10100,
      "will": 10101,
      "other": 10102,
      "18": 10103,
      "comp": 10104,
      "iz": 10105,
      "ia": 10106,
      "ty": 10107,
      "He": 10108,
      "--": 10109,
      "my": 10110,
      "were": 10111,
      "ue": 10112,
      "Re": 10113,
      "ARTIC": 10114,
      "LE_": 10115,
      "her": 10116,
      "ite": 10117,
      "_START_ARTIC": 10118,
      "_START_ARTICLE_": 10119,
      "ire": 10120,
      "who": 10121,
      "ign": 10122,
      "cont": 10123,
      "also": 10124,
      "ile": 10125,
      "br": 10126,
      "ck": 10127,
      "year": 10128,
      "ical": 10129,
      "man": 10130,
      "ak": 10131,
      "low": 10132,
      "10": 10133,
      "new": 10134,
      "ations": 10135,
      "int": 10136,
      "It": 10137,
      "ough": 10138,
      "they": 10139,
      "ory": 10140,
      "ren": 10141,
      "had": 10142,
      "ree": 10143,
      "ace": 10144,
      "ult": 10145,
      "ition": 10146,
      "pres": 10147,
      "no": 10148,
      "cess": 10149,
      "ial": 10150,
      "fir": 10151,
      "dis": 10152,
      "comm": 10153,
      "Un": 10154,
      "ef": 10155,
      "more": 10156,
      "over": 10157,
      "ail": 10158,
      "pos": 10159,
      "cor": 10160,
      "ase": 10161,
      "get": 10162,
      "og": 10163,
      "time": 10164,
      "some": 10165,
      "sp": 10166,
      "ever": 10167,
      "your": 10168,
      "Wh": 10169,
      "inter": 10170,
      ").": 10171,
      "now": 10172,
      "vers": 10173,
      "ang": 10174,
      "Con": 10175,
      "way": 10176,
      "ild": 10177,
      "=\"": 10178,
      "ble": 10179,
      "been": 10180,
      "ater": 10181,
      "ens": 10182,
      "De": 10183,
      "lic": 10184,
      "tw": 10185,
      "day": 10186,
      "cr": 10187,
      "about": 10188,
      "ph": 10189,
      "ob": 10190,
      "first": 10191,
      "je": 10192,
      "there": 10193,
      "ents": 10194,
      "cho": 10195,
      "n_START_PARAGRAPH_": 10196,
      "ings": 10197,
      "12": 10198,
      "col": 10199,
      "mer": 10200,
      "Com": 10201,
      ");": 10202,
      "ell": 10203,
      "incl": 10204,
      "cent": 10205,
      "),": 10206,
      "ors": 10207,
      "min": 10208,
      "ian": 10209,
      "ple": 10210,
      "like": 10211,
      "ates": 10212,
      "off": 10213,
      "when": 10214,
      "Se": 10215,
      "serv": 10216,
      "land": 10217,
      "would": 10218,
      "ces": 10219,
      "This": 10220,
      "spe": 10221,
      "ject": 10222,
      "cur": 10223,
      "ps": 10224,
      "play": 10225,
      "ational": 10226,
      "arch": 10227,
      "coun": 10228,
      "use": 10229,
      "oc": 10230,
      "pub": 10231,
      "under": 10232,
      "reg": 10233,
      "Ar": 10234,
      "mar": 10235,
      "old": 10236,
      "des": 10237,
      "11": 10238,
      "ry": 10239,
      "att": 10240,
      "bu": 10241,
      "x82_NEWLINE_": 10242,
      "fin": 10243,
      "them": 10244,
      "//": 10245,
      "199": 10246,
      "rit": 10247,
      "ments": 10248,
      "ual": 10249,
      "urn": 10250,
      "ful": 10251,
      "how": 10252,
      "into": 10253,
      "set": 10254,
      "></": 10255,
      "sa": 10256,
      "><": 10257,
      "ath": 10258,
      "ret": 10259,
      "vis": 10260,
      "cial": 10261,
      "ener": 10262,
      "row": 10263,
      "val": 10264,
      "add": 10265,
      "sel": 10266,
      "ict": 10267,
      "ide": 10268,
      "n_START_SECTION_": 10269,
      "ities": 10270,
      "15": 10271,
      "than": 10272,
      "most": 10273,
      "rel": 10274,
      "ra": 10275,
      "ople": 10276,
      "lect": 10277,
      "ced": 10278,
      "bet": 10279,
      "igh": 10280,
      "os": 10281,
      "mon": 10282,
      "As": 10283,
      "app": 10284,
      "two": 10285,
      "after": 10286,
      "bec": 10287,
      "En": 10288,
      "xt": 10289,
      "We": 10290,
      "she": 10291,
      "ta": 10292,
      "what": 10293,
      "fore": 10294,
      "ick": 10295,
      "org": 10296,
      "vid": 10297,
      "17": 10298,
      "sy": 10299,
      "les": 10300,
      "where": 10301,
      "ited": 10302,
      "only": 10303,
      "rough": 10304,
      "Pro": 10305,
      "ata": 10306,
      "iss": 10307,
      "ug": 10308,
      "ning": 10309,
      "med": 10310,
      "ating": 10311,
      "sub": 10312,
      "ting": 10313,
      "uring": 10314,
      "requ": 10315,
      "hel": 10316,
      "ie": 10317,
      "people": 10318,
      "mber": 10319,
      "used": 10320,
      "sc": 10321,
      "may": 10322,
      "ink": 10323,
      "includ": 10324,
      "thing": 10325,
      "Al": 10326,
      "let": 10327,
      "16": 10328,
      "chool": 10329,
      "ative": 10330,
      "years": 10331,
      "ased": 10332,
      "pol": 10333,
      "dif": 10334,
      "For": 10335,
      "ved": 10336,
      "ose": 10337,
      "New": 10338,
      "fun": 10339,
      "ho": 10340,
      "amp": 10341,
      "such": 10342,
      "ran": 10343,
      "just": 10344,
      "loc": 10345,
      "read": 10346,
      "tain": 10347,
      "lish": 10348,
      "ause": 10349,
      "cord": 10350,
      "main": 10351,
      "then": 10352,
      "public": 10353,
      "try": 10354,
      "cer": 10355,
      "erson": 10356,
      "ident": 10357,
      "cond": 10358,
      "through": 10359,
      "back": 10360,
      "30": 10361,
      "ics": 10362,
      "cons": 10363,
      "need": 10364,
      "many": 10365,
      "reat": 10366,
      "ress": 10367,
      "ep": 10368,
      "On": 10369,
      "produ": 10370,
      "led": 10371,
      "par": 10372,
      "ollow": 10373,
      "ms": 10374,
      "22": 10375,
      "red": 10376,
      "sup": 10377,
      "well": 10378,
      "velo": 10379,
      "line": 10380,
      "ship": 10381,
      "olog": 10382,
      "ss": 10383,
      "14": 10384,
      "air": 10385,
      "class": 10386,
      "view": 10387,
      "him": 10388,
      "ving": 10389,
      "ari": 10390,
      "ason": 10391,
      "ular": 10392,
      "mem": 10393,
      "right": 10394,
      "198": 10395,
      "13": 10396,
      "ins": 10397,
      "xc": 10398,
      "ily": 10399,
      "ks": 10400,
      "ise": 10401,
      "come": 10402,
      "ivers": 10403,
      ".</": 10404,
      "know": 10405,
      "stem": 10406,
      "ten": 10407,
      "cy": 10408,
      "ade": 10409,
      "very": 10410,
      "fil": 10411,
      "velop": 10412,
      "000": 10413,
      "fi": 10414,
      "these": 10415,
      "No": 10416,
      "How": 10417,
      "pon": 10418,
      "htt": 10419,
      "put": 10420,
      "eng": 10421,
      "----": 10422,
      "call": 10423,
      "ton": 10424,
      "And": 10425,
      "want": 10426,
      "pri": 10427,
      "Le": 10428,
      "ices": 10429,
      "trans": 10430,
      "alth": 10431,
      "num": 10432,
      "name": 10433,
      "23": 10434,
      "cept": 10435,
      "don": 10436,
      "dr": 10437,
      "21": 10438,
      "fic": 10439,
      "gu": 10440,
      "la": 10441,
      "stud": 10442,
      "ility": 10443,
      "king": 10444,
      "leg": 10445,
      "ys": 10446,
      "Amer": 10447,
      "Americ": 10448,
      "50": 10449,
      "again": 10450,
      "So": 10451,
      "son": 10452,
      "tri": 10453,
      "peri": 10454,
      "stru": 10455,
      "vel": 10456,
      "\",": 10457,
      "fect": 10458,
      "://": 10459,
      "self": 10460,
      "als": 10461,
      "exa": 10462,
      "lar": 10463,
      "follow": 10464,
      "cour": 10465,
      "rect": 10466,
      "state": 10467,
      "ven": 10468,
      "**": 10469,
      "iness": 10470,
      "made": 10471,
      "gram": 10472,
      "ward": 10473,
      "ween": 10474,
      "said": 10475,
      "ted": 10476,
      "see": 10477,
      "stand": 10478,
      "start": 10479,
      "Tr": 10480,
      "make": 10481,
      "help": 10482,
      "Mar": 10483,
      "pect": 10484,
      "being": 10485,
      "Col": 10486,
      "fl": 10487,
      "ann": 10488,
      "develop": 10489,
      "mat": 10490,
      "io": 10491,
      "Bo": 10492,
      "could": 10493,
      "197": 10494,
      "fam": 10495,
      "plo": 10496,
      ";/": 10497,
      "ood": 10498,
      "life": 10499,
      "25": 10500,
      "formation": 10501,
      "ific": 10502,
      "che": 10503,
      "person": 10504,
      "plic": 10505,
      "ince": 10506,
      "between": 10507,
      "xc2": 10508,
      "using": 10509,
      "Jo": 10510,
      "char": 10511,
      "import": 10512,
      "long": 10513,
      "national": 10514,
      "usiness": 10515,
      "data": 10516,
      "inst": 10517,
      "eld": 10518,
      "Ad": 10519,
      "show": 10520,
      "'\\": 10521,
      "found": 10522,
      "chan": 10523,
      "Ser": 10524,
      "care": 10525,
      "test": 10526,
      "ters": 10527,
      "lear": 10528,
      "sur": 10529,
      "Is": 10530,
      "If": 10531,
      "ash": 10532,
      "Ro": 10533,
      "present": 10534,
      "You": 10535,
      "n_START_ARTICLE_": 10536,
      "car": 10537,
      "Co": 10538,
      "because": 10539,
      "book": 10540,
      "differ": 10541,
      "iversity": 10542,
      "ext": 10543,
      "ref": 10544,
      "before": 10545,
      "side": 10546,
      "tem": 10547,
      "ouse": 10548,
      "return": 10549,
      "lead": 10550,
      "uary": 10551,
      "Be": 10552,
      "ures": 10553,
      "less": 10554,
      "every": 10555,
      "sing": 10556,
      "oup": 10557,
      "should": 10558,
      "But": 10559,
      "law": 10560,
      "while": 10561,
      "Pr": 10562,
      "ner": 10563,
      "ages": 10564,
      "build": 10565,
      "soci": 10566,
      "did": 10567,
      "sign": 10568,
      "run": 10569,
      "including": 10570,
      "clo": 10571,
      "ese": 10572,
      "ional": 10573,
      "Fr": 10574,
      "look": 10575,
      "fact": 10576,
      "gener": 10577,
      "196": 10578,
      "down": 10579,
      "jo": 10580,
      "ves": 10581,
      "Gr": 10582,
      "school": 10583,
      "strong": 10584,
      "even": 10585,
      "during": 10586,
      "high": 10587,
      "uch": 10588,
      "Wor": 10589,
      "nam": 10590,
      "cap": 10591,
      "por": 10592,
      "ale": 10593,
      "194": 10594,
      "team": 10595,
      "world": 10596,
      ".”": 10597,
      "ket": 10598,
      "sol": 10599,
      "vent": 10600,
      "same": 10601,
      "cri": 10602,
      "oper": 10603,
      ":</": 10604,
      "list": 10605,
      "each": 10606,
      "vol": 10607,
      "cut": 10608,
      "bl": 10609,
      "place": 10610,
      "does": 10611,
      "text": 10612,
      "writ": 10613,
      "ired": 10614,
      "bor": 10615,
      "beg": 10616,
      "three": 10617,
      "say": 10618,
      "tal": 10619,
      "There": 10620,
      "chn": 10621,
      "search": 10622,
      "point": 10623,
      "system": 10624,
      "ually": 10625,
      "support": 10626,
      "find": 10627,
      "Af": 10628,
      "site": 10629,
      "both": 10630,
      "miss": 10631,
      "ele": 10632,
      "vest": 10633,
      "Sh": 10634,
      "uc": 10635,
      "those": 10636,
      "Par": 10637,
      "commun": 10638,
      "del": 10639,
      "child": 10640,
      "direct": 10641,
      "At": 10642,
      "Mo": 10643,
      "She": 10644,
      "vide": 10645,
      "24": 10646,
      "program": 10647,
      "University": 10648,
      "gover": 10649,
      "business": 10650,
      "az": 10651,
      "ied": 10652,
      "information": 10653,
      "To": 10654,
      "sim": 10655,
      "respon": 10656,
      "number": 10657,
      "aph": 10658,
      "dec": 10659,
      "ER": 10660,
      "issu": 10661,
      "ww": 10662,
      "here": 10663,
      "ave": 10664,
      "pur": 10665,
      "aren": 10666,
      "head": 10667,
      "net": 10668,
      "unt": 10669,
      "Res": 10670,
      "kn": 10671,
      "provid": 10672,
      "IN": 10673,
      "Ac": 10674,
      "pass": 10675,
      "ror": 10676,
      "ider": 10677,
      "Cl": 10678,
      "ower": 10679,
      "govern": 10680,
      "ploy": 10681,
      "second": 10682,
      "()": 10683,
      "ster": 10684,
      "ature": 10685,
      "enter": 10686,
      "organ": 10687,
      "appe": 10688,
      "project": 10689,
      "sm": 10690,
      "Ex": 10691,
      "ava": 10692,
      "ized": 10693,
      "itut": 10694,
      "rent": 10695,
      "Coun": 10696,
      "ital": 10697,
      "contin": 10698,
      "quest": 10699,
      "vari": 10700,
      "good": 10701,
      "Pl": 10702,
      "sure": 10703,
      "ural": 10704,
      "open": 10705,
      "ib": 10706,
      "bers": 10707,
      "ology": 10708,
      "ah": 10709,
      "ety": 10710,
      "ds": 10711,
      "appro": 10712,
      "...": 10713,
      "quot": 10714,
      "mit": 10715,
      "ger": 10716,
      "prof": 10717,
      "gy": 10718,
      "They": 10719,
      "Nor": 10720,
      "hist": 10721,
      "US": 10722,
      "ude": 10723,
      "ants": 10724,
      "partic": 10725,
      "ists": 10726,
      "pay": 10727,
      "ism": 10728,
      "Can": 10729,
      "ought": 10730,
      "pop": 10731,
      "inal": 10732,
      "blo": 10733,
      "press": 10734,
      "Man": 10735,
      "ina": 10736,
      "tak": 10737,
      "ury": 10738,
      "process": 10739,
      "Inter": 10740,
      "Li": 10741,
      "ime": 10742,
      "pend": 10743,
      "against": 10744,
      "United": 10745,
      "rele": 10746,
      "different": 10747,
      "nor": 10748,
      "ames": 10749,
      "fa": 10750,
      "rece": 10751,
      "web": 10752,
      "suc": 10753,
      "home": 10754,
      "much": 10755,
      "known": 10756,
      "Or": 10757,
      "American": 10758,
      "Eng": 10759,
      "outh": 10760,
      "sk": 10761,
      "take": 10762,
      "rist": 10763,
      "last": 10764,
      "lin": 10765,
      "real": 10766,
      "type": 10767,
      "field": 10768,
      "later": 10769,
      "ff": 10770,
      "design": 10771,
      "ared": 10772,
      "ways": 10773,
      "war": 10774,
      "hand": 10775,
      "report": 10776,
      "195": 10777,
      "ross": 10778,
      "thor": 10779,
      "hn": 10780,
      "lot": 10781,
      "think": 10782,
      "company": 10783,
      "top": 10784,
      ".\"": 10785,
      "bro": 10786,
      "__": 10787,
      "uro": 10788,
      "AN": 10789,
      "ris": 10790,
      "ives": 10791,
      "26": 10792,
      "large": 10793,
      "ral": 10794,
      "28": 10795,
      "allow": 10796,
      "27": 10797,
      "Ap": 10798,
      "_NEWLINE_The": 10799,
      "plan": 10800,
      "ze": 10801,
      "Me": 10802,
      "incre": 10803,
      "May": 10804,
      "ribut": 10805,
      "ask": 10806,
      "prom": 10807,
      "order": 10808,
      "Fe": 10809,
      "function": 10810,
      "pat": 10811,
      ".,": 10812,
      "change": 10813,
      "Jan": 10814,
      "lit": 10815,
      "udi": 10816,
      "speci": 10817,
      "qual": 10818,
      "istr": 10819,
      "When": 10820,
      "post": 10821,
      "family": 10822,
      "season": 10823,
      "What": 10824,
      "Ph": 10825,
      "based": 10826,
      "sever": 10827,
      "best": 10828,
      "une": 10829,
      "https": 10830,
      "40": 10831,
      "around": 10832,
      "four": 10833,
      "record": 10834,
      "lished": 10835,
      "following": 10836,
      "Car": 10837,
      "TH": 10838,
      "After": 10839,
      "omen": 10840,
      "perform": 10841,
      "vice": 10842,
      "tle": 10843,
      "ues": 10844,
      "rest": 10845,
      "exam": 10846,
      "ft": 10847,
      "_NEWLINE_In": 10848,
      "2010": 10849,
      "still": 10850,
      "sible": 10851,
      "Po": 10852,
      "ctor": 10853,
      "invest": 10854,
      "graph": 10855,
      "illion": 10856,
      "ended": 10857,
      "Vi": 10858,
      "group": 10859,
      "',": 10860,
      "vir": 10861,
      "ES": 10862,
      "win": 10863,
      "ank": 10864,
      "ron": 10865,
      "called": 10866,
      "tract": 10867,
      "Sy": 10868,
      "bre": 10869,
      "State": 10870,
      "Str": 10871,
      "mus": 10872,
      "ord": 10873,
      "John": 10874,
      "2016": 10875,
      "interest": 10876,
      "By": 10877,
      "must": 10878,
      "orig": 10879,
      "value": 10880,
      "ody": 10881,
      "29": 10882,
      "My": 10883,
      "ically": 10884,
      "divid": 10885,
      "fo": 10886,
      "cover": 10887,
      "100": 10888,
      "2017": 10889,
      "tit": 10890,
      "2015": 10891,
      "experi": 10892,
      "success": 10893,
      "java": 10894,
      "ability": 10895,
      "thod": 10896,
      "men": 10897,
      "ars": 10898,
      "conf": 10899,
      "techn": 10900,
      "proper": 10901,
      "ious": 10902,
      "All": 10903,
      "ery": 10904,
      "current": 10905,
      "government": 10906,
      "ator": 10907,
      "?</": 10908,
      "ness": 10909,
      "II": 10910,
      "2013": 10911,
      "OR": 10912,
      "cu": 10913,
      "health": 10914,
      "However": 10915,
      "employ": 10916,
      "2014": 10917,
      "aim": 10918,
      "2012": 10919,
      "ley": 10920,
      "consider": 10921,
      "ier": 10922,
      "nal": 10923,
      "2009": 10924,
      "power": 10925,
      "service": 10926,
      "Comp": 10927,
      "fac": 10928,
      "193": 10929,
      "(\"": 10930,
      "effect": 10931,
      "hold": 10932,
      "until": 10933,
      "ek": 10934,
      "dist": 10935,
      "contro": 10936,
      ",”": 10937,
      "ister": 10938,
      "area": 10939,
      "ences": 10940,
      "game": 10941,
      "file": 10942,
      "Bl": 10943,
      "gre": 10944,
      "ik": 10945,
      "ont": 10946,
      "applic": 10947,
      "ense": 10948,
      "month": 10949,
      "Aug": 10950,
      "一个": 10951,
      "2018": 10952,
      "lim": 10953,
      "local": 10954,
      "case": 10955,
      "tow": 10956,
      "another": 10957,
      "since": 10958,
      "important": 10959,
      "vo": 10960,
      "research": 10961,
      "....": 10962,
      "ization": 10963,
      "won": 10964,
      "comple": 10965,
      "offic": 10966,
      "2011": 10967,
      "light": 10968,
      "March": 10969,
      "sit": 10970,
      "became": 10971,
      "py": 10972,
      "ency": 10973,
      "ric": 10974,
      "States": 10975,
      "atch": 10976,
      "great": 10977,
      "conne": 10978,
      "aug": 10979,
      "Pe": 10980,
      "city": 10981,
      "action": 10982,
      "without": 10983,
      "result": 10984,
      "uman": 10985,
      "ately": 10986,
      "exe": 10987,
      "中国": 10988,
      "tra": 10989,
      "sum": 10990,
      "depend": 10991,
      "lege": 10992,
      "jor": 10993,
      "proble": 10994,
      "going": 10995,
      "key": 10996,
      "http": 10997,
      "ls": 10998,
      "ake": 10999,
      "house": 11000,
      "level": 11001,
      "Indi": 11002,
      "bal": 11003,
      "ctions": 11004,
      "ru": 11005,
      "event": 11006,
      "Ju": 11007,
      "Euro": 11008,
      "working": 11009,
      "2008": 11010,
      "several": 11011,
      "），": 11012,
      "within": 11013,
      "oth": 11014,
      "giv": 11015,
      "educ": 11016,
      "date": 11017,
      "que": 11018,
      "War": 11019,
      "ern": 11020,
      "conom": 11021,
      "chang": 11022,
      "ird": 11023,
      "Pol": 11024,
      "Te": 11025,
      "roid": 11026,
      "stitut": 11027,
      "und": 11028,
      "AS": 11029,
      "dom": 11030,
      "got": 11031,
      "students": 11032,
      "cas": 11033,
      "Sp": 11034,
      "Dece": 11035,
      "opt": 11036,
      "ID": 11037,
      "move": 11038,
      "product": 11039,
      "load": 11040,
      "December": 11041,
      "member": 11042,
      "ork": 11043,
      "60": 11044,
      "enn": 11045,
      "ived": 11046,
      "small": 11047,
      "few": 11048,
      "riend": 11049,
      "activ": 11050,
      "Bar": 11051,
      "vision": 11052,
      "Christ": 11053,
      "EN": 11054,
      "request": 11055,
      "National": 11056,
      "Act": 11057,
      "user": 11058,
      "School": 11059,
      "80": 11060,
      "--------": 11061,
      "ca": 11062,
      "With": 11063,
      "early": 11064,
      "ource": 11065,
      "ground": 11066,
      "include": 11067,
      "Ge": 11068,
      "ns": 11069,
      "wr": 11070,
      "itions": 11071,
      "position": 11072,
      "ball": 11073,
      "mission": 11074,
      "struct": 11075,
      "World": 11076,
      "author": 11077,
      "Ger": 11078,
      "beli": 11079,
      "access": 11080,
      "IS": 11081,
      "remain": 11082,
      "exp": 11083,
      "example": 11084,
      "ene": 11085,
      "non": 11086,
      "Oc": 11087,
      "stat": 11088,
      "polit": 11089,
      "January": 11090,
      "urch": 11091,
      "priv": 11092,
      "Sep": 11093,
      "AT": 11094,
      "2022": 11095,
      "ution": 11096,
      "met": 11097,
      "ize": 11098,
      "film": 11099,
      "body": 11100,
      "vious": 11101,
      "offer": 11102,
      "plac": 11103,
      "next": 11104,
      "bar": 11105,
      "ards": 11106,
      "addition": 11107,
      "Lo": 11108,
      "ste": 11109,
      "bur": 11110,
      "acy": 11111,
      "prote": 11112,
      "Europe": 11113,
      "ream": 11114,
      "ision": 11115,
      "children": 11116,
      "ler": 11117,
      "Cont": 11118,
      "descri": 11119,
      "tell": 11120,
      "log": 11121,
      "elect": 11122,
      "ml": 11123,
      "create": 11124,
      "adv": 11125,
      "bed": 11126,
      "Apr": 11127,
      "\".": 11128,
      "ient": 11129,
      "August": 11130,
      "avail": 11131,
      "works": 11132,
      "something": 11133,
      "grow": 11134,
      "Br": 11135,
      "mi": 11136,
      "hip": 11137,
      "ling": 11138,
      "tax": 11139,
      "Med": 11140,
      "though": 11141,
      "services": 11142,
      "water": 11143,
      "far": 11144,
      "development": 11145,
      "CO": 11146,
      "York": 11147,
      "dividual": 11148,
      ";&": 11149,
      "major": 11150,
      "hy": 11151,
      "2019": 11152,
      "members": 11153,
      "aining": 11154,
      "cast": 11155,
      "def": 11156,
      "\"&": 11157,
      "June": 11158,
      "count": 11159,
      "cording": 11160,
      "Dr": 11161,
      "tember": 11162,
      "His": 11163,
      "September": 11164,
      "ised": 11165,
      "country": 11166,
      "ustom": 11167,
      "error": 11168,
      "July": 11169,
      "==": 11170,
      "April": 11171,
      "One": 11172,
      "Cal": 11173,
      "grad": 11174,
      "gest": 11175,
      "Min": 11176,
      "social": 11177,
      "friend": 11178,
      "happ": 11179,
      "ons": 11180,
      "agement": 11181,
      "pract": 11182,
      "ories": 11183,
      "Ed": 11184,
      "bas": 11185,
      "Nove": 11186,
      "Cor": 11187,
      "Octo": 11188,
      "2007": 11189,
      "mil": 11190,
      "near": 11191,
      "cost": 11192,
      "hal": 11193,
      "November": 11194,
      "meet": 11195,
      "Pres": 11196,
      "RE": 11197,
      "October": 11198,
      "ulation": 11199,
      "mb": 11200,
      "idd": 11201,
      "dri": 11202,
      "mp": 11203,
      "along": 11204,
      "estab": 11205,
      "model": 11206,
      "often": 11207,
      "charac": 11208,
      "ney": 11209,
      "ped": 11210,
      "method": 11211,
      "really": 11212,
      "profess": 11213,
      "individual": 11214,
      "left": 11215,
      "oney": 11216,
      "ances": 11217,
      "reason": 11218,
      "ote": 11219,
      "late": 11220,
      "band": 11221,
      "init": 11222,
      "West": 11223,
      "vil": 11224,
      "lang": 11225,
      "Gu": 11226,
      "provide": 11227,
      "That": 11228,
      "Part": 11229,
      "version": 11230,
      "cell": 11231,
      "ready": 11232,
      "mand": 11233,
      "making": 11234,
      "million": 11235,
      "Wil": 11236,
      "();": 11237,
      "ference": 11238,
      "gn": 11239,
      "tic": 11240,
      "View": 11241,
      "music": 11242,
      "ush": 11243,
      "available": 11244,
      "compe": 11245,
      "series": 11246,
      "feel": 11247,
      "eder": 11248,
      "things": 11249,
      "ential": 11250,
      "South": 11251,
      "ben": 11252,
      "ax": 11253,
      "possible": 11254,
      "free": 11255,
      "Reg": 11256,
      "Su": 11257,
      "turn": 11258,
      "term": 11259,
      "These": 11260,
      "posed": 11261,
      "Ab": 11262,
      "Bu": 11263,
      "women": 11264,
      "31": 11265,
      "Ne": 11266,
      "ified": 11267,
      "IT": 11268,
      "ched": 11269,
      "claim": 11270,
      "fort": 11271,
      "AA": 11272,
      "Do": 11273,
      "understand": 11274,
      "kes": 11275,
      "Brit": 11276,
      "building": 11277,
      "aged": 11278,
      "cing": 11279,
      "ption": 11280,
      "camp": 11281,
      "ible": 11282,
      "xe2": 11283,
      "days": 11284,
      "ained": 11285,
      "AL": 11286,
      "Ag": 11287,
      "community": 11288,
      "host": 11289,
      "ateg": 11290,
      "Aust": 11291,
      "eas": 11292,
      "seem": 11293,
      "cult": 11294,
      "paren": 11295,
      "sty": 11296,
      "div": 11297,
      "35": 11298,
      "docu": 11299,
      "City": 11300,
      "econom": 11301,
      "ium": 11302,
      "Qu": 11303,
      "period": 11304,
      "arr": 11305,
      "too": 11306,
      "Febr": 11307,
      "history": 11308,
      "February": 11309,
      "ales": 11310,
      "took": 11311,
      "join": 11312,
      "become": 11313,
      "uses": 11314,
      "began": 11315,
      "ception": 11316,
      "45": 11317,
      "big": 11318,
      "having": 11319,
      "2006": 11320,
      "invol": 11321,
      "indust": 11322,
      "termin": 11323,
      "Of": 11324,
      "item": 11325,
      "Sc": 11326,
      "gether": 11327,
      "due": 11328,
      "ones": 11329,
      "partment": 11330,
      "android": 11331,
      "cle": 11332,
      "career": 11333,
      "human": 11334,
      "sci": 11335,
      "ull": 11336,
      "print": 11337,
      "week": 11338,
      "teach": 11339,
      "Company": 11340,
      "town": 11341,
      "oman": 11342,
      "liam": 11343,
      "ried": 11344,
      "never": 11345,
      "represent": 11346,
      "ai": 11347,
      "road": 11348,
      "uni": 11349,
      "whe": 11350,
      "foc": 11351,
      "ey": 11352,
      "block": 11353,
      "www": 11354,
      "coming": 11355,
      "better": 11356,
      "viron": 11357,
      "icy": 11358,
      "ilt": 11359,
      "ged": 11360,
      "cted": 11361,
      "cus": 11362,
      "aterial": 11363,
      "cli": 11364,
      "ned": 11365,
      "ines": 11366,
      "five": 11367,
      "content": 11368,
      "Har": 11369,
      "experience": 11370,
      "trad": 11371,
      "held": 11372,
      "ban": 11373,
      "uture": 11374,
      "har": 11375,
      "roll": 11376,
      "short": 11377,
      "ify": 11378,
      "room": 11379,
      "played": 11380,
      "always": 11381,
      "Ste": 11382,
      "Go": 11383,
      "might": 11384,
      "comes": 11385,
      "Mon": 11386,
      "pring": 11387,
      "Val": 11388,
      "ains": 11389,
      "custom": 11390,
      "La": 11391,
      "death": 11392,
      "urther": 11393,
      "33": 11394,
      "imes": 11395,
      "story": 11396,
      "expect": 11397,
      "Des": 11398,
      "ably": 11399,
      "90": 11400,
[...]
