{
  "version": "1.0",
  "truncation": null,
  "padding": null,
  "added_tokens": [
    {
      "id": 0,
      "content": "<|endoftext|>",
      "single_word": false,
      "lstrip": false,
      "rstrip": false,
      "normalized": false,
      "special": true
    },
    {
      "id": 1,
      "content": "<|im_start|>",
      "single_word": false,
      "lstrip": false,
      "rstrip": false,
      "normalized": false,
      "special": true
    },
    {
      "id": 2,
      "content": "<|im_end|>",
      "single_word": false,
      "lstrip": false,
      "rstrip": false,
      "normalized": false,
      "special": true
    },
    {
      "id": 30000,
      "content": "<unk>",
      "single_word": false,
      "lstrip": false,
      "rstrip": false,
      "normalized": false,
      "special": true
    },
    {
      "id": 30001,
      "content": "<pad>",
      "single_word": false,
      "lstrip": false,
      "rstrip": false,
      "normalized": false,
      "special": true
    }
  ],
  "normalizer": {
    "type": "NFKC"
  },
  "pre_tokenizer": {
    "type": "Metaspace",
    "replacement": "▁",
    "prepend_scheme": "always",
    "split": true
  },
  "post_processor": null,
  "decoder": {
    "type": "Metaspace",
    "replacement": "▁",
    "prepend_scheme": "always",
    "split": true
  },
  "model": {
    "type": "BPE",
    "dropout": null,
    "unk_token": "<unk>",
    "continuing_subword_prefix": null,
    "end_of_word_suffix": null,
    "fuse_unk": false,
    "byte_fallback": false,
    "ignore_merges": false,
    "vocab": {
      "<|endoftext|>": 0,
      "<|im_start|>": 1,
      "<|im_end|>": 2,
      "\n": 3,
      "!": 4,
      "\"": 5,
      "#": 6,
      "$": 7,
      "%": 8,
      "&": 9,
      "'": 10,
      "(": 11,
      ")": 12,
      "*": 13,
      "+": 14,
      ",": 15,
      "-": 16,
      ".": 17,
      "/": 18,
      "0": 19,
      "1": 20,
      "2": 21,
      "3": 22,
      "4": 23,
      "5": 24,
      "6": 25,
      "7": 26,
      "8": 27,
      "9": 28,
      ":": 29,
      ";": 30,
      "<": 31,
      "=": 32,
      ">": 33,
      "?": 34,
      "@": 35,
      "A": 36,
      "B": 37,
      "C": 38,
      "D": 39,
      "E": 40,
      "F": 41,
      "G": 42,
      "H": 43,
      "I": 44,
      "J": 45,
      "K": 46,
      "L": 47,
      "M": 48,
      "N": 49,
      "O": 50,
      "P": 51,
      "Q": 52,
      "R": 53,
      "S": 54,
      "T": 55,
      "U": 56,
      "V": 57,
      "W": 58,
      "X": 59,
      "Y": 60,
      "Z": 61,
      "[": 62,
      "\\": 63,
      "]": 64,
      "^": 65,
      "_": 66,
      "`": 67,
      "a": 68,
      "b": 69,
      "c": 70,
      "d": 71,
      "e": 72,
      "f": 73,
      "g": 74,
      "h": 75,
      "i": 76,
      "j": 77,
      "k": 78,
      "l": 79,
      "m": 80,
      "n": 81,
      "o": 82,
      "p": 83,
      "q": 84,
      "r": 85,
      "s": 86,
      "t": 87,
      "u": 88,
      "v": 89,
      "w": 90,
      "x": 91,
      "y": 92,
      "z": 93,
      "{": 94,
      "|": 95,
      "}": 96,
      "~": 97,
      "§": 98,
      "°": 99,
      "·": 100,
      "á": 101,
      "é": 102,
      "í": 103,
      "ó": 104,
      "ö": 105,
      "ü": 106,
      "​": 107,
      "–": 108,
      "—": 109,
      "‘": 110,
      "’": 111,
      "“": 112,
      "”": 113,
      "•": 114,
      "′": 115,
      "▁": 116,
      "、": 117,
      "。": 118,
      "《": 119,
      "》": 120,
      "一": 121,
      "丁": 122,
      "七": 123,
      "万": 124,
      "三": 125,
      "上": 126,
      "下": 127,
      "不": 128,
      "与": 129,
      "专": 130,
      "且": 131,
      "世": 132,
      "业": 133,
      "东": 134,
      "两": 135,
      "严": 136,
      "个": 137,
      "中": 138,
      "临": 139,
      "丹": 140,
      "为": 141,
      "主": 142,
      "丽": 143,
      "举": 144,
      "久": 145,
      "义": 146,
      "之": 147,
      "乌": 148,
      "乐": 149,
      "九": 150,
      "也": 151,
      "习": 152,
      "乡": 153,
      "书": 154,
      "了": 155,
      "争": 156,
      "事": 157,
      "二": 158,
      "于": 159,
      "云": 160,
      "五": 161,
      "亚": 162,
      "些": 163,
      "亡": 164,
      "交": 165,
      "亦": 166,
      "产": 167,
      "京": 168,
      "亲": 169,
      "人": 170,
      "什": 171,
      "仅": 172,
      "今": 173,
      "介": 174,
      "仍": 175,
      "从": 176,
      "他": 177,
      "代": 178,
      "令": 179,
      "以": 180,
      "们": 181,
      "件": 182,
      "价": 183,
      "任": 184,
      "份": 185,
      "伊": 186,
      "众": 187,
      "优": 188,
      "会": 189,
      "传": 190,
      "伤": 191,
      "伦": 192,
      "伯": 193,
      "似": 194,
      "但": 195,
      "位": 196,
      "低": 197,
      "住": 198,
      "体": 199,
      "何": 200,
      "余": 201,
      "佛": 202,
      "作": 203,
      "佳": 204,
      "使": 205,
      "例": 206,
      "供": 207,
      "依": 208,
      "侧": 209,
      "便": 210,
      "俄": 211,
      "保": 212,
      "信": 213,
      "修": 214,
      "候": 215,
      "值": 216,
      "做": 217,
      "停": 218,
      "像": 219,
      "儿": 220,
      "元": 221,
      "先": 222,
      "光": 223,
      "克": 224,
      "党": 225,
      "入": 226,
      "全": 227,
      "八": 228,
      "公": 229,
      "六": 230,
      "兰": 231,
      "共": 232,
      "关": 233,
      "兴": 234,
      "兵": 235,
      "其": 236,
      "具": 237,
      "典": 238,
      "兹": 239,
      "养": 240,
      "兼": 241,
      "内": 242,
      "再": 243,
      "写": 244,
      "军": 245,
      "农": 246,
      "冠": 247,
      "冲": 248,
      "决": 249,
      "况": 250,
      "准": 251,
      "几": 252,
      "出": 253,
      "击": 254,
      "分": 255,
      "切": 256,
      "划": 257,
      "列": 258,
      "刘": 259,
      "则": 260,
      "创": 261,
      "初": 262,
      "判": 263,
      "利": 264,
      "别": 265,
      "到": 266,
      "制": 267,
      "前": 268,
      "剧": 269,
      "副": 270,
      "力": 271,
      "办": 272,
      "功": 273,
      "加": 274,
      "务": 275,
      "动": 276,
      "助": 277,
      "势": 278,
      "勒": 279,
      "包": 280,
      "化": 281,
      "北": 282,
      "区": 283,
      "医": 284,
      "十": 285,
      "千": 286,
      "升": 287,
      "半": 288,
      "华": 289,
      "协": 290,
      "单": 291,
      "南": 292,
      "博": 293,
      "占": 294,
      "卡": 295,
      "卫": 296,
      "印": 297,
      "即": 298,
      "却": 299,
      "厂": 300,
      "厅": 301,
      "历": 302,
      "压": 303,
      "原": 304,
      "去": 305,
      "县": 306,
      "参": 307,
      "又": 308,
      "及": 309,
      "友": 310,
      "双": 311,
      "反": 312,
      "发": 313,
      "取": 314,
      "受": 315,
      "变": 316,
      "口": 317,
      "古": 318,
      "另": 319,
      "只": 320,
      "可": 321,
      "台": 322,
      "史": 323,
      "右": 324,
      "叶": 325,
      "号": 326,
      "司": 327,
      "各": 328,
      "合": 329,
      "吉": 330,
      "同": 331,
      "名": 332,
      "后": 333,
      "向": 334,
      "含": 335,
      "吴": 336,
      "告": 337,
      "员": 338,
      "周": 339,
      "命": 340,
      "和": 341,
      "品": 342,
      "哈": 343,
      "响": 344,
      "哥": 345,
      "唐": 346,
      "唱": 347,
      "商": 348,
      "嘉": 349,
      "器": 350,
      "四": 351,
      "回": 352,
      "因": 353,
      "团": 354,
      "园": 355,
      "围": 356,
      "国": 357,
      "图": 358,
      "土": 359,
      "圣": 360,
      "在": 361,
      "地": 362,
      "场": 363,
      "均": 364,
      "坦": 365,
      "型": 366,
      "埃": 367,
      "城": 368,
      "域": 369,
      "基": 370,
      "堂": 371,
      "堡": 372,
      "塔": 373,
      "塞": 374,
      "境": 375,
      "增": 376,
      "士": 377,
      "声": 378,
      "处": 379,
      "备": 380,
      "复": 381,
      "夏": 382,
      "外": 383,
      "多": 384,
      "大": 385,
      "天": 386,
      "太": 387,
      "夫": 388,
      "央": 389,
      "失": 390,
      "头": 391,
      "奇": 392,
      "奖": 393,
      "奥": 394,
      "女": 395,
      "她": 396,
      "好": 397,
      "如": 398,
      "姆": 399,
      "始": 400,
      "委": 401,
      "威": 402,
      "子": 403,
      "字": 404,
      "存": 405,
      "孙": 406,
      "季": 407,
      "学": 408,
      "宁": 409,
      "它": 410,
      "守": 411,
      "安": 412,
      "宋": 413,
      "完": 414,
      "宗": 415,
      "官": 416,
      "定": 417,
      "宝": 418,
      "实": 419,
      "客": 420,
      "宣": 421,
      "室": 422,
      "宫": 423,
      "家": 424,
      "容": 425,
      "密": 426,
      "富": 427,
      "察": 428,
      "对": 429,
      "寺": 430,
      "导": 431,
      "封": 432,
      "射": 433,
      "将": 434,
      "小": 435,
      "少": 436,
      "尔": 437,
      "尚": 438,
      "就": 439,
      "尼": 440,
      "局": 441,
      "层": 442,
      "居": 443,
      "届": 444,
      "展": 445,
      "属": 446,
      "山": 447,
      "岁": 448,
      "岛": 449,
      "岸": 450,
      "川": 451,
      "州": 452,
      "工": 453,
      "左": 454,
      "己": 455,
      "已": 456,
      "巴": 457,
      "币": 458,
      "市": 459,
      "布": 460,
      "师": 461,
      "希": 462,
      "帝": 463,
      "带": 464,
      "席": 465,
      "常": 466,
      "干": 467,
      "平": 468,
      "年": 469,
      "并": 470,
      "广": 471,
      "庄": 472,
      "庆": 473,
      "库": 474,
      "应": 475,
      "底": 476,
      "店": 477,
      "府": 478,
      "度": 479,
      "座": 480,
      "庭": 481,
      "康": 482,
      "延": 483,
      "建": 484,
      "开": 485,
      "式": 486,
      "引": 487,
      "弗": 488,
      "弟": 489,
      "张": 490,
      "弹": 491,
      "强": 492,
      "归": 493,
      "当": 494,
      "录": 495,
      "形": 496,
      "影": 497,
      "役": 498,
      "往": 499,
      "征": 500,
      "很": 501,
      "律": 502,
      "得": 503,
      "德": 504,
      "心": 505,
      "必": 506,
      "志": 507,
      "快": 508,
      "念": 509,
      "态": 510,
      "思": 511,
      "性": 512,
      "总": 513,
      "恩": 514,
      "息": 515,
      "情": 516,
      "想": 517,
      "意": 518,
      "感": 519,
      "戏": 520,
      "成": 521,
      "我": 522,
      "或": 523,
      "战": 524,
      "户": 525,
      "房": 526,
      "所": 527,
      "手": 528,
      "才": 529,
      "打": 530,
      "托": 531,
      "执": 532,
      "批": 533,
      "承": 534,
      "技": 535,
      "把": 536,
      "投": 537,
      "抗": 538,
      "护": 539,
      "报": 540,
      "担": 541,
      "拉": 542,
      "拍": 543,
      "拔": 544,
      "拥": 545,
      "括": 546,
      "拿": 547,
      "持": 548,
      "指": 549,
      "换": 550,
      "据": 551,
      "授": 552,
      "排": 553,
      "接": 554,
      "控": 555,
      "推": 556,
      "提": 557,
      "播": 558,
      "支": 559,
      "收": 560,
      "改": 561,
      "攻": 562,
      "放": 563,
      "政": 564,
      "故": 565,
      "效": 566,
      "教": 567,
      "数": 568,
      "整": 569,
      "文": 570,
      "斗": 571,
      "料": 572,
      "断": 573,
      "斯": 574,
      "新": 575,
      "方": 576,
      "施": 577,
      "旅": 578,
      "族": 579,
      "旗": 580,
      "无": 581,
      "日": 582,
      "旧": 583,
      "早": 584,
      "时": 585,
      "明": 586,
      "易": 587,
      "星": 588,
      "春": 589,
      "是": 590,
      "显": 591,
      "晚": 592,
      "普": 593,
      "景": 594,
      "曲": 595,
      "更": 596,
      "曼": 597,
      "曾": 598,
      "最": 599,
      "月": 600,
      "有": 601,
      "服": 602,
      "朗": 603,
      "望": 604,
      "朝": 605,
      "期": 606,
      "木": 607,
      "未": 608,
      "本": 609,
      "术": 610,
      "机": 611,
      "杀": 612,
      "权": 613,
      "李": 614,
      "村": 615,
      "束": 616,
      "条": 617,
      "来": 618,
      "杨": 619,
      "松": 620,
      "极": 621,
      "构": 622,
      "林": 623,
      "果": 624,
      "枪": 625,
      "架": 626,
      "查": 627,
      "标": 628,
      "树": 629,
      "校": 630,
      "样": 631,
      "核": 632,
      "根": 633,
      "格": 634,
      "案": 635,
      "桥": 636,
      "梁": 637,
      "梅": 638,
      "森": 639,
      "楼": 640,
      "模": 641,
      "次": 642,
      "欧": 643,
      "歌": 644,
      "止": 645,
      "正": 646,
      "此": 647,
      "步": 648,
      "武": 649,
      "死": 650,
      "段": 651,
      "母": 652,
      "每": 653,
      "比": 654,
      "毕": 655,
      "毛": 656,
      "氏": 657,
      "民": 658,
      "气": 659,
      "水": 660,
      "永": 661,
      "求": 662,
      "汉": 663,
      "江": 664,
      "沙": 665,
      "没": 666,
      "河": 667,
      "油": 668,
      "治": 669,
      "法": 670,
      "波": 671,
      "注": 672,
      "泰": 673,
      "洋": 674,
      "洛": 675,
      "洲": 676,
      "活": 677,
      "派": 678,
      "流": 679,
      "测": 680,
      "济": 681,
      "海": 682,
      "消": 683,
      "深": 684,
      "清": 685,
      "温": 686,
      "港": 687,
      "游": 688,
      "湖": 689,
      "湾": 690,
      "源": 691,
      "满": 692,
      "演": 693,
      "澳": 694,
      "火": 695,
      "炮": 696,
      "点": 697,
      "热": 698,
      "然": 699,
      "照": 700,
      "爱": 701,
      "父": 702,
      "片": 703,
      "版": 704,
      "牌": 705,
      "牙": 706,
      "物": 707,
      "特": 708,
      "状": 709,
      "独": 710,
      "率": 711,
      "王": 712,
      "玛": 713,
      "环": 714,
      "现": 715,
      "班": 716,
      "球": 717,
      "理": 718,
      "瑞": 719,
      "瓦": 720,
      "生": 721,
      "用": 722,
      "田": 723,
      "由": 724,
      "甲": 725,
      "电": 726,
      "男": 727,
      "画": 728,
      "界": 729,
      "留": 730,
      "病": 731,
      "登": 732,
      "白": 733,
      "百": 734,
      "的": 735,
      "皇": 736,
      "监": 737,
      "盟": 738,
      "目": 739,
      "直": 740,
      "相": 741,
      "省": 742,
      "看": 743,
      "真": 744,
      "着": 745,
      "督": 746,
      "知": 747,
      "石": 748,
      "研": 749,
      "破": 750,
      "确": 751,
      "示": 752,
      "礼": 753,
      "社": 754,
      "祖": 755,
      "神": 756,
      "票": 757,
      "福": 758,
      "离": 759,
      "种": 760,
      "科": 761,
      "秘": 762,
      "积": 763,
      "称": 764,
      "移": 765,
      "程": 766,
      "究": 767,
      "空": 768,
      "突": 769,
      "立": 770,
      "站": 771,
      "章": 772,
      "第": 773,
      "等": 774,
      "筑": 775,
      "策": 776,
      "签": 777,
      "简": 778,
      "算": 779,
      "管": 780,
      "米": 781,
      "类": 782,
      "精": 783,
      "系": 784,
      "素": 785,
      "索": 786,
      "红": 787,
      "约": 788,
      "级": 789,
      "纪": 790,
      "纳": 791,
      "线": 792,
      "练": 793,
      "组": 794,
      "细": 795,
      "织": 796,
      "终": 797,
      "经": 798,
      "结": 799,
      "给": 800,
      "绝": 801,
      "统": 802,
      "继": 803,
      "续": 804,
      "维": 805,
      "编": 806,
      "网": 807,
      "罗": 808,
      "置": 809,
      "署": 810,
      "美": 811,
      "群": 812,
      "老": 813,
      "考": 814,
      "者": 815,
      "而": 816,
      "职": 817,
      "联": 818,
      "股": 819,
      "育": 820,
      "背": 821,
      "胜": 822,
      "胡": 823,
      "能": 824,
      "自": 825,
      "至": 826,
      "致": 827,
      "航": 828,
      "般": 829,
      "舰": 830,
      "船": 831,
      "良": 832,
      "色": 833,
      "艺": 834,
      "节": 835,
      "花": 836,
      "苏": 837,
      "英": 838,
      "范": 839,
      "草": 840,
      "莫": 841,
      "莱": 842,
      "获": 843,
      "营": 844,
      "萨": 845,
      "落": 846,
      "著": 847,
      "蒂": 848,
      "蒙": 849,
      "藏": 850,
      "虽": 851,
      "行": 852,
      "街": 853,
      "表": 854,
      "被": 855,
      "装": 856,
      "西": 857,
      "要": 858,
      "见": 859,
      "观": 860,
      "规": 861,
      "视": 862,
      "角": 863,
      "解": 864,
      "言": 865,
      "警": 866,
      "计": 867,
      "认": 868,
      "让": 869,
      "议": 870,
      "记": 871,
      "许": 872,
      "论": 873,
      "设": 874,
      "证": 875,
      "评": 876,
      "识": 877,
      "词": 878,
      "试": 879,
      "话": 880,
      "该": 881,
      "语": 882,
      "说": 883,
      "请": 884,
      "诺": 885,
      "读": 886,
      "调": 887,
      "谢": 888,
      "象": 889,
      "贝": 890,
      "负": 891,
      "责": 892,
      "败": 893,
      "质": 894,
      "费": 895,
      "资": 896,
      "赛": 897,
      "走": 898,
      "赵": 899,
      "起": 900,
      "超": 901,
      "越": 902,
      "足": 903,
      "路": 904,
      "身": 905,
      "车": 906,
      "转": 907,
      "轮": 908,
      "轻": 909,
      "载": 910,
      "较": 911,
      "辑": 912,
      "辖": 913,
      "边": 914,
      "达": 915,
      "过": 916,
      "运": 917,
      "近": 918,
      "还": 919,
      "这": 920,
      "进": 921,
      "远": 922,
      "连": 923,
      "迪": 924,
      "述": 925,
      "退": 926,
      "送": 927,
      "选": 928,
      "逐": 929,
      "通": 930,
      "速": 931,
      "造": 932,
      "道": 933,
      "遗": 934,
      "遭": 935,
      "那": 936,
      "邦": 937,
      "郡": 938,
      "部": 939,
      "都": 940,
      "配": 941,
      "采": 942,
      "里": 943,
      "重": 944,
      "量": 945,
      "金": 946,
      "铁": 947,
      "银": 948,
      "镇": 949,
      "长": 950,
      "门": 951,
      "问": 952,
      "间": 953,
      "闻": 954,
      "队": 955,
      "防": 956,
      "阳": 957,
      "阿": 958,
      "附": 959,
      "际": 960,
      "陆": 961,
      "陈": 962,
      "降": 963,
      "限": 964,
      "院": 965,
      "除": 966,
      "隆": 967,
      "随": 968,
      "难": 969,
      "雄": 970,
      "集": 971,
      "雷": 972,
      "需": 973,
      "青": 974,
      "非": 975,
      "面": 976,
      "革": 977,
      "韩": 978,
      "音": 979,
      "项": 980,
      "顺": 981,
      "顿": 982,
      "预": 983,
      "领": 984,
      "题": 985,
      "风": 986,
      "飞": 987,
      "食": 988,
      "馆": 989,
      "首": 990,
      "香": 991,
      "马": 992,
      "驻": 993,
      "验": 994,
      "高": 995,
      "鱼": 996,
      "鲁": 997,
      "黄": 998,
      "黑": 999,
      "齐": 1000,
      "龙": 1001,
      "�": 1002,
      "\\x": 1003,
      "\\xe": 1004,
      "\\x8": 1005,
      "\\xb": 1006,
      "\\x9": 1007,
      "▁t": 1008,
      "\\xa": 1009,
      "▁a": 1010,
      "he": 1011,
      "in": 1012,
      "\\xe5": 1013,
      "re": 1014,
      "on": 1015,
      "▁the": 1016,
      "er": 1017,
      "\\xe6": 1018,
      "at": 1019,
      "▁o": 1020,
      "▁s": 1021,
      "\\xe7": 1022,
      "nd": 1023,
      "▁w": 1024,
      "or": 1025,
      "en": 1026,
      "it": 1027,
      "is": 1028,
      "▁c": 1029,
      "es": 1030,
      "ed": 1031,
      "an": 1032,
      "4\\xb": 1033,
      "al": 1034,
      "▁f": 1035,
      "\\xe8": 1036,
      "ing": 1037,
      "▁b": 1038,
      "ar": 1039,
      "▁p": 1040,
      "▁of": 1041,
      "▁in": 1042,
      "\\xe4\\xb": 1043,
      "\\xe5\\x8": 1044,
      "ou": 1045,
      "\\xe9": 1046,
      "▁to": 1047,
      "\\xe6\\x9": 1048,
      "▁and": 1049,
      "\\x80": 1050,
      "ion": 1051,
      "c\\x8": 1052,
      "ic": 1053,
      "▁m": 1054,
      "as": 1055,
      "\\xe5\\xb": 1056,
      "le": 1057,
      "▁d": 1058,
      "ro": 1059,
      "f\\xb": 1060,
      "▁h": 1061,
      "\\xe7\\x9": 1062,
      "ent": 1063,
      "AR": 1064,
      "\\xe5\\x9": 1065,
      "\\xef\\xb": 1066,
      "▁th": 1067,
      "\\xe5\\xa": 1068,
      "▁T": 1069,
      "il": 1070,
      "\\xef\\xbc\\x8": 1071,
      "\\x80\\x8": 1072,
      "st": 1073,
      "▁re": 1074,
      "om": 1075,
      "▁S": 1076,
      "ct": 1077,
      "_S": 1078,
      "\\xe3": 1079,
      "▁A": 1080,
      "▁I": 1081,
      "\\xe3\\x80\\x8": 1082,
      "▁C": 1083,
      "▁e": 1084,
      "▁l": 1085,
      "▁n": 1086,
      "el": 1087,
      "et": 1088,
      "\\xef\\xbc\\x8c": 1089,
      "ART": 1090,
      "a\\x8": 1091,
      "NE": 1092,
      "am": 1093,
      "ol": 1094,
      "\\xe8\\xa": 1095,
      "id": 1096,
      "ve": 1097,
      "ut": 1098,
      "ot": 1099,
      "ation": 1100,
      "_ST": 1101,
      "_START": 1102,
      "▁g": 1103,
      "▁is": 1104,
      "ur": 1105,
      "ad": 1106,
      "\\xe4\\xb8": 1107,
      "ce": 1108,
      "▁for": 1109,
      "im": 1110,
      "▁M": 1111,
      "ch": 1112,
      "▁on": 1113,
      "us": 1114,
      "\\xe6\\x8": 1115,
      "ly": 1116,
      "▁be": 1117,
      "ow": 1118,
      "▁1": 1119,
      "\\xe6\\xb": 1120,
      "ig": 1121,
      "\\xe9\\x9": 1122,
      "\\xa8": 1123,
      "ay": 1124,
      "20": 1125,
      "\\xe7\\x8": 1126,
      "ver": 1127,
      "▁P": 1128,
      "od": 1129,
      "▁B": 1130,
      "9\\xb": 1131,
      "\\xe7\\xb": 1132,
      "\\xe9\\x8": 1133,
      "▁that": 1134,
      "\\xe7\\x9a\\x8": 1135,
      "ir": 1136,
      "\\xe7\\x9a\\x84": 1137,
      "ith": 1138,
      "\\xad": 1139,
      "▁The": 1140,
      "▁st": 1141,
      "\\xe8\\x8": 1142,
      "▁H": 1143,
      "▁(": 1144,
      "▁_START": 1145,
      "\\xaf": 1146,
      "\\xe8\\xb": 1147,
      "▁y": 1148,
      "▁as": 1149,
      "\\x8b": 1150,
      "ter": 1151,
      "ra": 1152,
      "ul": 1153,
      "▁with": 1154,
      "\\xba": 1155,
      "\\xe3\\x80\\x82": 1156,
      "her": 1157,
      "un": 1158,
      "▁D": 1159,
      "▁was": 1160,
      "em": 1161,
      "\\x8d": 1162,
      "▁an": 1163,
      "▁F": 1164,
      "▁R": 1165,
      "se": 1166,
      "▁W": 1167,
      "▁pro": 1168,
      "▁it": 1169,
      "\\xa5": 1170,
      "▁wh": 1171,
      "▁con": 1172,
      "s,": 1173,
      "\\n": 1174,
      "LI": 1175,
      "\\x8c": 1176,
      "▁al": 1177,
      "5\\xb": 1178,
      "s.": 1179,
      "NEW": 1180,
      "LINE": 1181,
      "if": 1182,
      "_NEW": 1183,
      "_NEWLINE": 1184,
      "▁<": 1185,
      "ag": 1186,
      "ri": 1187,
      "_NEWLINE_": 1188,
      "\\xab": 1189,
      "ate": 1190,
      "ist": 1191,
      "▁L": 1192,
      "\\xac": 1193,
      "▁he": 1194,
      "th": 1195,
      "est": 1196,
      "ac": 1197,
      "▁E": 1198,
      "pp": 1199,
      "▁N": 1200,
      "p>": 1201,
      "▁at": 1202,
      "▁20": 1203,
      "\\x9f": 1204,
      "▁or": 1205,
      "▁G": 1206,
      "▁you": 1207,
      "ment": 1208,
      "ill": 1209,
      "ab": 1210,
      "and": 1211,
      "RA": 1212,
      "▁com": 1213,
      "op": 1214,
      "▁by": 1215,
      "ers": 1216,
      "qu": 1217,
      "ity": 1218,
      "ew": 1219,
      "ere": 1220,
      "AG": 1221,
      "_P": 1222,
      "PH": 1223,
      "oc": 1224,
      "\\xa6": 1225,
      "\\x97": 1226,
      "RAPH": 1227,
      "_PAR": 1228,
      "AGRAPH": 1229,
      "_PARAGRAPH": 1230,
      "_PARAGRAPH_": 1231,
      "\\x96": 1232,
      "▁de": 1233,
      "▁are": 1234,
      "\\xa3": 1235,
      "\\xe6\\x96": 1236,
      "rom": 1237,
      "um": 1238,
      "\\xa1": 1239,
      "ore": 1240,
      "8\\x8": 1241,
      "ect": 1242,
      "▁v": 1243,
      "ld": 1244,
      "ess": 1245,
      "</": 1246,
      "\\xe4\\xbb": 1247,
      "8\\xb": 1248,
      "\\xa7": 1249,
      "ON": 1250,
      "ain": 1251,
      "▁J": 1252,
      "\\xa9": 1253,
      "\\xe5\\x9c": 1254,
      "\\xe5\\x85": 1255,
      "\\xa0": 1256,
      "▁O": 1257,
      "\\x91": 1258,
      "ort": 1259,
      "iv": 1260,
      "▁ex": 1261,
      "TI": 1262,
      "ke": 1263,
      "t;": 1264,
      "EC": 1265,
      "d\\xb": 1266,
      "\\xe5\\xb9\\xb": 1267,
      "art": 1268,
      "\\xe6\\x9c\\x8": 1269,
      "ies": 1270,
      "ht": 1271,
      "res": 1272,
      "os": 1273,
      "TION": 1274,
      "▁se": 1275,
      "\\x8a": 1276,
      "ant": 1277,
      "▁su": 1278,
      "▁from": 1279,
      "\\xbb": 1280,
      "nt": 1281,
      "ECTION": 1282,
      "\\x90": 1283,
      "\\x99": 1284,
      "_SECTION": 1285,
      "_SECTION_": 1286,
      "ode": 1287,
      "\\xe5\\xa4": 1288,
      "00": 1289,
      "ud": 1290,
      "▁ha": 1291,
      "▁r": 1292,
      "\\xe4\\xba": 1293,
      "\\x89": 1294,
      "\\x94": 1295,
      "ive": 1296,
      "\\xa2": 1297,
      "\\xae": 1298,
      "\\xe5\\x8f": 1299,
      "\\x9e": 1300,
      "\\x9a": 1301,
      "\\xe5\\xbe": 1302,
      "\\xe5\\xb9\\xb4": 1303,
      "pt": 1304,
      "all": 1305,
      "▁not": 1306,
      "19": 1307,
      "pe": 1308,
      "'s": 1309,
      "▁U": 1310,
      "▁In": 1311,
      "▁19": 1312,
      "▁_START_PARAGRAPH_": 1313,
      "our": 1314,
      "▁this": 1315,
      "ial": 1316,
      "ust": 1317,
      "0\\x8": 1318,
      "▁ch": 1319,
      "▁\"": 1320,
      "ear": 1321,
      "ard": 1322,
      "ber": 1323,
      "\\xe5\\xae": 1324,
      "\\x9b": 1325,
      "e.": 1326,
      "▁have": 1327,
      "▁us": 1328,
      "\\xe3\\x80\\x81": 1329,
      "e,": 1330,
      "▁sh": 1331,
      "\\xaa": 1332,
      "code": 1333,
      "ure": 1334,
      "\\n_START": 1335,
      "▁le": 1336,
      "..": 1337,
      "code>": 1338,
      "\\xe6\\x96\\xb": 1339,
      "ich": 1340,
      "\\x95": 1341,
      "▁u": 1342,
      "\\xe5\\x8d": 1343,
      "\\x93": 1344,
      "ost": 1345,
      "’s": 1346,
      "og": 1347,
      "b\\xb": 1348,
      "rou": 1349,
      "ork": 1350,
      "ight": 1351,
      "▁_START_SECTION_": 1352,
      "ated": 1353,
      "out": 1354,
      "ong": 1355,
      "▁St": 1356,
      "pl": 1357,
      "ell": 1358,
      "▁pl": 1359,
      "▁his": 1360,
      "\\x98": 1361,
      "are": 1362,
      "ge": 1363,
      "▁2": 1364,
      "ould": 1365,
      "\\xe9\\x81": 1366,
      "\\x82": 1367,
      "per": 1368,
      "ary": 1369,
      "▁can": 1370,
      "▁<p>": 1371,
      "ia": 1372,
      "▁K": 1373,
      "\\x9c": 1374,
      "\\xe5\\x9c\\xa8": 1375,
      "ame": 1376,
      "ire": 1377,
      "▁we": 1378,
      "ther": 1379,
      "ip": 1380,
      "\\xa4": 1381,
      "ome": 1382,
      "ction": 1383,
      "ub": 1384,
      "\\xbd": 1385,
      "ff": 1386,
      "ast": 1387,
      "▁ab": 1388,
      "cl": 1389,
      "▁whe": 1390,
      "ine": 1391,
      "\\xe4\\xbd": 1392,
      "ak": 1393,
      "▁j": 1394,
      "▁has": 1395,
      "av": 1396,
      "\\xe7\\x82": 1397,
      "\\xe6\\x98": 1398,
      "\\xe4\\xba\\x8": 1399,
      "▁int": 1400,
      "</p>": 1401,
      "ack": 1402,
      "ok": 1403,
      "cc": 1404,
      "\\xe4\\xb8\\x80": 1405,
      "▁which": 1406,
      "ical": 1407,
      "\\xe9\\x80": 1408,
      "\\xe6\\x9c": 1409,
      "\\x87": 1410,
      "▁k": 1411,
      "iz": 1412,
      "▁201": 1413,
      "\\x81": 1414,
      "\\x8e": 1415,
      "so": 1416,
      "\\x86": 1417,
      "▁ad": 1418,
      "\\xe7\\x82\\xba": 1419,
      "orm": 1420,
      "▁comp": 1421,
      "\\x9d": 1422,
      "ry": 1423,
      "0\\xb": 1424,
      "▁Th": 1425,
      "▁all": 1426,
      "▁but": 1427,
      "ord": 1428,
      "gt;": 1429,
      "&gt;": 1430,
      "ru": 1431,
      "▁cl": 1432,
      "ian": 1433,
      "▁cont": 1434,
      "\\xe4\\xb8\\xad": 1435,
      "ass": 1436,
      "▁im": 1437,
      "ide": 1438,
      "\\x8f": 1439,
      "LE": 1440,
      "▁Ch": 1441,
      "\\xe5\\x9c\\x8": 1442,
      "gh": 1443,
      "ap": 1444,
      "able": 1445,
      "ult": 1446,
      "\\xb7": 1447,
      "IC": 1448,
      "\\x85": 1449,
      "▁do": 1450,
      "\\xe4\\xba\\xba": 1451,
      "▁res": 1452,
      "age": 1453,
      "\\x92": 1454,
      "ition": 1455,
      "pre": 1456,
      "\\xe6\\xad": 1457,
      "\\x83": 1458,
      "▁go": 1459,
      "▁un": 1460,
      "▁V": 1461,
      "▁ne": 1462,
      "▁their": 1463,
      "▁“": 1464,
      "ib": 1465,
      "\\xe5\\x9c\\x8b": 1466,
      "\\xe7\\x94": 1467,
      "▁app": 1468,
      "\\xb3": 1469,
      "ran": 1470,
      "lt;": 1471,
      "&lt;": 1472,
      "▁will": 1473,
      "\\xe5\\x90": 1474,
      "ous": 1475,
      "ice": 1476,
      "ind": 1477,
      "▁were": 1478,
      "--": 1479,
      "\\xe8\\xa1": 1480,
      "erv": 1481,
      "ile": 1482,
      "ue": 1483,
      "ARTIC": 1484,
      "LE_": 1485,
      "▁en": 1486,
      "es,": 1487,
      "_ARTIC": 1488,
      "_ARTICLE_": 1489,
      "ign": 1490,
      "ie": 1491,
      "du": 1492,
      "\\xe6\\x98\\xaf": 1493,
      "port": 1494,
      "▁who": 1495,
      "act": 1496,
      "\\xb2": 1497,
      "▁also": 1498,
      "\\x88": 1499,
      "\\xe5\\xb7": 1500,
      "\\xe4\\xb9": 1501,
      "▁work": 1502,
      "any": 1503,
      "▁te": 1504,
      "ally": 1505,
      "lic": 1506,
      "▁ar": 1507,
      "▁Y": 1508,
      "._NEWLINE_": 1509,
      "▁3": 1510,
      "▁He": 1511,
      "ount": 1512,
      "con": 1513,
      "te": 1514,
      "\\xe6\\x97": 1515,
      "ory": 1516,
      "▁they": 1517,
      "form": 1518,
      "ence": 1519,
      "),": 1520,
      "▁other": 1521,
      "▁out": 1522,
      "ach": 1523,
      "▁It": 1524,
      "▁=": 1525,
      "▁part": 1526,
      "▁one": 1527,
      "ance": 1528,
      "\\xb1": 1529,
      "ish": 1530,
      "▁had": 1531,
      "▁year": 1532,
      "es.": 1533,
      "\\xe6\\x9c\\x89": 1534,
      "▁Re": 1535,
      "\\x84": 1536,
      "▁tim": 1537,
      "vel": 1538,
      "\\xe5\\xa4\\xa7": 1539,
      "\\xe9\\x87": 1540,
      "nder": 1541,
      "\\xb0": 1542,
      "▁me": 1543,
      "pre>": 1544,
      "mer": 1545,
      "irst": 1546,
      "\\xe6\\x99": 1547,
      "ail": 1548,
      "5\\xb7": 1549,
      "rit": 1550,
      "ook": 1551,
      "\\xe5\\xb1": 1552,
      "vers": 1553,
      "one": 1554,
      "▁per": 1555,
      "▁ag": 1556,
      "ake": 1557,
      "\\xe5\\x80": 1558,
      "ild": 1559,
      "\\xe6\\x88": 1560,
      "▁more": 1561,
      "▁your": 1562,
      "▁up": 1563,
      "▁dis": 1564,
      "\\xef\\xbc\\x88": 1565,
      "\\xef\\xbc\\x89": 1566,
      "ang": 1567,
      "▁new": 1568,
      "ations": 1569,
      "ions": 1570,
      "y,": 1571,
      "int": 1572,
      "▁its": 1573,
      "\\xb6": 1574,
      "\\xe6\\x96\\xbc": 1575,
      "\\xe5\\xb0\\x8": 1576,
      "ace": 1577,
      "ark": 1578,
      "▁any": 1579,
      "now": 1580,
      "\\xe9\\x9b": 1581,
      "\\xe8\\x87": 1582,
      "\\xe9\\x83": 1583,
      "fter": 1584,
      "\\xe5\\x92": 1585,
      "\\xe9\\x96": 1586,
      "▁off": 1587,
      "com": 1588,
      "=\"": 1589,
      "ater": 1590,
      "ound": 1591,
      ").": 1592,
      "ose": 1593,
      "▁been": 1594,
      "▁so": 1595,
      "ov": 1596,
      "▁li": 1597,
      "ll": 1598,
      "\\xe5\\x92\\x8c": 1599,
      "\\xe5\\x85\\xb": 1600,
      "▁my": 1601,
      "aw": 1602,
      "▁Un": 1603,
      "ree": 1604,
      "clud": 1605,
      "ase": 1606,
      "amp": 1607,
      "▁about": 1608,
      "very": 1609,
      "oll": 1610,
      "ric": 1611,
      "_PARAGRAPH_\\n": 1612,
      "\\n_START_PARAGRAPH_\\n": 1613,
      "\\xe6\\x94\\xb": 1614,
      "▁200": 1615,
      "▁first": 1616,
      "▁there": 1617,
      "▁her": 1618,
      "\\xe8\\x80\\x8": 1619,
      "▁ev": 1620,
      "\\xe5\\xba": 1621,
      "\\xe7\\xb4": 1622,
      ");": 1623,
      "ens": 1624,
      "xt": 1625,
      "▁sc": 1626,
      "ress": 1627,
      "ove": 1628,
      "ject": 1629,
      "8\\xb0": 1630,
      "▁comm": 1631,
      "ob": 1632,
      "red": 1633,
      "ck": 1634,
      "▁am": 1635,
      "\\xe5\\xad": 1636,
      "▁would": 1637,
      "\\xe4\\xba\\x86": 1638,
      "10": 1639,
      "▁when": 1640,
      "hed": 1641,
      "▁qu": 1642,
      "\\xe8\\x88\\x8": 1643,
      "▁De": 1644,
      "\\xe8\\xa6": 1645,
      "\\xe4\\xbb\\xa5": 1646,
      "▁_START_ARTICLE_": 1647,
      "\\xe6\\x9c\\x88": 1648,
      "ite": 1649,
      "。_NEWLINE_": 1650,
      "▁bec": 1651,
      "tern": 1652,
      "\\xe5\\xbe\\x8c": 1653,
      "wo": 1654,
      "\\xe8\\xbb": 1655,
      "reat": 1656,
      "ng": 1657,
      "ational": 1658,
      "ool": 1659,
      "\\xe5\\x88": 1660,
      "▁</": 1661,
      "ph": 1662,
      "\\xe5\\x8b": 1663,
      "old": 1664,
      "oy": 1665,
      "ely": 1666,
      "▁4": 1667,
      "▁over": 1668,
      "\\xe5\\x8a": 1669,
      "\\xe4\\xbe": 1670,
      "ram": 1671,
      "▁&lt;": 1672,
      "\\xe7\\x99\\xb": 1673,
      "ents": 1674,
      "d\\xb8": 1675,
      "▁pe": 1676,
      "▁includ": 1677,
      "▁if": 1678,
      "\\xe7\\xbe": 1679,
      "wn": 1680,
      "aus": 1681,
      "\\xe6\\x99\\x82": 1682,
      "▁Com": 1683,
      "▁some": 1684,
      "\\xe3\\x80\\x82_NEWLINE_": 1685,
      "▁pre": 1686,
      "\\xe5\\xad\\xb8": 1687,
      "\\xe6\\xb3": 1688,
      "\\xe6\\x89": 1689,
      "\\xe6\\x97\\xa5": 1690,
      "ual": 1691,
      "erm": 1692,
      "ne": 1693,
      "ning": 1694,
      "//": 1695,
      "▁rec": 1696,
      "▁under": 1697,
      "▁know": 1698,
      "▁acc": 1699,
      "▁ro": 1700,
      "▁This": 1701,
      "\\xe7\\x89": 1702,
      "▁them": 1703,
      "ade": 1704,
      "\\xe5\\xb0": 1705,
      "li": 1706,
      "200": 1707,
      "\\xe3\\x80\\x8d": 1708,
      "\\xe3\\x80\\x8c": 1709,
      "▁-": 1710,
      "iew": 1711,
      "201": 1712,
      "\\xe6\\x95": 1713,
      "▁sp": 1714,
      "▁into": 1715,
      "▁Se": 1716,
      "ces": 1717,
      "we": 1718,
      "ors": 1719,
      "\\xe5\\x87": 1720,
      "ring": 1721,
      "a,": 1722,
      "ss": 1723,
      "▁18": 1724,
      "\\xe6\\x9c\\x83": 1725,
      "▁get": 1726,
      "▁5": 1727,
      "ced": 1728,
      "\\xe6\\xb2": 1729,
      "\\xe5\\x9b": 1730,
      "\\xe6\\x9b\\xb": 1731,
      "iss": 1732,
      "_SECTION_\\n": 1733,
      "\\n_START_SECTION_\\n": 1734,
      "\\xe5\\x8c": 1735,
      "ople": 1736,
      "3\\xbd": 1737,
      "ities": 1738,
      "ath": 1739,
      "\\xe7\\x94\\xb": 1740,
      "\\xe7\\xa8": 1741,
      "▁des": 1742,
      "\\xe6\\x9d": 1743,
      "▁}": 1744,
      "end": 1745,
      "\\xe5\\x8f\\xb": 1746,
      "▁spe": 1747,
      "▁rel": 1748,
      "▁ind": 1749,
      "\\xe9\\xab": 1750,
      "fere": 1751,
      "The": 1752,
      "urn": 1753,
      "\\xe5\\x9c\\xb0": 1754,
      "\\xe7\\xa": 1755,
      "lect": 1756,
      "igh": 1757,
      "▁like": 1758,
      "▁two": 1759,
      "▁prov": 1760,
      "\\xe7\\xab": 1761,
      "y.": 1762,
      "▁than": 1763,
      "ug": 1764,
      "\\xe4\\xb8\\x8d": 1765,
      "ing,": 1766,
      "\\xe6\\x88\\x90": 1767,
      "ont": 1768,
      "ublic": 1769,
      "ock": 1770,
      "ays": 1771,
      "ates": 1772,
      "▁cons": 1773,
      "\\xe5\\xbb": 1774,
      "\\xe4\\xbb\\x96": 1775,
      "ited": 1776,
      "▁$": 1777,
      "\\xe9\\x9d": 1778,
      "\\xe7\\xb6": 1779,
      "\\xe4\\xb8\\x8a": 1780,
      "eth": 1781,
      "▁sa": 1782,
      "\\xb4": 1783,
      "▁bet": 1784,
      "▁after": 1785,
      "▁how": 1786,
      "▁'": 1787,
      "▁reg": 1788,
      "\\xe5\\xaf": 1789,
      "▁stud": 1790,
      "▁what": 1791,
      "▁{": 1792,
      "▁ret": 1793,
      "uring": 1794,
      "▁time": 1795,
      "hip": 1796,
      "ick": 1797,
      "ans": 1798,
      "▁serv": 1799,
      "▁act": 1800,
      "ious": 1801,
      "▁she": 1802,
      "\\xe5\\x89": 1803,
      "own": 1804,
      "\\xe5\\x93": 1805,
      "▁fe": 1806,
      "ons": 1807,
      "rans": 1808,
      "rough": 1809,
      "ps": 1810,
      "▁people": 1811,
      "▁0": 1812,
      "\\xe5\\x87\\xba": 1813,
      "arch": 1814,
      "▁play": 1815,
      "▁Ar": 1816,
      "▁no": 1817,
      "ied": 1818,
      "ink": 1819,
      "\\xe5\\x80\\x8b": 1820,
      "▁our": 1821,
      "▁may": 1822,
      "▁bu": 1823,
      "▁em": 1824,
      "chool": 1825,
      "ings": 1826,
      "d\\xb1": 1827,
      "▁only": 1828,
      "\\xe8\\xaa": 1829,
      "ata": 1830,
      "ased": 1831,
      "\\xe6\\x8e": 1832,
      "▁inv": 1833,
      "ific": 1834,
      "▁man": 1835,
      "▁ass": 1836,
      "ft": 1837,
      "ener": 1838,
      "ond": 1839,
      "\\xe9\\xa0": 1840,
      "▁add": 1841,
      "ident": 1842,
      "cial": 1843,
      "rib": 1844,
      "\\xe5\\x85\\xac": 1845,
      "olog": 1846,
      "ood": 1847,
      "\\xe9\\xa6": 1848,
      "orld": 1849,
      "\\xe7\\xb5": 1850,
      "ered": 1851,
      "\\xe8\\x81": 1852,
      "\\xe5\\x8d\\x80": 1853,
      "18": 1854,
      "\\xe5\\xb8\\x8": 1855,
      "er,": 1856,
      "▁sub": 1857,
      "ward": 1858,
      "round": 1859,
      "▁<p>I": 1860,
      "▁tra": 1861,
      "gan": 1862,
      "land": 1863,
      "\\xe6\\x8b": 1864,
      "▁Pro": 1865,
      "▁such": 1866,
      "12": 1867,
      "\\xe8\\xa8": 1868,
      "\\xe8\\xa1\\x8c": 1869,
      "get": 1870,
      "\\xe9\\x83\\xa8": 1871,
      "▁most": 1872,
      "▁where": 1873,
      "cre": 1874,
      "oint": 1875,
      "ivers": 1876,
      "\\xb8": 1877,
      "\\xe8\\x88\\x87": 1878,
      "\\xe4\\xb9\\x8b": 1879,
      "\\xe9\\x99": 1880,
      "\\xe6\\xb0": 1881,
      "<code>": 1882,
      "▁Wh": 1883,
      "yst": 1884,
      "▁through": 1885,
      "ause": 1886,
      "ert": 1887,
      "\\xe6\\xa8": 1888,
      "io": 1889,
      "\\xe7\\x88\\xb": 1890,
      "▁need": 1891,
      "ollow": 1892,
      "er.": 1893,
      "▁6": 1894,
      "\\xef\\xbc": 1895,
      "\\xe7\\x94\\x9f": 1896,
      "▁New": 1897,
      "\\xe6\\xaf": 1898,
      "ax": 1899,
      "velop": 1900,
      "fore": 1901,
      "▁co": 1902,
      "erson": 1903,
      "ed.": 1904,
      "\\xe4\\xbd\\x9c": 1905,
      "’t": 1906,
      "▁col": 1907,
      "ating": 1908,
      "\\xe7\\x90\\x8": 1909,
      "\\xb5": 1910,
      "code></": 1911,
      "▁We": 1912,
      "▁use": 1913,
      "ular": 1914,
      "inal": 1915,
      "\\xe5\\x88\\xb0": 1916,
      "\\xbc": 1917,
      "ren": 1918,
      "hen": 1919,
      "ement": 1920,
      "oth": 1921,
      "...": 1922,
      "\\xe7\\x99\\xbc": 1923,
      "▁just": 1924,
      "code></pre>": 1925,
      "\\xe4\\xbf": 1926,
      "pport": 1927,
      "▁pr": 1928,
      "▁requ": 1929,
      "tt": 1930,
      "▁Al": 1931,
      "▁set": 1932,
      "\\xe6\\x93": 1933,
      "▁rem": 1934,
      "\\xe5\\x88\\x8": 1935,
      "▁</code></pre>": 1936,
      "a.": 1937,
      "cept": 1938,
      "elf": 1939,
      "ract": 1940,
      "▁exp": 1941,
      "ict": 1942,
      "\\xe8\\xb2": 1943,
      "\\xc": 1944,
      "▁att": 1945,
      "▁ac": 1946,
      "▁him": 1947,
      "rad": 1948,
      "▁dif": 1949,
      "11": 1950,
      "▁<pre>": 1951,
      "000": 1952,
      "ep": 1953,
      "ough": 1954,
      "▁imp": 1955,
      "▁ra": 1956,
      "▁<pre><code>": 1957,
      "▁form": 1958,
      "▁ent": 1959,
      "les": 1960,
      "▁these": 1961,
      "▁produ": 1962,
      "----": 1963,
      "ative": 1964,
      "\\xe5\\xae\\xb6": 1965,
      "ystem": 1966,
      "ing.": 1967,
      "ments": 1968,
      "ful": 1969,
      "\\xe3\\x80\\x8b": 1970,
      "\\xe3\\x80\\x8a": 1971,
      "\\xe4\\xb8\\xbb": 1972,
      "▁[": 1973,
      "let": 1974,
      "\\xe5\\x85\\xb6": 1975,
      "ed,": 1976,
      "▁hel": 1977,
      "▁An": 1978,
      "ution": 1979,
      "▁want": 1980,
      "\\xb9": 1981,
      "itt": 1982,
      "▁pos": 1983,
      "\\xe6\\x96\\xaf": 1984,
      "▁then": 1985,
      "▁well": 1986,
      "In": 1987,
      "row": 1988,
      "ility": 1989,
      "▁many": 1990,
      "ember": 1991,
      "\\xe7\\x94\\xa8": 1992,
      "ex": 1993,
      "meric": 1994,
      "und": 1995,
      "\\xe7\\xac": 1996,
      "▁7": 1997,
      "\\xe8\\x80\\x8c": 1998,
      "\\xe5\\xa7": 1999,
      "▁pol": 2000,
      "ason": 2001,
      "▁def": 2002,
      "\\xe6\\xa0": 2003,
      "\\xe8\\xa2": 2004,
      "▁inst": 2005,
      "rong": 2006,
      "ible": 2007,
      "cess": 2008,
      "\\xe6\\x96\\xb9": 2009,
      "▁–": 2010,
      "▁Le": 2011,
      "riv": 2012,
      "▁again": 2013,
      "ank": 2014,
      "▁loc": 2015,
      "\\xe8\\xa5\\xb": 2016,
      "\",": 2017,
      "://": 2018,
      "\\xe5\\xbc": 2019,
      "\\xe8\\xbb\\x8d": 2020,
      "irect": 2021,
      "\\xbe": 2022,
      "iel": 2023,
      "0\\xb4": 2024,
      "▁As": 2025,
      "ection": 2026,
      "▁ph": 2027,
      "orn": 2028,
      "oci": 2029,
      "ys": 2030,
      "**": 2031,
      "▁pres": 2032,
      "▁trans": 2033,
      "\\xe7\\x9b": 2034,
      "▁follow": 2035,
      "▁num": 2036,
      "\\xe5\\x90\\x8d": 2037,
      "vern": 2038,
      "▁bl": 2039,
      "▁.": 2040,
      "ween": 2041,
      "▁ob": 2042,
      "ision": 2043,
      "ever": 2044,
      "▁said": 2045,
      "\\xe9\\xbb": 2046,
      "amil": 2047,
      "\\xe3\\x80\\x82\\n_START_SECTION_\\n": 2048,
      "\\xe5\\x88\\x86": 2049,
      "▁way": 2050,
      "ife": 2051,
      "▁right": 2052,
      "ation,": 2053,
      "\\xe5\\x90\\x8": 2054,
      "</code>": 2055,
      "\\xe6\\xb1": 2056,
      "▁end": 2057,
      "oun": 2058,
      "1,": 2059,
      "\\xe5\\xa5\\xb": 2060,
      "▁call": 2061,
      "▁Americ": 2062,
      "\\xe7\\xa7": 2063,
      "\\xe8\\xa5\\xbf": 2064,
      "▁public": 2065,
      "ty": 2066,
      "other": 2067,
      "\\xe8\\xa2\\xab": 2068,
      "\\xe8\\xb3": 2069,
      "▁help": 2070,
      "9\\xb2": 2071,
      "▁10": 2072,
      "22": 2073,
      "\\xe7\\xac\\xac": 2074,
      "▁ear": 2075,
      "\\xe7\\x95": 2076,
      "▁develop": 2077,
      "▁make": 2078,
      "▁art": 2079,
      "▁&": 2080,
      "iversity": 2081,
      "ise": 2082,
      "\\xe4\\xbe\\x86": 2083,
      "gram": 2084,
      "ation.": 2085,
      "1.": 2086,
      "\\xe7\\xb7": 2087,
      "▁could": 2088,
      "ec": 2089,
      "▁And": 2090,
      "ient": 2091,
      "up": 2092,
      "\\xc2": 2093,
      "▁back": 2094,
      "▁fl": 2095,
      "enc": 2096,
      "\\xe5\\x90\\x8c": 2097,
      "▁made": 2098,
      "usin": 2099,
      "50": 2100,
      "▁being": 2101,
      "\\xe6\\x9d\\x91": 2102,
      "\\xe5\\xb8": 2103,
      "▁between": 2104,
      "ble": 2105,
      "\\xe6\\xa5": 2106,
      "pr": 2107,
      "'t": 2108,
      "su": 2109,
      "▁class": 2110,
      "▁<code>": 2111,
      "▁resp": 2112,
      "mber": 2113,
      "ience": 2114,
      "\\xe7\\xad": 2115,
      "man": 2116,
      "\\xe4\\xb8\\xa6": 2117,
      "\\xe7\\x88\\xbe": 2118,
      "▁How": 2119,
      "ince": 2120,
      "alth": 2121,
      "▁val": 2122,
      "▁8": 2123,
      "ished": 2124,
      "ix": 2125,
      "▁fil": 2126,
      "oh": 2127,
      "▁own": 2128,
      "\\xe5\\x8f\\x8a": 2129,
      "\\xe9\\x80\\x99": 2130,
      "\\xe6\\xb3\\x95": 2131,
      "9\\xb9": 2132,
      "cond": 2133,
      "\\xe6\\xb0\\x91": 2134,
      "▁Sh": 2135,
      "\\xe9\\x82": 2136,
      "\\xe5\\xb0\\xb": 2137,
      "▁On": 2138,
      "\\xe4\\xb8\\x8b": 2139,
      "\\xe7\\x94\\xb1": 2140,
      "▁You": 2141,
      "\\xe9\\xa1": 2142,
      "▁eff": 2143,
      "ull": 2144,
      "\\n_START_ARTICLE_": 2145,
      "\\n_START_ARTICLE_\\n": 2146,
      "arg": 2147,
      "▁start": 2148,
      "▁years": 2149,
      "\\xe5\\xb0\\x8d": 2150,
      "▁used": 2151,
      "▁dec": 2152,
      "roup": 2153,
      "uth": 2154,
      "\\xe9\\x96\\x8b": 2155,
      "▁9": 2156,
      "\\xe9\\x95\\xb7": 2157,
      "\\xe8\\xb7": 2158,
      "▁For": 2159,
      "\\xe5\\x8d\\x97": 2160,
      "\\xe4\\xbb\\xbb": 2161,
      "\\xe5\\xa3": 2162,
      "sp": 2163,
      "▁199": 2164,
      "\\xe6\\x9c\\xac": 2165,
      "ton": 2166,
      "ield": 2167,
      "uc": 2168,
      "ten": 2169,
      "▁inform": 2170,
      "ah": 2171,
      "▁b'": 2172,
      "'\n": 2173,
      "az": 2174,
      "▁b'\\n_START_ARTICLE_\\n": 2175,
      "\\xe8\\x99": 2176,
      "▁found": 2177,
      "▁import": 2178,
      "air": 2179,
      "▁show": 2180,
      "▁count": 2181,
      "\\xe5\\xad\\x90": 2182,
      "\\xe5\\x91": 2183,
      "\\xe6\\x94\\xbf": 2184,
      "ek": 2185,
      "▁because": 2186,
      "▁before": 2187,
      "ouse": 2188,
      "ven": 2189,
      "ef": 2190,
      "\\xe6\\x96\\x87": 2191,
      "▁writ": 2192,
      "30": 2193,
      "▁var": 2194,
      "▁cre": 2195,
      "\\xe5\\x8f\\xaf": 2196,
      "▁ser": 2197,
      "\\xe6\\x96\\xb0": 2198,
      "\\xe8\\x87\\xaa": 2199,
      "ash": 2200,
      "▁every": 2201,
      "▁should": 2202,
      "\\xe7\\x8e": 2203,
      "▁mod": 2204,
      "▁differe": 2205,
      "▁inter": 2206,
      "\\xe5\\x8e": 2207,
      "▁ed": 2208,
      "ics": 2209,
      "\\xe6\\x9e": 2210,
      "15": 2211,
      "▁lead": 2212,
      "\\xe5\\x82": 2213,
      "▁did": 2214,
      "uch": 2215,
      "\\xe5\\xa4\\x9a": 2216,
      "che": 2217,
      "son": 2218,
      "o,": 2219,
      "\\xe7\\x9b\\xb": 2220,
      "\\xe5\\xbf": 2221,
      "ower": 2222,
      "17": 2223,
      "\\xe6\\xa9": 2224,
      "\\xc2\\xb7": 2225,
      "23": 2226,
      "▁ty": 2227,
      "▁cent": 2228,
      "\\xe6\\x80": 2229,
      "day": 2230,
      "ting": 2231,
      "▁during": 2232,
      "\\xbf": 2233,
      "▁Ind": 2234,
      "ange": 2235,
      "▁fin": 2236,
      "\\xe9\\x9a": 2237,
      "▁person": 2238,
      "▁exper": 2239,
      "▁bel": 2240,
      "▁school": 2241,
      "▁care": 2242,
      "aking": 2243,
      "5\\xb6": 2244,
      "16": 2245,
      "\\xe5\\x8b\\x95": 2246,
      "。\n": 2247,
      "c\\x81": 2248,
      "▁rep": 2249,
      "▁long": 2250,
      "ime": 2251,
      "chn": 2252,
      "led": 2253,
      "\\xe6\\x95\\x99": 2254,
      "ired": 2255,
      "orth": 2256,
      "ather": 2257,
      "▁op": 2258,
      "\\xe4\\xbd\\x8d": 2259,
      "usiness": 2260,
      "\\xe4\\xb9\\x9f": 2261,
      "▁sign": 2262,
      "2.": 2263,
      "▁mon": 2264,
      "ism": 2265,
      "▁high": 2266,
      "way": 2267,
      "▁If": 2268,
      "\\xe4\\xbb\\xa3": 2269,
      "▁sur": 2270,
      "▁world": 2271,
      "▁return": 2272,
      "\\xe3\\x80\\x82'\n": 2273,
      "ature": 2274,
      "▁while": 2275,
      "\\xe5\\x8c\\x97": 2276,
      "ually": 2277,
      "\\xe6\\xbc": 2278,
      "ional": 2279,
      "▁Is": 2280,
      "\\xe9\\xab\\x98": 2281,
      "\\xe6\\x8f": 2282,
      "▁team": 2283,
      "▁Cl": 2284,
      "\\xe5\\x9f": 2285,
      "▁Ad": 2286,
      "▁law": 2287,
      "ern": 2288,
      "▁famil": 2289,
      "▁those": 2290,
      "att": 2291,
      "\\xe8\\xa7": 2292,
      "▁same": 2293,
      "▁does": 2294,
      "▁gener": 2295,
      "▁med": 2296,
      "▁now": 2297,
      "▁using": 2298,
      "▁cour": 2299,
      "ox": 2300,
      "\\xe6\\xb4\\xb": 2301,
      "▁ke": 2302,
      "▁look": 2303,
      "▁build": 2304,
      "▁including": 2305,
      "vent": 2306,
      "aj": 2307,
      "▁both": 2308,
      "view": 2309,
      "St": 2310,
      "ror": 2311,
      "\\xe4\\xbd\\xb": 2312,
      "au": 2313,
      "▁three": 2314,
      "\\xe5\\xb9\\xb3": 2315,
      "▁Con": 2316,
      "fer": 2317,
      "eb": 2318,
      "\\xe4\\xb8\\x89": 2319,
      "▁She": 2320,
      "ital": 2321,
      "14": 2322,
      "ined": 2323,
      "▁cur": 2324,
      "ars": 2325,
      "\\xe5\\xb8\\x82": 2326,
      "▁University": 2327,
      "199": 2328,
      "\\xe4\\xba\\x8b": 2329,
      "▁program": 2330,
      "\\xe9\\x9a\\x8": 2331,
      "\\xe6\\x9d\\xb1": 2332,
      "....": 2333,
      "\\xe6\\x9c\\x80": 2334,
      "\\xe7\\x89\\xb9": 2335,
      "rent": 2336,
      "▁Col": 2337,
      "▁even": 2338,
      "\\xe5\\x8a\\xa0": 2339,
      "▁commun": 2340,
      "\\xe9\\x80\\xb2": 2341,
      "\\xe6\\xac": 2342,
      "ices": 2343,
      ":</p>": 2344,
      "▁very": 2345,
      "\\xe7\\xa4\\xb": 2346,
      "ploy": 2347,
      "ines": 2348,
      "\\xe6\\xb5\\xb7": 2349,
      "▁Sc": 2350,
      "\\xe7\\xb6\\x93": 2351,
      "\\xe5\\xbb\\xba": 2352,
      "its": 2353,
      "▁number": 2354,
      "▁find": 2355,
      "ann": 2356,
      "\\xe6\\x89\\x80": 2357,
      "▁det": 2358,
      "vernment": 2359,
      "ral": 2360,
      "\\xe7\\xad\\x89": 2361,
      "emb": 2362,
      "\\xe6\\xad\\xa4": 2363,
      "ript": 2364,
      "5,": 2365,
      "▁provid": 2366,
      "▁dist": 2367,
      "\\xe9\\x81\\x8e": 2368,
      "▁child": 2369,
      "▁Comm": 2370,
      "ever,": 2371,
      "-t": 2372,
      "▁don": 2373,
      "\\xe5\\x89\\x8d": 2374,
      "\\xe8\\xa6\\x81": 2375,
      "\\xe9\\x9b\\xbb": 2376,
      "oad": 2377,
      "\\xe5\\x9b\\xa0": 2378,
      "()": 2379,
      ".com": 2380,
      "▁sm": 2381,
      "▁data": 2382,
      "▁main": 2383,
      "▁each": 2384,
      "▁fun": 2385,
      "▁sim": 2386,
      "\\xe5\\xbe\\x97": 2387,
      "f\\xbe": 2388,
      "\\xe5\\xa5": 2389,
      ".</p>": 2390,
      "\\xe9\\x99\\xb": 2391,
      "part": 2392,
      "▁system": 2393,
      "▁support": 2394,
      "ized": 2395,
      "ural": 2396,
      "▁result": 2397,
      "13": 2398,
      "ures": 2399,
      "▁gu": 2400,
      "atch": 2401,
      ".\n": 2402,
      "2,": 2403,
      "\\xe8\\x90": 2404,
      "▁But": 2405,
      "ave": 2406,
      "\\xe7\\x8f\\xbe": 2407,
      "\\xe5\\x9f\\xb": 2408,
      "▁second": 2409,
      "put": 2410,
      "▁There": 2411,
      "ER": 2412,
      "▁est": 2413,
      "▁min": 2414,
      "der": 2415,
      "uss": 2416,
      "\\xe7\\x95\\xb6": 2417,
      "▁read": 2418,
      "\\xe9\\x87\\x8c": 2419,
      "\\xe6\\x88\\xb0": 2420,
      "\\xe8\\x91": 2421,
      "8\\xb6": 2422,
      "\\xe7\\xa5": 2423,
      "▁day": 2424,
      "▁Q": 2425,
      "▁run": 2426,
      "ww": 2427,
      "ission": 2428,
      "\\xe5\\x93\\xa1": 2429,
      "▁mark": 2430,
      "▁stat": 2431,
      "▁good": 2432,
      "\\xe5\\xb0\\x87": 2433,
      "lection": 2434,
      "\\xe5\\xbe\\xb7": 2435,
      "\\xe8\\xb6": 2436,
      "▁/": 2437,
      "▁som": 2438,
      "▁project": 2439,
      "\\xe5\\x8a\\x8": 2440,
      "\\xe6\\x95\\xb": 2441,
      "▁Z": 2442,
      "\\xe5\\x88\\xa9": 2443,
      "▁pur": 2444,
      "le,": 2445,
      "\\xe6\\xb8": 2446,
      "▁direct": 2447,
      "▁partic": 2448,
      "\\xe9\\xab\\x94": 2449,
      "ize": 2450,
      "sc": 2451,
      "\\xe5\\xb1\\xb1": 2452,
      "▁disc": 2453,
      "ner": 2454,
      "oot": 2455,
      ".S": 2456,
      "\\xe9\\x9d\\xa2": 2457,
      "▁against": 2458,
      "app": 2459,
      "\\xe6\\x84": 2460,
      "▁contin": 2461,
      "\\xe9\\x96\\x93": 2462,
      "ale": 2463,
      "\\xe9\\x81\\x93": 2464,
      "ght": 2465,
      "ron": 2466,
      "▁different": 2467,
      "\\xe5\\x85\\xa5": 2468,
      "ives": 2469,
      "ically": 2470,
      "lement": 2471,
      "21": 2472,
      "yl": 2473,
      "▁Ex": 2474,
      "-b": 2475,
      "▁point": 2476,
      "▁appro": 2477,
      "\\xe5\\x85\\xa7": 2478,
      "\\xe5\\xa6": 2479,
      "ames": 2480,
      "ik": 2481,
      "▁char": 2482,
      "▁see": 2483,
      "outh": 2484,
      "▁Ph": 2485,
      "\\xe7\\x90\\x86": 2486,
      "istory": 2487,
      "als": 2488,
      "▁much": 2489,
      "ins": 2490,
      "\\xe5\\x85\\x8b": 2491,
      "0.": 2492,
      "raph": 2493,
      "▁rece": 2494,
      "\\xe6\\x8a": 2495,
      "htt": 2496,
      "▁United": 2497,
      "▁rele": 2498,
      "\\xe8\\x87\\xb3": 2499,
      "▁They": 2500,
      "\\xe8\\x83\\xbd": 2501,
      "ute": 2502,
      "▁Sp": 2503,
      "\\xe7\\x89\\xa9": 2504,
      "ared": 2505,
      "ts": 2506,
      "\\xe4\\xba\\x9e": 2507,
      "ccess": 2508,
      "pend": 2509,
      "\\xe5\\xba\\xa6": 2510,
      "\\xe5\\xb9\\xb4\\xef\\xbc\\x8c": 2511,
      "alk": 2512,
      "uro": 2513,
      "ruct": 2514,
      "pos": 2515,
      "\\xe8\\xa8\\x8": 2516,
      "ved": 2517,
      "\\xef\\xbc\\x9a": 2518,
      "3.": 2519,
      "▁pop": 2520,
      "▁inf": 2521,
      "▁adv": 2522,
      "eng": 2523,
      "年,": 2524,
      "o.": 2525,
      "▁i": 2526,
      "▁av": 2527,
      "\\xe5\\xa4\\xa9": 2528,
      "eg": 2529,
      "▁const": 2530,
      "ages": 2531,
      "▁organ": 2532,
      "__": 2533,
      "\\xe8\\xa9": 2534,
      "▁state": 2535,
      "\\xe4\\xba\\x8c": 2536,
      "\\xe6\\xa9\\x9f": 2537,
      "\\xe7\\xbe\\x8e": 2538,
      "▁Te": 2539,
      "\\xe5\\x8d\\x81": 2540,
      "cent": 2541,
      "▁Eng": 2542,
      "▁take": 2543,
      "▁name": 2544,
      "4,": 2545,
      "3,": 2546,
      "bs": 2547,
      "min": 2548,
      "▁Pl": 2549,
      "ived": 2550,
      "\\xe8\\xa3": 2551,
      "\\xe5\\x8c\\x96": 2552,
      "▁here": 2553,
      "anc": 2554,
      "▁Bl": 2555,
      "▁later": 2556,
      "▁car": 2557,
      "\\xe7\\xab\\x8b": 2558,
      "ober": 2559,
      "\\xe5\\xb7\\xa5": 2560,
      "▁American": 2561,
      "▁think": 2562,
      "▁information": 2563,
      "▁conf": 2564,
      "ross": 2565,
      "ier": 2566,
      "▁report": 2567,
      "▁17": 2568,
      "▁oper": 2569,
      "\\xe5\\x81": 2570,
      "▁business": 2571,
      "▁prot": 2572,
      "erest": 2573,
      "▁down": 2574,
      "▁design": 2575,
      "\\xe6\\x8b\\x89": 2576,
      "\\xe6\\x83": 2577,
      "ried": 2578,
      "▁198": 2579,
      "▁mus": 2580,
      "\\xe6\\xa5\\xad": 2581,
      "\\xe7\\xa9\\xb": 2582,
      "ving": 2583,
      "▁spec": 2584,
      "▁mov": 2585,
      "\\xe4\\xbd\\x86": 2586,
      "▁pass": 2587,
      "\\xe5\\xa4\\x96": 2588,
      "\\xe8\\xae": 2589,
      "▁open": 2590,
      "n’t": 2591,
      "f\\xb3": 2592,
      "nce": 2593,
      "▁life": 2594,
      "ists": 2595,
      "arm": 2596,
      "\\xe4\\xbd\\xbf": 2597,
      "\\xe5\\x90\\x88": 2598,
      "-s": 2599,
      "\\xe8\\xbb\\x8a": 2600,
      "\\xe4\\xb8\\x96": 2601,
      "\\xe6\\x9c\\x9f": 2602,
      "\\xe8\\xb7\\xaf": 2603,
      "por": 2604,
      "quot": 2605,
      "lished": 2606,
      "▁ins": 2607,
      "pro": 2608,
      "ohn": 2609,
      "▁last": 2610,
      "rist": 2611,
      "cur": 2612,
      "▁Comp": 2613,
      "\\xe5\\x8f\\xa3": 2614,
      "\\xe5\\xae\\x9a": 2615,
      "▁offic": 2616,
      "ator": 2617,
      "lish": 2618,
      "▁book": 2619,
      "\\xe8\\x82": 2620,
      "\\xe5\\xb0\\x8f": 2621,
      "illion": 2622,
      "omen": 2623,
      "ym": 2624,
      "▁try": 2625,
      "6,": 2626,
      "▁prof": 2627,
      "uthor": 2628,
      "rid": 2629,
      "▁Be": 2630,
      "read": 2631,
      "\\xe7\\x81": 2632,
      "ters": 2633,
      "\\xe5\\x85\\xa8": 2634,
      "▁er": 2635,
      "▁company": 2636,
      "til": 2637,
      "▁following": 2638,
      "ues": 2639,
      "ps://": 2640,
      "▁best": 2641,
      "\\xe5\\x8d\\xb": 2642,
      "▁At": 2643,
      "▁Jan": 2644,
      "▁record": 2645,
      "\\xe7\\xb1": 2646,
      "ior": 2647,
      "▁around": 2648,
      "\\xe5\\x86": 2649,
      "▁May": 2650,
      "\\xe6\\xac\\xa1": 2651,
      "▁fact": 2652,
      "\\xe6\\x98\\x8": 2653,
      "\\xe8\\xad\\xb": 2654,
      "▁place": 2655,
      "\\xe8\\xbf": 2656,
      "',": 2657,
      "\\xe8\\x80\\x85": 2658,
      "▁invest": 2659,
      "strong": 2660,
      "\\xe7\\xaf": 2661,
      "▁great": 2662,
      "\\xe5\\x96": 2663,
      "\\xe5\\xbd": 2664,
      "ocial": 2665,
      "▁still": 2666,
      "▁four": 2667,
      "oard": 2668,
      "4.": 2669,
      "\\xe5\\xa3\\xab": 2670,
      "\\xe9\\x98\\xb": 2671,
      "▁perform": 2672,
      "\\xe8\\xa1\\xa8": 2673,
      "▁film": 2674,
      "▁bro": 2675,
      "\\xe6\\x9d\\x91\\xe3\\x80\\x81": 2676,
      "\\xe5\\x95": 2677,
      "▁real": 2678,
      "▁must": 2679,
      ",并": 2680,
      "c\\x8f": 2681,
      "line": 2682,
      "\\xe6\\xba": 2683,
      "\\xe8\\xa9\\xb2": 2684,
      "\\xe5\\x9d": 2685,
      "▁Mar": 2686,
      "ternational": 2687,
      "▁sol": 2688,
      "▁allow": 2689,
      "▁cor": 2690,
      "ivid": 2691,
      "rand": 2692,
      "ly,": 2693,
      "ery": 2694,
      "ris": 2695,
      "ird": 2696,
      "\\xe6\\xae": 2697,
      "▁vis": 2698,
      "▁leg": 2699,
      "▁consid": 2700,
      "ained": 2701,
      "▁orig": 2702,
      "▁incre": 2703,
      "-f": 2704,
      "▁interest": 2705,
      "▁term": 2706,
      "strong>": 2707,
      "\\xe5\\xb7\\x9e": 2708,
      "ia,": 2709,
      "▁list": 2710,
      "\\xe6\\x80\\xa7": 2711,
      "▁government": 2712,
      ".,": 2713,
      "▁ann": 2714,
      "\\xe9\\xa6\\xac": 2715,
      "▁say": 2716,
      "▁197": 2717,
      "ified": 2718,
      "▁plan": 2719,
      "▁poss": 2720,
      "\\xe9\\x80\\x9a": 2721,
      "▁hand": 2722,
      "▁techn": 2723,
      "stand": 2724,
      "25": 2725,
      "\\xe7\\xb8\\xb": 2726,
      "▁Res": 2727,
      "ety": 2728,
      "\\xe5\\xa0\\xb4": 2729,
      ",000": 2730,
      "ethod": 2731,
      "veral": 2732,
      "\\xef\\xbc\\x8c\\xe4\\xb8\\xa6": 2733,
      "\\xe8\\x97": 2734,
      "▁All": 2735,
      "198": 2736,
      "blem": 2737,
      "\\xe6\\xb4": 2738,
      "ology": 2739,
      "▁ext": 2740,
      "▁post": 2741,
      "ava": 2742,
      "\\xe8\\xa8\\xad": 2743,
      "▁I'": 2744,
      "▁until": 2745,
      "\\xe9\\x87\\x8d": 2746,
      "\\xe5\\xbc\\x8f": 2747,
      "▁Can": 2748,
      "akes": 2749,
      "\\xe9\\x83\\xbd": 2750,
      "gy": 2751,
      "▁Ass": 2752,
      "一个": 2753,
      "\\xe5\\xbd\\xb1": 2754,
      "ies,": 2755,
      "▁John": 2756,
      "arn": 2757,
      "ense": 2758,
      "▁ref": 2759,
      "ium": 2760,
      "▁che": 2761,
      "▁health": 2762,
      "▁since": 2763,
      "leg": 2764,
      "\\xe8\\xbe": 2765,
      "\\xe9\\x9a\\x8a": 2766,
      "enn": 2767,
      "ants": 2768,
      "over": 2769,
      "\\xe6\\xa2": 2770,
      "une": 2771,
      "self": 2772,
      "uman": 2773,
      "▁effect": 2774,
      "▁sl": 2775,
      "▁Or": 2776,
      "后,": 2777,
      "▁another": 2778,
      "▁season": 2779,
      "▁tr": 2780,
      "the": 2781,
      "arent": 2782,
      "▁group": 2783,
      "\\xe5\\xae\\x89": 2784,
      "▁rese": 2785,
      "▁important": 2786,
      "\\xe8\\x8f": 2787,
      "▁Cent": 2788,
      "rol": 2789,
      "\\xe7\\xae": 2790,
      "\\xe8\\xb3\\xbd": 2791,
      "tend": 2792,
      "60": 2793,
      "▁rest": 2794,
      "on,": 2795,
      "\\xe9\\x97": 2796,
      "▁became": 2797,
      "▁function": 2798,
      "</p>\n": 2799,
      "▁|": 2800,
      "\\xe5\\x8f\\xb0": 2801,
      "ected": 2802,
      "\\xe8\\xbc": 2803,
      "\\xe4\\xb8\\x80\\xe5\\x80\\x8b": 2804,
      "iving": 2805,
      "\\xe5\\xb8\\x83": 2806,
      "\\xe7\\xa6": 2807,
      "rict": 2808,
      "▁Aug": 2809,
      "▁chang": 2810,
      "8,": 2811,
      "▁event": 2812,
      "▁win": 2813,
      "iver": 2814,
      "\\xe7\\x90\\x83": 2815,
      ".”": 2816,
      "中国": 2817,
      "ets": 2818,
      "\\xe7\\xa8\\xb1": 2819,
      "\\xe5\\x9f\\xba": 2820,
      "▁manag": 2821,
      "i,": 2822,
      "gg": 2823,
      "▁employ": 2824,
      "ple": 2825,
      "yn": 2826,
      ".j": 2827,
      "▁called": 2828,
      "ES": 2829,
      "▁March": 2830,
      "▁head": 2831,
      "\\xe8\\xab": 2832,
      "▁process": 2833,
      "sh": 2834,
      "ajor": 2835,
      "▁Man": 2836,
      "apt": 2837,
      "of": 2838,
      "▁12": 2839,
      "\\xe5\\x85\\xa9": 2840,
      "▁problem": 2841,
      "▁known": 2842,
      "▁sit": 2843,
      "▁without": 2844,
      "ion,": 2845,
      "org": 2846,
      "▁applic": 2847,
      "-d": 2848,
      "ers,": 2849,
      "ina": 2850,
      "▁expl": 2851,
      "▁current": 2852,
      "▁several": 2853,
      "\\xe7\\xa8\\xae": 2854,
      "ering": 2855,
      "▁month": 2856,
      ".S.": 2857,
      "roid": 2858,
      "▁15": 2859,
      "▁tax": 2860,
      "\\xe7\\xb8": 2861,
      "conom": 2862,
      "ration": 2863,
      "\\xe5\\x8a\\x9b": 2864,
      "\\xe8\\xaa\\x9e": 2865,
      "&lt;/": 2866,
      "\\xe5\\x85\\x83": 2867,
      "\\xef\\xbc\\x9b": 2868,
      "\\xe6\\x98\\x8e": 2869,
      "7,": 2870,
      "▁within": 2871,
      "▁let": 2872,
      "ers.": 2873,
      "▁sing": 2874,
      "bl": 2875,
      "▁When": 2876,
      "▁city": 2877,
      "▁After": 2878,
      "▁land": 2879,
      "▁prom": 2880,
      "▁proper": 2881,
      "▁lot": 2882,
      "resent": 2883,
      "rate": 2884,
      "\\xe9\\x99\\xa2": 2885,
      "\\xe4\\xbc": 2886,
      "40": 2887,
      "uary": 2888,
      "d\\x89": 2889,
      "ask": 2890,
      "▁aff": 2891,
      "▁Am": 2892,
      "▁Su": 2893,
      "c\\x8a": 2894,
      "cember": 2895,
      "▁Car": 2896,
      "▁small": 2897,
      "\\xe5\\x83": 2898,
      "▁Euro": 2899,
      "._NEWLINE_The": 2900,
      "▁Ju": 2901,
      "ought": 2902,
      "riend": 2903,
      "\\xe7\\x9b\\xb8": 2904,
      "▁Fran": 2905,
      "\\xe5\\x8e\\x9f": 2906,
      "\\xe5\\xbe\\x8c\\xef\\xbc\\x8c": 2907,
      "▁el": 2908,
      "▁inc": 2909,
      "\\xe9\\xa3": 2910,
      "par": 2911,
      "\\xef\\xbc\\x89\\xef\\xbc\\x8c": 2912,
      "▁#": 2913,
      "▁fac": 2914,
      "▁few": 2915,
      "▁type": 2916,
      "\\xe5\\xa1": 2917,
      "gin": 2918,
      "▁educ": 2919,
      ".com/": 2920,
      "ody": 2921,
      "▁quest": 2922,
      "ining": 2923,
      "\\xe6\\xaf\\x94": 2924,
      "work": 2925,
      "ential": 2926,
      "▁old": 2927,
      "Th": 2928,
      "▁US": 2929,
      "--------": 2930,
      "▁test": 2931,
      "\\xe7\\xb5\\xb": 2932,
      "r.": 2933,
      "▁December": 2934,
      "ality": 2935,
      "ource": 2936,
      "▁However,": 2937,
      "▁pay": 2938,
      "\\xe4\\xb8\\xad\\xe5\\x9c\\x8b": 2939,
      "(\"": 2940,
      "\\xe5\\x9f\\x8e": 2941,
      "ization": 2942,
      "7.": 2943,
      "8\\xb8": 2944,
      "med": 2945,
      "\\xe5\\x8f\\xb8": 2946,
      "reen": 2947,
      "\\xe7\\xb8\\xbd": 2948,
      "▁activ": 2949,
      ",但": 2950,
      "▁success": 2951,
      "ument": 2952,
      "ream": 2953,
      "▁code": 2954,
      "le.": 2955,
      "▁To": 2956,
      "my": 2957,
      "ised": 2958,
      "▁What": 2959,
      "\\xe5\\xba\\x9c": 2960,
      "▁School": 2961,
      "▁cas": 2962,
      "▁cap": 2963,
      "ness": 2964,
      "▁top": 2965,
      "▁War": 2966,
      "▁addition": 2967,
      "\\xe9\\x97\\x9c": 2968,
      "▁ide": 2969,
      "▁Go": 2970,
      "日,": 2971,
      "\\xe7\\xb7\\x9a": 2972,
      "▁National": 2973,
      "\\xe7\\x8e\\x8b": 2974,
      "oss": 2975,
      "▁issu": 2976,
      "▁Oct": 2977,
      "▁priv": 2978,
      "▁home": 2979,
      "ury": 2980,
      "▁occ": 2981,
      "ertain": 2982,
      "▁family": 2983,
      "▁met": 2984,
      "\\xe6\\xad\\xa3": 2985,
      "5.": 2986,
      "▁mar": 2987,
      "\\xe5\\x85\\xb1": 2988,
      "-c": 2989,
      "▁Christ": 2990,
      "▁pat": 2991,
      "▁going": 2992,
      "OR": 2993,
      "i.": 2994,
      "▁par": 2995,
      "▁dem": 2996,
      "▁htt": 2997,
      "lex": 2998,
      "▁market": 2999,
      "ml": 3000,
      "ray": 3001,
      "\\xe5\\x80\\x91": 3002,
      "▁16": 3003,
      "\\xe5\\xa2": 3004,
      "\\xe8\\x88": 3005,
      "\\xe9\\x87\\x91": 3006,
      "▁January": 3007,
      "ead": 3008,
      "▁early": 3009,
      "\\xe7\\xa7\\x91": 3010,
      "ister": 3011,
      "▁conn": 3012,
      "b\\xb1": 3013,
      "\\xe7\\xb3": 3014,
      "▁local": 3015,
      "irc": 3016,
      "▁level": 3017,
      "▁Ge": 3018,
      "▁present": 3019,
      "vious": 3020,
      "▁Sept": 3021,
      "val": 3022,
      "ination": 3023,
      "ains": 3024,
      "▁stand": 3025,
      "▁sk": 3026,
      "▁World": 3027,
      "▁belie": 3028,
      "\\xe9\\x81\\xb8": 3029,
      "ording": 3030,
      "ething": 3031,
      "\\xe9\\x81\\x94": 3032,
      "’re": 3033,
      "iven": 3034,
      "▁State": 3035,
      "ies.": 3036,
      "atic": 3037,
      "▁Pol": 3038,
      "ograph": 3039,
      "▁York": 3040,
      "ividual": 3041,
      "IN": 3042,
      "\\xe6\\x8f\\x90": 3043,
      "dition": 3044,
      "ourn": 3045,
      "roll": 3046,
      "▁able": 3047,
      "\\xe7\\xa4\\xbe": 3048,
      "\\xe6\\x87": 3049,
      "\\xe5\\xa5\\xb3": 3050,
      "▁By": 3051,
      "▁nam": 3052,
      "\\xe7\\xb8\\xa3": 3053,
      "▁Europe": 3054,
      "▁gl": 3055,
      "\\xe6\\xb5": 3056,
      "els": 3057,
      "▁major": 3058,
      "ify": 3059,
      "aim": 3060,
      "▁&lt;/": 3061,
      "\\xe5\\xbe\\x9e": 3062,
      "▁U.S.": 3063,
      "hes": 3064,
      "▁week": 3065,
      "▁del": 3066,
      "▁working": 3067,
      "\\xe6\\x95\\xb8": 3068,
      "▁August": 3069,
      "ency": 3070,
      "duct": 3071,
      "oid": 3072,
      "▁I’": 3073,
      "\\xe8\\x8b\\xb1": 3074,
      "\\xef\\xbc\\x8c\\xe4\\xbd\\x86": 3075,
      "ley": 3076,
      "iod": 3077,
      "ott": 3078,
      "\\xe6\\x9b\\xb8": 3079,
      "be": 3080,
      "▁equ": 3081,
      "\\xe6\\xb2\\xbb": 3082,
      "▁mat": 3083,
      "ately": 3084,
      "ustom": 3085,
      "▁Apr": 3086,
      "an,": 3087,
      "n't": 3088,
      "▁product": 3089,
      "8.": 3090,
      "▁request": 3091,
      "AT": 3092,
      "idd": 3093,
      "ways": 3094,
      "▁avail": 3095,
      "\\xe6\\xb0\\xb4": 3096,
      "f\\xa5": 3097,
      "ion.": 3098,
      "▁children": 3099,
      "\\xe9\\xa4": 3100,
      "▁desc": 3101,
      "iron": 3102,
      "▁eng": 3103,
      "\\xe8\\xb5\\xb7": 3104,
      "\\xe7\\xb5\\xb1": 3105,
      "ref": 3106,
      "\\xe7\\xb5\\x84": 3107,
      "▁beh": 3108,
      "▁research": 3109,
      "\\xe8\\x91\\x97": 3110,
      "▁September": 3111,
      "quot;": 3112,
      "rim": 3113,
      "▁development": 3114,
      "EN": 3115,
      "inc": 3116,
      "▁social": 3117,
      "▁next": 3118,
      "ovember": 3119,
      "▁order": 3120,
      "\\xe8\\x99\\x9f": 3121,
      "._NEWLINE_In": 3122,
      "▁author": 3123,
      "p://": 3124,
      "▁Ag": 3125,
      "\\xe5\\xb0\\xb1": 3126,
      "\\xe7\\xbe\\x85": 3127,
      "urch": 3128,
      "\\xe6\\x94\\xb9": 3129,
      "▁opt": 3130,
      "Con": 3131,
      "\\xe8\\x81\\xaf": 3132,
      "▁based": 3133,
      "▁So": 3134,
      "▁examp": 3135,
      "▁war": 3136,
      "▁April": 3137,
      "▁pub": 3138,
      "\\xe5\\xa6\\x82": 3139,
      "1)": 3140,
      "\\xe9\\x81\\x8b": 3141,
      "▁country": 3142,
      "-m": 3143,
      "\\xe8\\xa8\\x88": 3144,
      "6.": 3145,
      "\\xe8\\x8f\\xaf": 3146,
      "▁really": 3147,
      "arge": 3148,
      "▁include": 3149,
      "▁access": 3150,
      "▁individual": 3151,
      "▁</p>": 3152,
      "▁view": 3153,
      "▁happ": 3154,
      "▁elect": 3155,
      "▁near": 3156,
      "ext": 3157,
      "▁value": 3158,
      "ability": 3159,
      "▁charact": 3160,
      "24": 3161,
      "9,": 3162,
      "embers": 3163,
      "▁November": 3164,
      "here": 3165,
      "partment": 3166,
      "\\xe7\\xb1\\xb3": 3167,
      "▁October": 3168,
      "▁Mus": 3169,
      "ference": 3170,
      "=\"htt": 3171,
      "d\\xb2": 3172,
      "aster": 3173,
      "\\xe7\\x84": 3174,
      "iqu": 3175,
      "\\xe5\\xbf\\x83": 3176,
      "村,": 3177,
      "▁often": 3178,
      "\\xe7\\x9c\\x81": 3179,
      "▁along": 3180,
      "▁file": 3181,
      "\"&gt;": 3182,
      "\\xe6\\x97\\xa5\\xef\\xbc\\x8c": 3183,
      "▁profess": 3184,
      "▁power": 3185,
      "▁Feb": 3186,
      "s:": 3187,
      "eral": 3188,
      "▁2022": 3189,
      "▁pract": 3190,
      "▁cle": 3191,
      "▁something": 3192,
      "\\xe7\\xa0": 3193,
      "\\xe5\\x9b\\x9b": 3194,
      "\\xe7\\xb4\\x84": 3195,
      "▁mil": 3196,
      "▁fund": 3197,
      "ored": 3198,
      "\\xe5\\xb8\\xb8": 3199,
      "▁Med": 3200,
      "();": 3201,
      "\\xe6\\xbc\\x94": 3202,
      "ote": 3203,
      "\\xe6\\xb8\\xaf": 3204,
      "\\xe8\\x98": 3205,
      "\\xe7\\x94\\xa2": 3206,
      "▁provide": 3207,
      "▁field": 3208,
      "\\xe6\\xb7": 3209,
      "▁polit": 3210,
      "197": 3211,
      "▁estab": 3212,
      "▁million": 3213,
      "li>": 3214,
      "\\xe7\\x84\\xb": 3215,
      "▁line": 3216,
      "\\xe5\\x8f\\xb2": 3217,
      "ily": 3218,
      "\\xe6\\x81": 3219,
      "▁Bro": 3220,
      "▁students": 3221,
      "\">": 3222,
      "\\xe7\\x9c": 3223,
      "\\xe7\\xab\\x99": 3224,
      "▁//": 3225,
      "iam": 3226,
      "ulation": 3227,
      "▁member": 3228,
      "ilt": 3229,
      "▁Em": 3230,
      "\\xe5\\xb0\\xbc": 3231,
      "▁—": 3232,
      "▁July": 3233,
      "▁cost": 3234,
      "ocus": 3235,
      "stit": 3236,
      "▁non": 3237,
      "▁vers": 3238,
      "▁Pres": 3239,
      "\\xe6\\x88\\x96": 3240,
      "▁His": 3241,
      "▁method": 3242,
      "▁Count": 3243,
      "\\xe7\\x84\\xb6": 3244,
      "▁eas": 3245,
      "▁put": 3246,
      "▁music": 3247,
      "al,": 3248,
      "\\xe8\\xaa\\x8": 3249,
      "▁June": 3250,
      "\\xe5\\x82\\xb3": 3251,
      "\\xe6\\x88\\xb": 3252,
      "▁supp": 3253,
      "\\xe5\\xb7\\xb4": 3254,
      "▁water": 3255,
      "ves": 3256,
      "▁Cal": 3257,
      "▁women": 3258,
      "▁available": 3259,
      "IT": 3260,
      "ity,": 3261,
      "action": 3262,
      "▁Min": 3263,
      "0,": 3264,
      "\\xe2": 3265,
      "rant": 3266,
      "▁With": 3267,
      "by": 3268,
      "lege": 3269,
      "▁South": 3270,
      "▁Act": 3271,
      "▁That": 3272,
      "▁appear": 3273,
      "\\xe6\\xa0\\xbc": 3274,
      "\\xe5\\x8f\\x97": 3275,
      "▁196": 3276,
      "▁left": 3277,
      "▁fore": 3278,
      "▁meet": 3279,
      "\\xe5\\xa7\\x8b": 3280,
      "▁Brit": 3281,
      "▁ask": 3282,
      "osed": 3283,
      "▁house": 3284,
      "▁Germ": 3285,
      "rap": 3286,
      "▁seem": 3287,
      "itor": 3288,
      "▁it’s": 3289,
      "▁area": 3290,
      "\\xe5\\xaf\\xa6": 3291,
      "▁bre": 3292,
      "\\xe7\\x8d": 3293,
      "ruary": 3294,
      "▁won": 3295,
      "▁trad": 3296,
      "▁camp": 3297,
      "”,": 3298,
      "▁lim": 3299,
      "eter": 3300,
      "\\xe7\\xa9": 3301,
      "\\xe6\\x8e\\xa5": 3302,
      "\\xe5\\x84": 3303,
      "▁TH": 3304,
      "▁understand": 3305,
      "▁began": 3306,
      "▁Af": 3307,
      "▁service": 3308,
      "▁tru": 3309,
      "▁ben": 3310,
      "▁bas": 3311,
      "ittle": 3312,
      "▁grow": 3313,
      "\\xe9\\x98\\xbf": 3314,
      "\\xe6\\x94": 3315,
      "af": 3316,
      "▁period": 3317,
      "27": 3318,
      "▁These": 3319,
      "▁jo": 3320,
      "a\\xab": 3321,
      "\\xe5\\x90\\x91": 3322,
      "ently": 3323,
      "\\xe9\\x8e": 3324,
      "raw": 3325,
      "ribut": 3326,
      "\\xe7\\x9b\\xae": 3327,
      "aterial": 3328,
      "\\xe8\\xaa\\xaa": 3329,
      "▁Ab": 3330,
      "▁invol": 3331,
      "ee": 3332,
      "▁Part": 3333,
      "▁game": 3334,
      "▁it.": 3335,
      "▁become": 3336,
      "▁X": 3337,
      "text": 3338,
      "-p": 3339,
      "9.": 3340,
      "urg": 3341,
      "▁*": 3342,
      "\\xe9\\xad": 3343,
      "▁Aust": 3344,
      "\\xe5\\xb3": 3345,
      "▁‘": 3346,
      "▁February": 3347,
      "s._NEWLINE_": 3348,
      "▁history": 3349,
      "▁Par": 3350,
      "▁Serv": 3351,
      "\\xe6\\xa8\\x82": 3352,
      "\\xe6\\x9e\\x97": 3353,
      ",在": 3354,
      "▁having": 3355,
      "viron": 3356,
      "\\xe7\\x84\\xa1": 3357,
      "ity.": 3358,
      "\\xe7\\xa8\\x8b": 3359,
      "▁States": 3360,
      "▁human": 3361,
      "▁create": 3362,
      "▁never": 3363,
      "rop": 3364,
      "\\xef\\xbc\\x8c\\xe5\\x9c\\xa8": 3365,
      "\\xe8\\x89\\xb2": 3366,
      "▁deb": 3367,
      "lin": 3368,
      "oman": 3369,
      "uture": 3370,
      "\\xe6\\x8c\\x8": 3371,
      "ai": 3372,
      "▁took": 3373,
      "rag": 3374,
      "▁move": 3375,
      "▁error": 3376,
      "▁es": 3377,
      "\\xe9\\xa6\\x96": 3378,
      "▁indust": 3379,
      "AA": 3380,
      "▁ident": 3381,
      "28": 3382,
      "less": 3383,
      "c.": 3384,
      "new": 3385,
      "▁polic": 3386,
      "194": 3387,
      "ware": 3388,
      "▁experience": 3389,
      "\\xe6\\xa1": 3390,
      "ID": 3391,
      "▁complet": 3392,
      "▁+": 3393,
      "ball": 3394,
      "ention": 3395,
      "▁econom": 3396,
      "▁Company": 3397,
      "empt": 3398,
      "▁account": 3399,
      "\\xe9\\x87\\x8f": 3400,
      "alf": 3401,
      "▁better": 3402,
      "ney": 3403,
      "▁cult": 3404,
      "ruction": 3405,
      "ception": 3406,
      "sel": 3407,
      "▁vari": 3408,
      "▁194": 3409,
      "urther": 3410,
      "ament": 3411,
      "▁Co": 3412,
      "set": 3413,
      "▁doc": 3414,
      "▁lif": 3415,
      "▁large": 3416,
      "me": 3417,
      "▁change": 3418,
      "\".": 3419,
      "▁Gu": 3420,
      "▁might": 3421,
      "▁compet": 3422,
      "▁members": 3423,
      "▁Fl": 3424,
      "▁One": 3425,
      "▁short": 3426,
      "▁represent": 3427,
      "\\xe8\\xad\\xb0": 3428,
      "▁larg": 3429,
      "\\xe8\\x98\\xad": 3430,
      "\\xe6\\x9c\\x88\\xef\\xbc\\x8c": 3431,
      "▁death": 3432,
      "ipp": 3433,
      "▁case": 3434,
      "▁My": 3435,
      "▁friend": 3436,
      "▁13": 3437,
      "\\xe9\\xbe": 3438,
      "2)": 3439,
      "▁position": 3440,
      "▁age": 3441,
      "ries": 3442,
      "\\xe6\\xa3": 3443,
      "▁App": 3444,
      "▁due": 3445,
      "▁action": 3446,
      "▁Art": 3447,
      "月,": 3448,
      "▁webs": 3449,
      "\\xe7\\xa2": 3450,
      "▁always": 3451,
      ".\"": 3452,
      "▁Cont": 3453,
      "ively": 3454,
      "\\xe5\\x8b\\x99": 3455,
      "\\xe5\\x89\\x87": 3456,
      "\\xe5\\xa7\\x94": 3457,
      "though": 3458,
      "\\xe7\\xbe\\xa9": 3459,
      "▁got": 3460,
      "angu": 3461,
      "▁less": 3462,
      "\\xef\\xbc\\x8c\\xe8\\x80\\x8c": 3463,
      "ilar": 3464,
      "▁special": 3465,
      "vironment": 3466,
      "80": 3467,
      "\\xe6\\x9b\\xbe": 3468,
      "▁come": 3469,
      "ured": 3470,
      "ien": 3471,
      "▁feel": 3472,
      "\\xe7\\xb3\\xbb": 3473,
      "▁continu": 3474,
      "▁fre": 3475,
      "▁full": 3476,
      "de": 3477,
      "▁focus": 3478,
      "▁Stud": 3479,
      "▁among": 3480,
      "\\xe8\\x9": 3481,
      "▁making": 3482,
      "ope": 3483,
      "\\xe5\\xb7\\xb2": 3484,
      "▁Reg": 3485,
      "▁North": 3486,
      "\\xe7\\xae\\xa1": 3487,
      "ling": 3488,
      "▁final": 3489,
      "ia.": 3490,
      "▁conc": 3491,
      "\\xe6\\x92": 3492,
      "▁shall": 3493,
      "AS": 3494,
      "▁big": 3495,
      "isc": 3496,
      "▁building": 3497,
      "▁Bar": 3498,
      "ND": 3499,
      "uck": 3500,
      "▁init": 3501,
      "ows": 3502,
      "\\xe5\\xbc\\xb5": 3503,
      "▁mult": 3504,
      "ule": 3505,
      "▁song": 3506,
      "▁national": 3507,
      "\\xe5\\x8f\\x83": 3508,
      "▁possible": 3509,
      "26": 3510,
      ",而": 3511,
      "▁z": 3512,
      "Pro": 3513,
      "istor": 3514,
      "\\xe7\\xb5\\x90": 3515,
      "ava:": 3516,
      "IS": 3517,
      "for": 3518,
      "en,": 3519,
      "▁la": 3520,
      "▁En": 3521,
      "\\xe8\\x99\\x95": 3522,
      "not": 3523,
      "icle": 3524,
      "or,": 3525,
      "▁held": 3526,
      "▁five": 3527,
      "\\xe8\\xba\\xab": 3528,
      "▁Will": 3529,
      "▁rul": 3530,
      "▁custom": 3531,
      "▁Off": 3532,
      "▁Mc": 3533,
      "\\xe5\\x9c\\x98": 3534,
      "▁14": 3535,
      "\\xe5\\x9e": 3536,
      "\\xe4\\xba\\x9b": 3537,
      "▁po": 3538,
      "▁di": 3539,
      "ably": 3540,
      "ush": 3541,
      "29": 3542,
      "▁:": 3543,
      "▁turn": 3544,
      "ser": 3545,
      "\\xe7\\x95\\x8c": 3546,
      "\\xe8\\xb1": 3547,
      "Ex": 3548,
      "etwork": 3549,
      "\\xe4\\xba\\xba\\xe5\\x8f\\xa3": 3550,
      "▁came": 3551,
      "▁aut": 3552,
      "▁third": 3553,
      "▁particular": 3554,
      "\\xe5\\x8c\\x8": 3555,
      "▁original": 3556,
      "▁text": 3557,
      "reet": 3558,
      "▁story": 3559,
      "aint": 3560,
      "\\xe6\\xb6": 3561,
      "▁private": 3562,
      "raft": 3563,
      "\\xe7\\x87": 3564,
      "-l": 3565,
      "▁port": 3566,
      "\\xe9\\xba": 3567,
      "vert": 3568,
      "idence": 3569,
      "▁Cour": 3570,
      "▁pri": 3571,
      "bum": 3572,
      "▁11": 3573,
      "ogn": 3574,
      "▁I'm": 3575,
      "▁tit": 3576,
      "\\xe4\\xbf\\x9d": 3577,
      "thing": 3578,
      "▁Tr": 3579,
      "▁things": 3580,
      "\\xe4\\xba\\xa4": 3581,
      "\\xe5\\x9b\\x9e": 3582,
      "大学": 3583,
      "▁Ed": 3584,
      "▁object": 3585,
      "\\xe9\\x96\\x80": 3586,
      "\\xe6\\xa0\\xa1": 3587,
      "村、": 3588,
      "▁given": 3589,
      "\\xe8\\x89": 3590,
      "\\xe8\\x90\\xac": 3591,
      "\\xe5\\x88\\xb6": 3592,
      "▁href": 3593,
      "\\xe8\\xad": 3594,
      "▁creat": 3595,
      "▁received": 3596,
      "▁ris": 3597,
      "▁young": 3598,
      "\\xe9\\x82\\x84": 3599,
      "age.": 3600,
      "▁impro": 3601,
      "195": 3602,
      "ene": 3603,
      "lu": 3604,
      "▁Har": 3605,
      "▁Canad": 3606,
      "irm": 3607,
      "ront": 3608,
      "▁toget": 3609,
      "▁together": 3610,
      "ED": 3611,
      "▁fail": 3612,
      "▁trying": 3613,
      "\\xe5\\xb0\\x8e": 3614,
      "w.": 3615,
      "\\xe6\\x89\\x8b": 3616,
      "****": 3617,
      "▁God": 3618,
      "▁word": 3619,
      "duc": 3620,
      "\\xe7\\xa9\\xba": 3621,
      "osp": 3622,
      "\\xe9\\x8e\\xae": 3623,
      "▁cho": 3624,
      "\\xe8\\xbc\\x8": 3625,
      "\\xe8\\xaa\\x8d": 3626,
      "ither": 3627,
      "\\xe5\\xb1\\xac": 3628,
      "tain": 3629,
      "View": 3630,
      "play": 3631,
      "\\xe5\\xb1\\x95": 3632,
      "\\xe7\\x9b\\xb4": 3633,
      "▁typ": 3634,
      "▁2019": 3635,
      "pecial": 3636,
      "▁series": 3637,
      "ape": 3638,
      "ancial": 3639,
      "ault": 3640,
      "▁course": 3641,
      "-h": 3642,
      "▁don’t": 3643,
      "\\xe6\\x87\\x89": 3644,
      "▁gam": 3645,
      "ership": 3646,
      "▁reason": 3647,
      "▁Pr": 3648,
      "oney": 3649,
      "▁mean": 3650,
      "\\xe6\\x84\\x8f": 3651,
      "rain": 3652,
      "\\xe5\\xa4\\xaa": 3653,
      "▁crit": 3654,
      "abor": 3655,
      "▁determ": 3656,
      "side": 3657,
      "ief": 3658,
      "▁treat": 3659,
      "\\xe5\\x88\\x97": 3660,
      "▁claim": 3661,
      "AL": 3662,
      "▁former": 3663,
      "▁keep": 3664,
      "ances": 3665,
      "\\xe8\\xb3\\x87": 3666,
      "▁particip": 3667,
      "\\xe6\\x85": 3668,
      "hern": 3669,
      "hold": 3670,
      "▁_NEWLINE_": 3671,
      "人口": 3672,
      "sw": 3673,
      "▁tri": 3674,
      "▁material": 3675,
      "▁benef": 3676,
      "Ch": 3677,
      "▁common": 3678,
      "ecut": 3679,
      "\\xe9\\xa6\\x99": 3680,
      "ounc": 3681,
      "▁hom": 3682,
      "RO": 3683,
      "▁tot": 3684,
      "▁hold": 3685,
      "▁started": 3686,
      "开始": 3687,
      "▁condition": 3688,
      "美国": 3689,
      "\\xe8\\x8a": 3690,
      "▁job": 3691,
      "\\xe6\\xad\\xb7": 3692,
      "ians": 3693,
      "▁sal": 3694,
      "adem": 3695,
      "▁tem": 3696,
      "reg": 3697,
      "ories": 3698,
      "\\xe6\\xbf": 3699,
      "wards": 3700,
      "aff": 3701,
      "\\xe5\\x8c\\x85": 3702,
      "▁25": 3703,
      "▁relations": 3704,
      "acy": 3705,
      "\\xe6\\xb2\\xb3": 3706,
      "▁195": 3707,
      "\\xe7\\xb6\\xad": 3708,
      "nes": 3709,
      "ilities": 3710,
      "ache": 3711,
      "\\xe4\\xba\\x94": 3712,
      "\\xe7\\x8d\\xb2": 3713,
      "g.": 3714,
      "rew": 3715,
      "\\xe8\\xa6\\x96": 3716,
      "ready": 3717,
      "▁Im": 3718,
      "▁give": 3719,
      "iol": 3720,
      "▁control": 3721,
      "\\xe5\\xad\\x97": 3722,
      "\\xe5\\xa0\\xb": 3723,
      "▁Associ": 3724,
      "urs": 3725,
      "i-": 3726,
      "\\xe9\\x9b\\xb": 3727,
      "▁Acc": 3728,
      "▁certain": 3729,
      "▁dev": 3730,
      "▁30": 3731,
      "\\xe5\\xbd\\xa2": 3732,
      "▁exist": 3733,
      "▁future": 3734,
      "&quot;": 3735,
      "▁hig": 3736,
      "▁respons": 3737,
      "▁Cor": 3738,
      "to": 3739,
      "\\xe9\\x9f\\xb3": 3740,
      "▁official": 3741,
      "\\xe7\\xb9": 3742,
      "▁men": 3743,
      "196": 3744,
      "\\xe5\\x91\\xbd": 3745,
      "\\xe5\\x85\\x89": 3746,
      "▁career": 3747,
      "\\xe9\\x84": 3748,
      "▁played": 3749,
      "▁II": 3750,
      "\\xe5\\x8d\\xa1": 3751,
      "div": 3752,
      "\\xe6\\x8c\\x87": 3753,
      "\\xe9\\x9b\\x86": 3754,
      "▁Rep": 3755,
      "▁self": 3756,
      "▁released": 3757,
      "▁English": 3758,
      "▁@": 3759,
      "▁require": 3760,
      "▁little": 3761,
      "\\xe7\\xbd": 3762,
      "\\xe5\\x93\\x81": 3763,
      "▁1.": 3764,
      "▁student": 3765,
      "▁went": 3766,
      "ched": 3767,
      "\\xe9\\x85": 3768,
      "\\xe8\\xa8\\xb": 3769,
      "▁vide": 3770,
      "▁President": 3771,
      "lev": 3772,
      "▁six": 3773,
      "\\xe5\\xbb\\xa3": 3774,
      "\\xe6\\x9b\\xb4": 3775,
      "\\xe8\\x83": 3776,
      "▁Me": 3777,
      "▁services": 3778,
      "\\xe3\\x80\\x82\\xe5\\x9c\\xa8": 3779,
      "iter": 3780,
      "\\xe5\\xa0\\xb1": 3781,
      "ane": 3782,
      "\\xe8\\xae\\x8a": 3783,
      "iting": 3784,
      "\\xe9\\x9c": 3785,
      "▁International": 3786,
      "▁hard": 3787,
      "▁Afric": 3788,
      "aut": 3789,
      "comm": 3790,
      "▁grad": 3791,
      "ibr": 3792,
      "政府": 3793,
      "▁town": 3794,
      "minist": 3795,
      "ype": 3796,
      "\\xe6\\x8c\\x81": 3797,
      "▁ve": 3798,
      "▁sent": 3799,
      "\\xe7\\xb4\\x9a": 3800,
      "\\xe5\\x9e\\x8b": 3801,
      "\\xe5\\x8f\\x8d": 3802,
      "▁Des": 3803,
      "▁personal": 3804,
      "▁album": 3805,
      "时,": 3806,
      "▁Pre": 3807,
      "▁free": 3808,
      "itted": 3809,
      "▁various": 3810,
      "▁past": 3811,
      "\\xe2\\x80": 3812,
      "s/": 3813,
      "33": 3814,
      "onse": 3815,
      "▁live": 3816,
      "\\xe9\\xa1\\x9e": 3817,
      "itive": 3818,
      "5年": 3819,
      "ger": 3820,
      "\\xe6\\x83\\x85": 3821,
      "\\xe5\\xa4\\xa7\\xe5\\xad\\xb8": 3822,
      "aken": 3823,
      "\\xe8\\x8e": 3824,
      "\\xe6\\x94\\xbf\\xe5\\xba\\x9c": 3825,
      "▁created": 3826,
      "▁online": 3827,
      "==": 3828,
      "成为": 3829,
      "\\xe5\\xb9\\xb4\\xef\\xbc\\x88": 3830,
      "\\xe7\\xa4\\xba": 3831,
      "-y": 3832,
      "umn": 3833,
      "▁100": 3834,
      "▁Ac": 3835,
      "▁1,": 3836,
      "▁across": 3837,
      "\\xe5\\xae\\x98": 3838,
      "\\xe5\\xa4\\xab": 3839,
      "▁study": 3840,
      ",”": 3841,
      "go": 3842,
      "▁Law": 3843,
      "\\xe6\\xb4\\xbb": 3844,
      "▁air": 3845,
      "augh": 3846,
      "▁community": 3847,
      "▁El": 3848,
      "ged": 3849,
      "▁thought": 3850,
      "▁learn": 3851,
      "▁amount": 3852,
      "._NEWLINE_A": 3853,
      "。在": 3854,
      "\\xe7\\x81\\xa3": 3855,
      "▁time,": 3856,
      "ham": 3857,
      "▁agre": 3858,
      "ework": 3859,
      "▁begin": 3860,
      "\\xe5\\x85\\xac\\xe5\\x8f\\xb8": 3861,
      "▁already": 3862,
      "\\xe5\\xb8\\xab": 3863,
      "▁CO": 3864,
      "pportun": 3865,
      "al.": 3866,
      "▁sum": 3867,
      "www.": 3868,
      "is,": 3869,
      "公司": 3870,
      "▁far": 3871,
      "pect": 3872,
      "▁too": 3873,
      "ev": 3874,
      "ump": 3875,
      "▁built": 3876,
      "▁means": 3877,
      "▁whether": 3878,
      "▁single": 3879,
      "\\xe5\\xaf\\xb": 3880,
      "▁question": 3881,
      "▁plac": 3882,
      "▁court": 3883,
      "▁describ": 3884,
      "▁tre": 3885,
      "\\xe7\\x89\\x87": 3886,
      "▁associ": 3887,
      "8年": 3888,
      "​​": 3889,
      "▁similar": 3890,
      "\\xe6\\xa": 3891,
      "▁anal": 3892,
      "▁City": 3893,
      "▁phys": 3894,
      "▁named": 3895,
      "\\xe6\\xa7": 3896,
      "\\xe6\\x9e\\x9c": 3897,
      "\\xe7\\xbe\\x8e\\xe5\\x9c\\x8b": 3898,
      "▁sure": 3899,
      "cret": 3900,
      "▁repl": 3901,
      "▁required": 3902,
      "▁Ear": 3903,
      "cript": 3904,
      "\":": 3905,
      "▁Russ": 3906,
      "7年": 3907,
      "s)": 3908,
      "▁role": 3909,
      "\\xe6\\x88\\x90\\xe7\\x82\\xba": 3910,
      "ederal": 3911,
      "\\xe5\\x90\\x84": 3912,
      "▁British": 3913,
      "\\xe9\\x90\\xb": 3914,
      "\\xe6\\x9c\\x9d": 3915,
      "\\xe6\\x97\\xa5\\xe6\\x9c\\xac": 3916,
      "▁pot": 3917,
      "1\\xe5\\xb9\\xb4": 3918,
      "\\xe5\\xa5\\xb9": 3919,
      "('": 3920,
      "▁published": 3921,
      "br": 3922,
      "▁kind": 3923,
      "ivil": 3924,
      "▁model": 3925,
      "ouncil": 3926,
      "▁today": 3927,
      "chie": 3928,
      "\\xe6\\xb1\\x9f": 3929,
      "▁signific": 3930,
      "4\\xb1": 3931,
      "▁why": 3932,
      "▁href=\"htt": 3933,
      "olution": 3934,
      "itary": 3935,
      "\\xe6\\x98\\x9f": 3936,
      "\\xe6\\x9d\\x8e": 3937,
      "\\xe9\\x96\\x8b\\xe5\\xa7\\x8b": 3938,
      "▁x": 3939,
      "▁tell": 3940,
      "▁further": 3941,
      "itte": 3942,
      "\\xe7\\xb4\\x80": 3943,
      "\\xe5\\xb0\\x91": 3944,
      "wh": 3945,
      "▁pa": 3946,
      "AN": 3947,
      "\\xe9\\x80\\xa0": 3948,
      "imate": 3949,
      "cont": 3950,
      "▁Do": 3951,
      "100": 3952,
      "hib": 3953,
      ":00": 3954,
      "中,": 3955,
      "yd": 3956,
      "\\xe5\\x9c\\x96": 3957,
      "-0": 3958,
      "ramework": 3959,
      "ources": 3960,
      "香港": 3961,
      "a>": 3962,
      "ising": 3963,
      "▁lik": 3964,
      "\\xe7\\x91": 3965,
      "\\xe9\\xbb\\x9e": 3966,
      "▁Gl": 3967,
      "▁previous": 3968,
      "5\\xe5\\xb9\\xb4": 3969,
      "6年": 3970,
      "▁IN": 3971,
      "\\xe5\\x8f\\x96": 3972,
      "▁Stat": 3973,
      "ler": 3974,
      "\\xe8\\x88\\x89": 3975,
      "rench": 3976,
      "\\xe6\\xb5\\x81": 3977,
      "8\\x85": 3978,
      "9年": 3979,
      "▁...": 3980,
      "uild": 3981,
      "▁Dav": 3982,
      "▁langu": 3983,
      "\\xe6\\x93\\x8a": 3984,
      "▁enc": 3985,
      "\\xe7\\x9f\\xb3": 3986,
      "1年": 3987,
      "ison": 3988,
      "\\xe6\\xb8\\x85": 3989,
      "地区": 3990,
      "▁caus": 3991,
      "ibility": 3992,
      ",其": 3993,
      "6\\xe5\\xb9\\xb4": 3994,
      "▁thing": 3995,
      "\\xe7\\x8f": 3996,
      "\\xe5\\xb3\\xb6": 3997,
      "ington": 3998,
      "ino": 3999,
      "▁Her": 4000,
      "▁professional": 4001,
      "▁King": 4002,
      "\\xe5\\x94": 4003,
      "▁THE": 4004,
      "▁et": 4005,
      "\\xe4\\xba\\xac": 4006,
      "\\xe9\\xbb\\xa8": 4007,
      "▁Court": 4008,
      "imes": 4009,
      "ights": 4010,
      "▁user": 4011,
      "\\xe5\\x8f\\xa4": 4012,
      "\\xe5\\xb0\\x88": 4013,
      "▁contract": 4014,
      "</a>": 4015,
      "▁least": 4016,
      "▁away": 4017,
      "epend": 4018,
      "▁div": 4019,
      "\\xe6\\xb2\\x92": 4020,
      "Id": 4021,
      "\\xe9\\x90\\xb5": 4022,
      "ony": 4023,
      "ague": 4024,
      "</strong>": 4025,
      "\\xe5\\x9c\\xb0\\xe5\\x8d\\x80": 4026,
      "▁days": 4027,
      "▁compan": 4028,
      "It": 4029,
      "▁Pe": 4030,
      "\\xe8\\xa3\\xbd": 4031,
      "\\xe9\\xbe\\x8d": 4032,
      "in,": 4033,
      "▁respect": 4034,
      "▁opportun": 4035,
      "▁included": 4036,
      "lected": 4037,
      "\\xe8\\xa8\\x98": 4038,
      "quest": 4039,
      "▁born": 4040,
      "▁Park": 4041,
      "lease": 4042,
      "▁announ": 4043,
      "most": 4044,
      "▁2.": 4045,
      "obal": 4046,
      "\\xe6\\x99\\x82\\xef\\xbc\\x8c": 4047,
      "ards": 4048,
      "▁popular": 4049,
      ".m": 4050,
      "▁works": 4051,
      "▁feature": 4052,
      "ice.": 4053,
      "unt": 4054,
      "▁While": 4055,
      "\\xe5\\x8f\\xaf\\xe4\\xbb\\xa5": 4056,
      "Cont": 4057,
      "ole": 4058,
      "▁parent": 4059,
      "▁share": 4060,
      "ructure": 4061,
      "▁strong": 4062,
      "▁subject": 4063,
      "\\xe4\\xbf\\xa1": 4064,
      "\\xe5\\x95\\x86": 4065,
      "▁review": 4066,
      "▁located": 4067,
      "8\\xe5\\xb9\\xb4": 4068,
      "▁exc": 4069,
      "book": 4070,
      "ay,": 4071,
      "▁talk": 4072,
      "\\xe4\\xbd\\xbf\\xe7\\x94\\xa8": 4073,
      "o-": 4074,
      "▁lo": 4075,
      "ett": 4076,
      "cy": 4077,
      "▁love": 4078,
      "▁general": 4079,
      "\\xe5\\x96\\xae": 4080,
      "▁https://": 4081,
      "▁document": 4082,
      "verage": 4083,
      "▁History": 4084,
      "▁Qu": 4085,
      "▁provided": 4086,
      "\\xe8\\xa7\\xa3": 4087,
      "他们": 4088,
      "▁2020": 4089,
      "▁attack": 4090,
      "7\\xe5\\xb9\\xb4": 4091,
      "yle": 4092,
      "▁wid": 4093,
      "▁193": 4094,
      "\\xef\\xbc\\x8c\\xe4\\xbb\\xa5": 4095,
      "▁served": 4096,
      "ung": 4097,
      "▁,": 4098,
      "▁No": 4099,
      "▁kill": 4100,
      "\\xe5\\x85\\xac\\xe9\\x87\\x8c": 4101,
      "ground": 4102,
      "umb": 4103,
      "curity": 4104,
      "\\xe8\\xa1\\x93": 4105,
      "▁Gener": 4106,
      "irl": 4107,
      "▁House": 4108,
      "▁areas": 4109,
      "▁West": 4110,
      "▁clear": 4111,
      ",以": 4112,
      "▁Post": 4113,
      "9\\xe5\\xb9\\xb4": 4114,
      "▁ter": 4115,
      "\\xe7\\xa5\\x9e": 4116,
      "第一": 4117,
      "opt": 4118,
      "\\xe6\\xac\\x8a": 4119,
      "▁content": 4120,
      "▁Char": 4121,
      "▁version": 4122,
      "add": 4123,
      "ided": 4124,
      "?</p>": 4125,
      "ification": 4126,
      "oph": 4127,
      "▁site": 4128,
      "▁time.": 4129,
      "▁total": 4130,
      "▁circ": 4131,
      "▁It’s": 4132,
      "▁check": 4133,
      "▁arch": 4134,
      "\\xe7\\x9f\\xa5": 4135,
      "▁worked": 4136,
      "▁vol": 4137,
      "▁<p><": 4138,
      "OS": 4139,
      "On": 4140,
      "▁mag": 4141,
      "▁section": 4142,
      "▁Not": 4143,
      "▁opp": 4144,
      "▁though": 4145,
      "▁hour": 4146,
      "back": 4147,
      "?</p>\n": 4148,
      "rodu": 4149,
      "▁environment": 4150,
      "ats": 4151,
      "\\xe5\\x88\\xa5": 4152,
      "sequ": 4153,
      "▁doing": 4154,
      "-w": 4155,
      "name": 4156,
      "▁dest": 4157,
      "sue": 4158,
      "\\xe5\\xbb\\xb": 4159,
      "\\xe6\\x97\\x8f": 4160,
      "4年": 4161,
      "▁Per": 4162,
      "▁saf": 4163,
      "\\xe6\\xb1\\xba": 4164,
      "▁Sch": 4165,
      "▁late": 4166,
      "\\xe8\\xbf\\x91": 4167,
      "▁Austral": 4168,
      "\\xe6\\xad\\xa6": 4169,
      "▁Sw": 4170,
      "ike": 4171,
      "aul": 4172,
      "▁arg": 4173,
      "\\xe4\\xb8\\xad\\xef\\xbc\\x8c": 4174,
      "▁once": 4175,
      "\\xe9\\xa0\\x98": 4176,
      "\\xe6\\x93\\x9a": 4177,
      "▁led": 4178,
      "\\xe6\\x9f": 4179,
      "▁super": 4180,
      "\\xe5\\xb1\\x80": 4181,
      "\\xe8\\xbf\\xb": 4182,
      "▁consider": 4183,
      "cast": 4184,
      "elt": 4185,
      "▁character": 4186,
      "▁father": 4187,
      "▁High": 4188,
      "iction": 4189,
      "位于": 4190,
      "▁sw": 4191,
      "▁cred": 4192,
      "\\xe6\\xb9": 4193,
      "▁percent": 4194,
      "▁link": 4195,
      "\\xef\\xbc\\x8c\\xe5\\x85\\xb6": 4196,
      "▁financial": 4197,
      "UR": 4198,
      "▁host": 4199,
      "\\xe9\\x9a\\x9b": 4200,
      "▁ener": 4201,
      "▁political": 4202,
      "amb": 4203,
      "▁side": 4204,
      "▁appe": 4205,
      "▁chall": 4206,
      "\\xe5\\x8e\\xbb": 4207,
      "▁comb": 4208,
      "▁looking": 4209,
      "▁above": 4210,
      "\\xe8\\xa7\\x92": 4211,
      "▁Che": 4212,
      "▁key": 4213,
      "▁risk": 4214,
      "or.": 4215,
      "\\xe9\\xa2": 4216,
      "Wh": 4217,
      "▁deal": 4218,
      "▁prim": 4219,
      "ceed": 4220,
      "▁relationship": 4221,
      "\\xe7\\xa0\\x94": 4222,
      "2年": 4223,
      "公里": 4224,
      "▁(A": 4225,
      "ports": 4226,
      "▁phot": 4227,
      "\\xe6\\xaf\\x8f": 4228,
      "-year": 4229,
      "age,": 4230,
      "iet": 4231,
      "4\\xe5\\xb9\\xb4": 4232,
      "ford": 4233,
      "▁recogn": 4234,
      "▁international": 4235,
      "mit": 4236,
      "ival": 4237,
      "\\xe5\\x8d\\xb3": 4238,
      "▁award": 4239,
      "▁diff": 4240,
      "▁bring": 4241,
      "▁command": 4242,
      "istic": 4243,
      "acher": 4244,
      "▁low": 4245,
      "ournal": 4246,
      "▁achie": 4247,
      "\\xe5\\xb9": 4248,
      "lete": 4249,
      "\\xe9\\xa0\\xad": 4250,
      "\\xe7\\x88": 4251,
      "▁Department": 4252,
      "\\xe7\\xa9\\x8d": 4253,
      "▁decision": 4254,
      "使用": 4255,
      "\\xe8\\x92": 4256,
      "▁seen": 4257,
      "2\\xe5\\xb9\\xb4": 4258,
      "▁production": 4259,
      "▁redu": 4260,
      "us,": 4261,
      "▁date": 4262,
      "▁La": 4263,
      "▁deg": 4264,
      "▁install": 4265,
      "▁successful": 4266,
      "▁French": 4267,
      "▁accept": 4268,
      "▁space": 4269,
      "\\xe6\\x94\\xaf": 4270,
      "▁significant": 4271,
      "▁sugg": 4272,
      "ological": 4273,
      "▁discuss": 4274,
      "▁suggest": 4275,
      "Re": 4276,
      "▁regard": 4277,
      "▁address": 4278,
      "▁ant": 4279,
      "\\xe8\\xab\\x96": 4280,
      "▁Some": 4281,
      "▁Ang": 4282,
      "\\xe9\\x8a": 4283,
      ".java:": 4284,
      "▁light": 4285,
      "\\xe9\\x81\\x8a": 4286,
      "uk": 4287,
      "uff": 4288,
      "\\xe7\\xaf\\x80": 4289,
      "▁tried": 4290,
      "\\xe8\\xac": 4291,
      "ental": 4292,
      "earch": 4293,
      "ones": 4294,
      "▁sold": 4295,
      "▁effort": 4296,
      "\\xe6\\xa2\\x9d": 4297,
      "-in": 4298,
      "\\xe5\\x8a\\x83": 4299,
      "\\xe5\\x8a\\x87": 4300,
      "▁industry": 4301,
      "日本": 4302,
      "▁press": 4303,
      "▁sym": 4304,
      "▁android": 4305,
      "▁half": 4306,
      "▁Fin": 4307,
      "▁rights": 4308,
      "urance": 4309,
      "▁getting": 4310,
      "▁****": 4311,
      "\\xe6\\x99\\xae": 4312,
      "▁mess": 4313,
      "▁ste": 4314,
      "3年": 4315,
      "90": 4316,
      "▁established": 4317,
      "ients": 4318,
      "可以": 4319,
      "▁exam": 4320,
      "ication": 4321,
      "fl": 4322,
      "▁ep": 4323,
      "iddle": 4324,
      "▁hon": 4325,
      "3)": 4326,
      "▁died": 4327,
      "▁histor": 4328,
      "▁ever": 4329,
      "\\xe6\\x94\\xbe": 4330,
      "▁band": 4331,
      "▁written": 4332,
      "serv": 4333,
      "▁attempt": 4334,
      "▁European": 4335,
      "\\xe4\\xbd\\x8d\\xe6\\x96\\xbc": 4336,
      "ma": 4337,
      "▁sett": 4338,
      "omin": 4339,
      "▁viol": 4340,
      "\\xe5\\x9c\\x8b\\xe5\\xae\\xb6": 4341,
      "\\xe5\\x8f\\xaa": 4342,
      "\\xe5\\x85\\x88": 4343,
      "rick": 4344,
      "\\xe8\\x96": 4345,
      "\\xe5\\x89\\xb": 4346,
      "ze": 4347,
      "ches": 4348,
      "icult": 4349,
      "\\xe6\\xa8\\x99": 4350,
      "clus": 4351,
      "没有": 4352,
      "▁Ne": 4353,
      "rest": 4354,
      "▁Ser": 4355,
      "▁System": 4356,
      "urb": 4357,
      "▁decl": 4358,
      "aching": 4359,
      "▁tw": 4360,
      "▁either": 4361,
      "▁attend": 4362,
      "\\xe5\\x86\\x8d": 4363,
      "\\xe7\\x97": 4364,
      "▁don't": 4365,
      "\\xe4\\xbb\\xa4": 4366,
      "193": 4367,
      "▁2017": 4368,
      "head": 4369,
      "ateg": 4370,
      "____": 4371,
      "\\xe7\\xb2": 4372,
      "▁2016": 4373,
      "\\xe5\\xb2": 4374,
      "ment,": 4375,
      ".C": 4376,
      "rect": 4377,
      "▁upon": 4378,
      "\\xe7\\xac\\xac\\xe4\\xb8\\x80": 4379,
      "▁tradition": 4380,
      "\\xe9\\xa6\\x99\\xe6\\xb8\\xaf": 4381,
      "AC": 4382,
      "cher": 4383,
      "▁(S": 4384,
      "国家": 4385,
      "gress": 4386,
      "iff": 4387,
      "▁letter": 4388,
      "▁money": 4389,
      "▁Tra": 4390,
      "\\xe9\\x80\\x8": 4391,
      "▁club": 4392,
      "▁application": 4393,
      "▁propos": 4394,
      "▁cop": 4395,
      "▁During": 4396,
      "▁William": 4397,
      "iber": 4398,
      "\\xe6\\xb4\\xbe": 4399,
      "部分": 4400,
      "ached": 4401,
      "right": 4402,
      "64": 4403,
      "▁2010": 4404,
      "▁suff": 4405,
      "\\xe7\\x86": 4406,
      "3\\xe5\\xb9\\xb4": 4407,
      "▁Int": 4408,
      "ster": 4409,
      "▁election": 4410,
      "▁log": 4411,
      "\\xe8\\xa6\\xaa": 4412,
      "▁assist": 4413,
      "ique": 4414,
      "▁--": 4415,
      "▁aud": 4416,
      "▁2018": 4417,
      "▁legal": 4418,
      "\\xe7\\xa6\\x8f": 4419,
      "........": 4420,
      "▁(C": 4421,
      "mod": 4422,
      "▁moved": 4423,
      "on.": 4424,
      "0000": 4425,
      "▁necess": 4426,
      "\\xe9\\x80\\xb2\\xe8\\xa1\\x8c": 4427,
      "▁else": 4428,
      "\\xe5\\xb8\\xb6": 4429,
      "field": 4430,
      "\\xe5\\x8f\\x88": 4431,
      "\\xe8\\xa3\\x9d": 4432,
      "\\xe8\\x82\\xb2": 4433,
      "oe": 4434,
      "estern": 4435,
      "▁network": 4436,
      "▁influ": 4437,
      "▁rev": 4438,
      "as,": 4439,
      "img": 4440,
      "2010": 4441,
      "▁specific": 4442,
      "0\\xa1": 4443,
      "▁First": 4444,
      "asing": 4445,
      "▁From": 4446,
      "▁below": 4447,
      "\\xe9\\x9b\\xbb\\xe5\\xbd\\xb1": 4448,
      "iple": 4449,
      "▁makes": 4450,
      "▁remain": 4451,
      "▁situ": 4452,
      "ice,": 4453,
      "\\xe8\\x98\\x8": 4454,
      "\\xe8\\x81\\xb7": 4455,
      "iate": 4456,
      "vil": 4457,
      "ampions": 4458,
      "\\xe4\\xbb\\xb6": 4459,
      "\\xe5\\xae\\x8c": 4460,
      "▁entire": 4461,
      "▁2023": 4462,
      "\\xe5\\x85\\xb5": 4463,
      "\\xe9\\x9d\\x9e": 4464,
      "ibrary": 4465,
      "dd": 4466,
      "\\xe9\\xa2\\xa8": 4467,
      "人,": 4468,
      "▁taken": 4469,
      "▁education": 4470,
      "\\xe8\\xbd\\x89": 4471,
      "▁considered": 4472,
      "▁Mark": 4473,
      "ally,": 4474,
      "anks": 4475,
      "▁OF": 4476,
      "atory": 4477,
      "atural": 4478,
      "▁track": 4479,
      "▁2015": 4480,
      "\\xe6\\xb4\\xb2": 4481,
      "▁I’m": 4482,
      "年(": 4483,
      "45": 4484,
      "▁happen": 4485,
      "\\xe9\\x8c": 4486,
      "abel": 4487,
      "load": 4488,
      "ment.": 4489,
      "aps": 4490,
      "▁College": 4491,
      "▁management": 4492,
      "▁coll": 4493,
      "▁foot": 4494,
      "attle": 4495,
      "\\xe6\\x89\\x93": 4496,
      "\\xe3\\x80\\x8d\\xef\\xbc\\x8c": 4497,
      "▁Phil": 4498,
      "ples": 4499,
      "\\xe5\\x99": 4500,
      "\\xe4\\xb8\\x94": 4501,
      "\\xe6\\xb3\\xa2": 4502,
      "ift": 4503,
      "▁you’re": 4504,
      "\\xe5\\xae\\x97": 4505,
      "▁Sm": 4506,
      "\\xe6\\xb2\\x92\\xe6\\x9c\\x89": 4507,
      "yth": 4508,
      "\\xe5\\x89\\xb5": 4509,
      "He": 4510,
      "▁purch": 4511,
      "▁wind": 4512,
      "▁ord": 4513,
      "▁cou": 4514,
      "river": 4515,
      "▁jud": 4516,
      "▁travel": 4517,
      "研究": 4518,
      "\\xe7\\x95\\xab": 4519,
      "\\xe5\\xb8\\x8c": 4520,
      "co": 4521,
      "\\xe9\\x86": 4522,
      "▁promot": 4523,
      "\\xe7\\x89\\x88": 4524,
      "▁<p>I'": 4525,
      "70": 4526,
      "▁times": 4527,
      "amp;": 4528,
      "\\xe6\\x94\\xb6": 4529,
      "ayer": 4530,
      "\\xe5\\xb9\\xb3\\xe6\\x96\\xb9": 4531,
      "▁image": 4532,
      "进行": 4533,
      "icated": 4534,
      "▁offer": 4535,
      "ociety": 4536,
      "▁compl": 4537,
      "\\xe4\\xbb\\x96\\xe5\\x80\\x91": 4538,
      "▁body": 4539,
      "iforn": 4540,
      "▁2014": 4541,
      "isl": 4542,
      "icro": 4543,
      "▁enough": 4544,
      "▁Educ": 4545,
      "ele": 4546,
      "fact": 4547,
      "inary": 4548,
      "▁express": 4549,
      "aign": 4550,
      "▁food": 4551,
      "\\xe5\\xbe\\x80": 4552,
      "▁potential": 4553,
      "▁property": 4554,
      "\")": 4555,
      "\\xe7\\x93": 4556,
      "aving": 4557,
      "▁issue": 4558,
      "▁becom": 4559,
      "\\xe6\\x88\\x91": 4560,
      "\\xe5\\x88\\x9d": 4561,
      "▁done": 4562,
      "5\\xb0": 4563,
      "▁games": 4564,
      "▁close": 4565,
      "▁50": 4566,
      "▁<p>H": 4567,
      "▁string": 4568,
      "\\xe9\\x80\\xa3": 4569,
      "\\xe7\\xa9\\xb6": 4570,
      "arget": 4571,
      "\\xe5\\xaf\\x86": 4572,
      "pecially": 4573,
      "ine,": 4574,
      "▁it's": 4575,
      "▁Val": 4576,
      "irt": 4577,
      "▁Instit": 4578,
      "▁performance": 4579,
      "\\xd": 4580,
      "▁mem": 4581,
      "ensive": 4582,
      "\\xe7\\x99\\xbd": 4583,
      "人民": 4584,
      "▁ens": 4585,
      "\\xe8\\xaa\\xbf": 4586,
      "▁difficult": 4587,
      "itect": 4588,
      "\\xe6\\xb0\\xa3": 4589,
      "▁related": 4590,
      "▁detail": 4591,
      "▁tour": 4592,
      "▁clos": 4593,
      "▁feat": 4594,
      "alse": 4595,
      "▁Dem": 4596,
      "▁rad": 4597,
      "▁Health": 4598,
      "\\xe7\\x83": 4599,
      "\\xe8\\x80": 4600,
      "▁appoint": 4601,
      "▁office": 4602,
      "▁mind": 4603,
      "▁separ": 4604,
      "\\xe8\\x98\\x87": 4605,
      "uel": 4606,
      "▁fig": 4607,
      "ate.": 4608,
      "▁president": 4609,
      "▁broad": 4610,
      "▁dat": 4611,
      "▁dam": 4612,
      "▁Dist": 4613,
      "dom": 4614,
      "ended": 4615,
      "▁video": 4616,
      "\\xe8\\xa8\\x80": 4617,
      "▁visit": 4618,
      "atter": 4619,
      "▁bar": 4620,
      "\\xe4\\xba\\xba\\xef\\xbc\\x8c": 4621,
      "▁Indian": 4622,
      "\\xe6\\x9c\\xaa": 4623,
      "\\xe5\\xb7\\xb1": 4624,
      "c\\x84": 4625,
      "=\"n": 4626,
      "▁answ": 4627,
      "▁meas": 4628,
      "\\xe9\\x99\\xa4": 4629,
      "▁dou": 4630,
      "Name": 4631,
      "▁bo": 4632,
      "ferred": 4633,
      "\\xe5\\xa0\\x8": 4634,
      "▁night": 4635,
      "▁Jap": 4636,
      "▁it,": 4637,
      "▁strate": 4638,
      "▁instit": 4639,
      "▁Lond": 4640,
      "overed": 4641,
      "▁stre": 4642,
      "▁item": 4643,
      "▁media": 4644,
      "▁2013": 4645,
      "ocal": 4646,
      "▁print": 4647,
      "▁Californ": 4648,
      "▁neg": 4649,
      "ly.": 4650,
      "cle": 4651,
      "org/": 4652,
      "-g": 4653,
      "▁Just": 4654,
      "▁0.": 4655,
      "▁impact": 4656,
      "\\xe8\\xa7\\x80": 4657,
      "▁Council": 4658,
      "▁room": 4659,
      "AM": 4660,
      "ald": 4661,
      "\\xe4\\xbc\\x8a": 4662,
      "▁Cons": 4663,
      "▁table": 4664,
      "\\xe6\\x9b\\xb2": 4665,
      "US": 4666,
      "ases": 4667,
      "▁Sen": 4668,
      "\\xe7\\xbf": 4669,
      "▁Black": 4670,
      "35": 4671,
      "eum": 4672,
      "\\xe5\\xbc\\xb7": 4673,
      "\\xe8\\xa8\\xb1": 4674,
      "Cl": 4675,
      "▁actually": 4676,
      "9\\xbe": 4677,
      "▁board": 4678,
      "▁example,": 4679,
      "▁San": 4680,
      "\\xe8\\xbe\\xa6": 4681,
      ",因": 4682,
      "App": 4683,
      "alt": 4684,
      "▁cannot": 4685,
      "▁Mon": 4686,
      "\\xe5\\xae\\x83": 4687,
      "▁id": 4688,
      "off": 4689,
      "▁says": 4690,
      "▁fav": 4691,
      "\\xe8\\xbd": 4692,
      "▁range": 4693,
      "\\xe9\\x9b\\xa2": 4694,
      "台湾": 4695,
      "▁fall": 4696,
      "ternal": 4697,
      "ength": 4698,
      "CH": 4699,
      "▁relig": 4700,
      "BC": 4701,
      "\\xe7\\xba\\x8": 4702,
      "\\xe5\\x99\\xa8": 4703,
      "p.": 4704,
      "ate,": 4705,
      "ogle": 4706,
      "▁ground": 4707,
      "▁activities": 4708,
      "ean": 4709,
      "rer": 4710,
      "▁dig": 4711,
      "ills": 4712,
      "\\xe6\\x8b\\xac": 4713,
      "\\xe7\\xa0\\x94\\xe7\\xa9\\xb6": 4714,
      "na": 4715,
      "平方": 4716,
      "▁class=\"": 4717,
      "\\xe9\\xa1\\x8c": 4718,
      "aughter": 4719,
      "38": 4720,
      "\\xe4\\xba\\xba\\xe6\\xb0\\x91": 4721,
      "▁living": 4722,
      "认为": 4723,
      ")。": 4724,
      "ula": 4725,
      "▁squ": 4726,
      "\\xe9\\x9a\\xa8": 4727,
      "-st": 4728,
      "arning": 4729,
      "▁2021": 4730,
      "\\xe7\\x92": 4731,
      "\\xe6\\xa6": 4732,
      "fig": 4733,
      "▁pers": 4734,
      "icip": 4735,
      "\\xe5\\x85\\xad": 4736,
      "▁Mich": 4737,
      "▁Red": 4738,
      "istry": 4739,
      "▁org.": 4740,
      "▁recent": 4741,
      "ides": 4742,
      "▁administ": 4743,
      "▁cell": 4744,
      "ine.": 4745,
      "\\xe4\\xbf\\xae": 4746,
      "▁General": 4747,
      "/0": 4748,
      "▁AND": 4749,
      "▁(M": 4750,
      "4)": 4751,
      "-A": 4752,
      "aring": 4753,
      "et.": 4754,
      "▁comes": 4755,
      "▁population": 4756,
      "世界": 4757,
      "\\xe5\\xbe\\x88": 4758,
      "▁son": 4759,
      "orge": 4760,
      "is.": 4761,
      "▁Church": 4762,
      "▁3.": 4763,
      "\\xe5\\xa5\\xbd": 4764,
      "i)": 4765,
      "▁40": 4766,
      "由于": 4767,
      "▁years,": 4768,
      "itiz": 4769,
      "▁path": 4770,
      "▁More": 4771,
      "▁increase": 4772,
      "▁vill": 4773,
      "\\xe5\\xae\\xa3": 4774,
      "▁Group": 4775,
      "\\xe8\\xa6\\x8b": 4776,
      "▁energy": 4777,
      "▁Wash": 4778,
      "\\xe7\\xb4\\x8d": 4779,
      "joy": 4780,
      "99": 4781,
      "String": 4782,
      "\\xe6\\xa0\\xb9": 4783,
      "▁Direct": 4784,
      "▁however,": 4785,
      "\\xe7\\xb5\\xa6": 4786,
      "List": 4787,
      "▁prob": 4788,
      "▁comput": 4789,
      "\\xe5\\x8c\\x85\\xe6\\x8b\\xac": 4790,
      "▁higher": 4791,
      "▁announced": 4792,
      "▁taking": 4793,
      "▁TO": 4794,
      "\\xe6\\x88\\xb2": 4795,
      "▁initial": 4796,
      "▁inj": 4797,
      "\\xe7\\x8b": 4798,
      "\\xe4\\xbb\\x8a": 4799,
      "▁2012": 4800,
      "▁qual": 4801,
      "▁cal": 4802,
      "▁goal": 4803,
      "▁lost": 4804,
      "▁prior": 4805,
      "▁pain": 4806,
      "\\xe7\\x88\\xb6": 4807,
      "\\xe5\\xa5\\xa7": 4808,
      "▁believe": 4809,
      "▁introdu": 4810,
      "aur": 4811,
      "\\xe6\\x93\\x94": 4812,
      "▁conduct": 4813,
      "press": 4814,
      "b\\xbf": 4815,
      "elling": 4816,
      "▁economic": 4817,
      "▁gradu": 4818,
      "ey": 4819,
      "omb": 4820,
      "▁them.": 4821,
      "▁idea": 4822,
      "▁rather": 4823,
      "▁mot": 4824,
      "▁Pal": 4825,
      "▁<a": 4826,
      "▁<li>": 4827,
      "▁includes": 4828,
      "td": 4829,
      "pped": 4830,
      "▁according": 4831,
      "▁red": 4832,
      "\\xef\\xbc\\x8c\\xe5\\x9b\\xa0": 4833,
      "nov": 4834,
      "▁Ital": 4835,
      "▁sex": 4836,
      "\\xe7\\x85": 4837,
      "▁County": 4838,
      "▁German": 4839,
      "▁capt": 4840,
      "\\xe4\\xb8\\x96\\xe7\\x95\\x8c": 4841,
      "▁military": 4842,
      "▁continued": 4843,
      "▁terms": 4844,
      "▁true": 4845,
      "▁rel=\"n": 4846,
      "▁mother": 4847,
      "aug": 4848,
      "\\xe8\\xaa\\x8d\\xe7\\x82\\xba": 4849,
      "\");": 4850,
      "oor": 4851,
      "▁implement": 4852,
      "ospital": 4853,
      "▁years.": 4854,
      "▁almost": 4855,
      "▁24": 4856,
      "\\xe8\\x87\\xaa\\xe5\\xb7\\xb1": 4857,
      "sy": 4858,
      "\\xe5\\xba\\xa7": 4859,
      "\\xe4\\xb8\\xbb\\xe8\\xa6\\x81": 4860,
      "▁website": 4861,
      "-M": 4862,
      "▁engine": 4863,
      "▁Air": 4864,
      "▁Fil": 4865,
      "▁wro": 4866,
      "ession": 4867,
      "ittee": 4868,
      "▁accom": 4869,
      "\\xe9\\xa9": 4870,
      "ledge": 4871,
      "RE": 4872,
      "ations,": 4873,
      "▁especially": 4874,
      "ations.": 4875,
      "\\xe7\\xba\\x8c": 4876,
      "▁Don": 4877,
      "▁break": 4878,
      "ators": 4879,
      "ure,": 4880,
      "\\xe9\\x99\\xbd": 4881,
      "\\xe5\\x90\\xb": 4882,
      "▁“I": 4883,
      "▁others": 4884,
      "----------------": 4885,
      "\\xe9\\xa4\\xa8": 4886,
      "▁ship": 4887,
      "\\xe5\\x9c\\x92": 4888,
      "ots": 4889,
      "▁Port": 4890,
      "▁mor": 4891,
      "▁depend": 4892,
      "\\xe5\\x95\\x8f": 4893,
      "ayout": 4894,
      "\\xe7\\x88\\xad": 4895,
      "▁fight": 4896,
      "\\xe4\\xba\\xa6": 4897,
      "▁Street": 4898,
      "▁told": 4899,
      "▁Sim": 4900,
      "▁quick": 4901,
      "▁Center": 4902,
      "ampionship": 4903,
      "▁miss": 4904,
      "\\xe5\\x8d\\x94": 4905,
      "▁playing": 4906,
      "\\xe7\\x94\\xb1\\xe6\\x96\\xbc": 4907,
      "\\xe5\\xb1\\x85": 4908,
      "▁black": 4909,
      "▁improve": 4910,
      "unch": 4911,
      "ese": 4912,
      "\\xe6\\xad\\xbb": 4913,
      "▁acqu": 4914,
      ".p": 4915,
      "▁currently": 4916,
      "olic": 4917,
      "▁companies": 4918,
      "\\xe6\\xbc\\xa2": 4919,
      "▁tool": 4920,
      "\\xe5\\xbc\\x95": 4921,
      "▁match": 4922,
      "▁hous": 4923,
      "\\xe9\\x83\\xa8\\xe5\\x88\\x86": 4924,
      "包括": 4925,
      "▁Your": 4926,
      "pose": 4927,
      "▁writing": 4928,
      "atform": 4929,
      "▁ge": 4930,
      "▁himself": 4931,
      "bor": 4932,
      "ocr": 4933,
      "▁21": 4934,
      "\\xe8\\x88\\x88": 4935,
      "▁example": 4936,
      "▁provides": 4937,
      "\\xe8\\xa9\\x95": 4938,
      "▁investig": 4939,
      "主要": 4940,
      "▁According": 4941,
      "▁St.": 4942,
      "\\xe9\\x9f": 4943,
      "▁Washington": 4944,
      "):": 4945,
      "\\xe5\\x91\\xa8": 4946,
      "rated": 4947,
      "▁year,": 4948,
      "ce,": 4949,
      "▁(b": 4950,
      "▁reported": 4951,
      "rc": 4952,
      "▁someone": 4953,
      "agement": 4954,
      "nown": 4955,
      "This": 4956,
      "▁fire": 4957,
      "▁cr": 4958,
      "▁Republic": 4959,
      "\\xe5\\xa9": 4960,
      "ops": 4961,
      "▁David": 4962,
      "▁Commun": 4963,
      "▁months": 4964,
      "▁<p>A": 4965,
      "▁“The": 4966,
      "\\xe6\\x95\\x85": 4967,
      "pri": 4968,
      "▁23": 4969,
      "▁issues": 4970,
      "▁front": 4971,
      "'re": 4972,
      "历史": 4973,
      "▁needs": 4974,
      "▁origin": 4975,
      "▁concern": 4976,
      "ari": 4977,
      ",这": 4978,
      "Im": 4979,
      "的一": 4980,
      "\\xe5\\x90\\x89": 4981,
      "委员": 4982,
      "\\xe6\\x9c\\x8d": 4983,
      "TS": 4984,
      "\\xe5\\x8f\\xa6": 4985,
      "▁modern": 4986,
      "Com": 4987,
      "▁sound": 4988,
      "\\xe5\\xa8\\x8": 4989,
      "▁anim": 4990,
      "▁occur": 4991,
      "▁independ": 4992,
      "\\xe6\\xb1\\x82": 4993,
      "▁whole": 4994,
      "spring": 4995,
      "▁Japan": 4996,
      "ales": 4997,
      "\\xe6\\xbe": 4998,
      "▁Hol": 4999,
      "▁East": 5000,
      "▁response": 5001,
      "rig": 5002,
      "▁Trans": 5003,
      "key": 5004,
      "pite": 5005,
      "▁ess": 5006,
      "\\xe7\\x9a\\x84\\xe4\\xb8\\x80": 5007,
      "\\xe8\\xbc\\x83": 5008,
      "mission": 5009,
      "▁contribut": 5010,
      "▁bi": 5011,
      "▁gen": 5012,
      "ography": 5013,
      "▁Board": 5014,
      "▁consum": 5015,
      "▁bit": 5016,
      "ana": 5017,
      "\\xe7\\x94\\xb0": 5018,
      "\\xe5\\x85\\xab": 5019,
      "\\xe6\\x8a\\x95": 5020,
      "\\xe7\\xbd\\xae": 5021,
      "ux": 5022,
      "▁Pat": 5023,
      "fort": 5024,
      "\\xe7\\xb6\\xb2": 5025,
      "▁heart": 5026,
      "▁190": 5027,
      "▁2011": 5028,
      "rug": 5029,
      "\\xe8\\x81\\x96": 5030,
      "▁ill": 5031,
      "▁store": 5032,
      "\\xe9\\x99\\xb8": 5033,
      "▁party": 5034,
      "\\xe8\\xab\\xb": 5035,
      "▁connect": 5036,
      "▁loss": 5037,
      "▁enjoy": 5038,
      "▁regular": 5039,
      "ires": 5040,
      "▁search": 5041,
      "▁2008": 5042,
      "\\xe6\\xaf\\x8d": 5043,
      "Res": 5044,
      "▁campaign": 5045,
      "▁imm": 5046,
      "\\xe6\\xa8\\xa3": 5047,
      "\\xe9\\xbb\\x83": 5048,
      "▁shows": 5049,
      "Data": 5050,
      "37": 5051,
      "▁likely": 5052,
      "oo": 5053,
      "▁Ste": 5054,
      "▁vict": 5055,
      "▁throughout": 5056,
      "\\xe8\\x90\\xbd": 5057,
      "第二": 5058,
      "\\xe5\\x8a\\x9f": 5059,
      "a)": 5060,
      "▁instead": 5061,
      "▁walk": 5062,
      "▁protect": 5063,
      "▁contain": 5064,
      "\\xe6\\xa7\\x8b": 5065,
      "▁sect": 5066,
      "\\xe6\\xa1\\x88": 5067,
      "▁gr": 5068,
      "▁matter": 5069,
      "Serv": 5070,
      "▁contact": 5071,
      "cer": 5072,
      "▁Work": 5073,
      "▁cover": 5074,
      "”。": 5075,
      "▁joined": 5076,
      "▁park": 5077,
      "▁title": 5078,
      "\\xe7\\x87\\x9f": 5079,
      "▁J.": 5080,
      "▁England": 5081,
      "▁Ant": 5082,
      "_NEWLINE_S": 5083,
      "▁training": 5084,
      "▁north": 5085,
      "ees": 5086,
      "▁round": 5087,
      "▁running": 5088,
      "▁quality": 5089,
      "mitted": 5090,
      "\\xe6\\x97\\xa9": 5091,
      "arter": 5092,
      "\\xe8\\xa6\\x8f": 5093,
      "\\xe6\\xad\\xb7\\xe5\\x8f\\xb2": 5094,
      "▁non-": 5095,
      "▁learning": 5096,
      "▁returned": 5097,
      "48": 5098,
      "\\xe6\\xad\\x8c": 5099,
      "▁statement": 5100,
      "\\xe8\\xb6\\x8a": 5101,
      "55": 5102,
      "avy": 5103,
      "\\xe8\\xb3\\xaa": 5104,
      "\\xe6\\xbd": 5105,
      "ait": 5106,
      "ance,": 5107,
      "▁year.": 5108,
      "▁Mod": 5109,
      "ET": 5110,
      "他的": 5111,
      "▁Prof": 5112,
      "We": 5113,
      "html": 5114,
      "▁organiz": 5115,
      "\\xe5\\x85\\xb7": 5116,
      "\\xef\\xbc\\x8c\\xe9\\x80\\x99": 5117,
      "▁block": 5118,
      "▁said.": 5119,
      "\\xe7\\x95\\xb6\\xe6\\x99\\x82": 5120,
      "▁developed": 5121,
      "▁itself": 5122,
      "ferrer": 5123,
      "▁expect": 5124,
      "\\xe9\\xa7": 5125,
      "▁mom": 5126,
      "\\xe7\\xb7\\xa8": 5127,
      "▁page": 5128,
      "\\xe9\\x84\\x89": 5129,
      "▁vot": 5130,
      "\\xe8\\xa1\\x9b": 5131,
      "utions": 5132,
      "▁challeng": 5133,
      "log": 5134,
      "oon": 5135,
      "▁Rev": 5136,
      "▁integ": 5137,
      "rown": 5138,
      "\\xe5\\x85\\x92": 5139,
      "print": 5140,
      "▁Bel": 5141,
      "▁that,": 5142,
      "▁Other": 5143,
      "▁behind": 5144,
      ":0": 5145,
      "oreferrer": 5146,
      "▁mer": 5147,
      "ribution": 5148,
      "▁capital": 5149,
      "▁James": 5150,
      "ivity": 5151,
      "▁2009": 5152,
      "▁themsel": 5153,
      "▁continue": 5154,
      "36": 5155,
      "hood": 5156,
      "mercial": 5157,
      "▁valu": 5158,
      "\\xe5\\x9c\\x9f": 5159,
      "▁execut": 5160,
      "word": 5161,
      "▁2000": 5162,
      "\\xe6\\x94\\xbb": 5163,
      "oyal": 5164,
      "burg": 5165,
      "atal": 5166,
      "▁fem": 5167,
      "▁Paul": 5168,
      "▁display": 5169,
      "▁extend": 5170,
      "▁web": 5171,
      "为“": 5172,
      "\\xe8\\x8b": 5173,
      "\\xe5\\x8a\\xa9": 5174,
      "\\xe6\\x9a": 5175,
      "▁yet": 5176,
      "\\xe7\\xb5\\x82": 5177,
      "\\xe7\\x8d\\x8e": 5178,
      "▁centur": 5179,
      "block": 5180,
      "oreferrer\">": 5181,
      "\\xef\\xbc\\x89\\xe3\\x80\\x82": 5182,
      "▁brother": 5183,
      "▁wrote": 5184,
      "▁cut": 5185,
      "\\xe7\\x82\\xba\\xe3\\x80\\x8c": 5186,
      "\\xe6\\xae\\xb5": 5187,
      "▁leading": 5188,
      "发展": 5189,
      "▁Div": 5190,
      "rought": 5191,
      ".A": 5192,
      "face": 5193,
      "▁Island": 5194,
      "ael": 5195,
      "\\xe9\\xa3\\x9b": 5196,
      "▁insp": 5197,
      "▁defe": 5198,
      "\\xe9\\x8c\\x84": 5199,
      "th,": 5200,
      "▁via": 5201,
      "▁immed": 5202,
      "▁Arch": 5203,
      "▁road": 5204,
      "▁prevent": 5205,
      "unction": 5206,
      "▁outside": 5207,
      "oke": 5208,
      "\\xe4\\xb9\\x9d": 5209,
      "▁River": 5210,
      "oper": 5211,
      "▁princ": 5212,
      "▁dr": 5213,
      "▁district": 5214,
      "EL": 5215,
      "ension": 5216,
      "▁policy": 5217,
      "▁saw": 5218,
      "\\xe8\\xa9\\xa6": 5219,
      "▁Our": 5220,
      "获得": 5221,
      "▁gave": 5222,
      "▁Here": 5223,
      "▁additional": 5224,
      "▁seems": 5225,
      "date": 5226,
      "▁Techn": 5227,
      "▁Award": 5228,
      "▁changes": 5229,
      "▁results": 5230,
      "ellow": 5231,
      "▁sat": 5232,
      "\\xe5\\x89\\xaf": 5233,
      "▁added": 5234,
      "\\xe5\\x85\\xb6\\xe4\\xbb\\x96": 5235,
      "▁ten": 5236,
      "osing": 5237,
      "▁news": 5238,
      "\\xe7\\x99\\xbe": 5239,
      "\\xe9\\x9d\\xa2\\xe7\\xa9\\x8d": 5240,
      "\\xe5\\xb7\\xa5\\xe4\\xbd\\x9c": 5241,
      "自己": 5242,
      "▁soft": 5243,
      "\\xe8\\xb2\\xac": 5244,
      "-S": 5245,
      "▁Rober": 5246,
      "class": 5247,
      "\\xe7\\xa4\\xbe\\xe5\\x8d\\x80": 5248,
      "▁pack": 5249,
      "▁UK": 5250,
      "▁teacher": 5251,
      "\\xe6\\x8e\\xa8": 5252,
      "▁cause": 5253,
      "▁station": 5254,
      "</li>": 5255,
      "use": 5256,
      "’ll": 5257,
      "▁Thom": 5258,
      "▁average": 5259,
      "▁2,": 5260,
      "▁organization": 5261,
      "▁mach": 5262,
      "▁church": 5263,
      "ctor": 5264,
      "▁points": 5265,
      "ume": 5266,
      "▁arm": 5267,
      "\\xe8\\xb6\\x85": 5268,
      "\\xe5\\xa8\\x81": 5269,
      "ama": 5270,
      "\\xe5\\xa2\\x9e": 5271,
      "▁grant": 5272,
      "▁send": 5273,
      "▁wanted": 5274,
      "amer": 5275,
      "\\xe9\\x9f\\xb": 5276,
      "\\xe4\\xbe\\x9b": 5277,
      "▁married": 5278,
      "▁source": 5279,
      "em>": 5280,
      "yp": 5281,
      "isions": 5282,
      "▁stay": 5283,
      "onent": 5284,
      "\\xe8\\x97\\x9d": 5285,
      "stack": 5286,
      "▁A.": 5287,
      "rive": 5288,
      "aged": 5289,
      "pper": 5290,
      "▁Christian": 5291,
      "\\xe5\\xa7\\x94\\xe5\\x93\\xa1": 5292,
      "ks": 5293,
      "▁buy": 5294,
      "iation": 5295,
      "▁<p>The": 5296,
      "\\xe7\\xac\\xac\\xe4\\xba\\x8c": 5297,
      "\\xe5\\xb8\\x9d": 5298,
      "-based": 5299,
      "ny": 5300,
      "oul": 5301,
      "▁liter": 5302,
      "col": 5303,
      "▁firm": 5304,
      "▁bank": 5305,
      "▁draw": 5306,
      "\\xe5\\xa4\\xb1": 5307,
      "▁Research": 5308,
      "-1": 5309,
      "▁Bi": 5310,
      "\\xe4\\xbb\\xa3\\xe8\\xa1\\xa8": 5311,
      "▁involved": 5312,
      "\\xe8\\xbd\\x84": 5313,
      "▁usually": 5314,
      "\\xe9\\x9b\\xb7": 5315,
      "▁construction": 5316,
      "▁standard": 5317,
      "rael": 5318,
      "\\xe5\\xae\\xb9": 5319,
      "▁Mor": 5320,
      "▁America": 5321,
      "▁Of": 5322,
      "nam": 5323,
      "\\xe8\\xad\\xb7": 5324,
      "\\xe7\\x96": 5325,
      "▁natural": 5326,
      "inese": 5327,
      "▁earli": 5328,
      "ging": 5329,
      "ING": 5330,
      "▁described": 5331,
      "\\xe8\\xb6\\xb3": 5332,
      "\\xe7\\x9c\\xbe": 5333,
      "levision": 5334,
      "erous": 5335,
      "▁proced": 5336,
      "▁federal": 5337,
      "\\xef\\xbc\\x8c\\xe4\\xbb\\x96": 5338,
      "\\xe5\\xae\\xa2": 5339,
      "order": 5340,
      "en.": 5341,
      "\\xe8\\xa1\\x97": 5342,
      "ae": 5343,
      "5)": 5344,
      "当时": 5345,
      "anced": 5346,
      "▁necessary": 5347,
      "▁George": 5348,
      "▁consist": 5349,
      "▁signed": 5350,
      "▁asked": 5351,
      "▁Service": 5352,
      "▁civil": 5353,
      "\\xe6\\x9f\\xa5": 5354,
      "\\xe7\\xb9\\xb": 5355,
      "bert": 5356,
      ",是": 5357,
      "▁face": 5358,
      "▁Lou": 5359,
      "▁India": 5360,
      "aries": 5361,
      "ites": 5362,
      "\\xe5\\xad\\xa3": 5363,
      "\\xe8\\x88\\xaa": 5364,
      "▁south": 5365,
      "▁Sl": 5366,
      "\\xe3\\x83": 5367,
      "\\xe9\\x82\\xa3": 5368,
      "▁designed": 5369,
      "\\xe9\\xa0\\x85": 5370,
      "\\xe8\\x8a\\xb1": 5371,
      "▁solution": 5372,
      "▁charg": 5373,
      "\\xe6\\x84\\x9b": 5374,
      "rem": 5375,
      "rupt": 5376,
      "etimes": 5377,
      "ids": 5378,
      "imately": 5379,
      "used": 5380,
      "▁pred": 5381,
      "\\xe5\\x82\\x99": 5382,
      "▁approach": 5383,
      "icles": 5384,
      "▁Home": 5385,
      "▁multiple": 5386,
      "\\xe6\\xbf\\x9f": 5387,
      "ql": 5388,
      "▁takes": 5389,
      "▁\"The": 5390,
      "\\xe5\\x8d\\x9a": 5391,
      "▁trust": 5392,
      "band": 5393,
      "obile": 5394,
      "32": 5395,
      "rel": 5396,
      "▁coun": 5397,
      "imum": 5398,
      "▁Science": 5399,
      "工作": 5400,
      "\\xe7\\x81\\xab": 5401,
      "。这": 5402,
      "\\xe9\\xbd": 5403,
      "quote": 5404,
      "\\xe8\\x87\\xb4": 5405,
      "\\xe8\\xb2\\xa0": 5406,
      "net": 5407,
      "▁ful": 5408,
      "▁Mer": 5409,
      "\\xe8\\x96\\xa9": 5410,
      "▁target": 5411,
      "▁collection": 5412,
      "▁decided": 5413,
      "SS": 5414,
      "arily": 5415,
      "\\xe7\\xb4\\x85": 5416,
      "\\xe6\\xb9\\x96": 5417,
      "▁limited": 5418,
      "39": 5419,
      "▁Section": 5420,
      "▁connection": 5421,
      "roy": 5422,
      "▁complex": 5423,
      "▁offers": 5424,
      "▁(in": 5425,
      "\\xe7\\x8d\\xb2\\xe5\\xbe\\x97": 5426,
      "▁ey": 5427,
      "My": 5428,
      "item": 5429,
      "\\xe6\\xa3\\xae": 5430,
      "▁beginning": 5431,
      "▁physical": 5432,
      "lor": 5433,
      "icient": 5434,
      "ufact": 5435,
      "\\xe6\\xba\\x90": 5436,
      "▁although": 5437,
      "▁behav": 5438,
      "31": 5439,
      "exic": 5440,
      "▁staff": 5441,
      "▁abs": 5442,
      "▁size": 5443,
      "其他": 5444,
      "▁pie": 5445,
      "\\xe5\\xad\\x98": 5446,
      "▁Mary": 5447,
      "\\xe4\\xbe\\x8b": 5448,
      "rec": 5449,
      "\\xe5\\x9c\\x8b\\xe9\\x9a\\x9b": 5450,
      "uge": 5451,
      "▁crim": 5452,
      "▁recomm": 5453,
      "\\xe8\\xa9\\xb": 5454,
      "\\xe9\\x80\\x9f": 5455,
      "▁veh": 5456,
      "blockquote": 5457,
      "▁Dr.": 5458,
      "\\xe9\\x9b\\x99": 5459,
      "oved": 5460,
      "▁Ber": 5461,
      "▁evidence": 5462,
      "▁Commission": 5463,
      "blockquote>": 5464,
      "eff": 5465,
      "▁Cong": 5466,
      "▁technology": 5467,
      "▁cross": 5468,
      "▁rule": 5469,
      "▁},": 5470,
      "mp": 5471,
      "▁dom": 5472,
      "\\xe3\\x80\\x8d\\xe3\\x80\\x82": 5473,
      "\\xe9\\x9f\\xbf": 5474,
      ".d": 5475,
      "ares": 5476,
      "lements": 5477,
      "▁rate": 5478,
      "▁(P": 5479,
      "apter": 5480,
      "▁surv": 5481,
      "代表": 5482,
      "▁Sub": 5483,
      "iment": 5484,
      "▁(201": 5485,
      "\\xe4\\xbb\\xbd": 5486,
      "▁science": 5487,
      "rror": 5488,
      "an.": 5489,
      "roups": 5490,
      "▁produced": 5491,
      "▁simple": 5492,
      "▁href=\"https://": 5493,
      "面积": 5494,
      "▁Sing": 5495,
      "▁Jew": 5496,
      "ude": 5497,
      "cul": 5498,
      "\\xe9\\xac": 5499,
      "▁daughter": 5500,
      "izing": 5501,
      "▁norm": 5502,
      "\\xe9\\x9d\\x92": 5503,
      "\\xe5\\x8d\\x87": 5504,
      "\\xe7\\x99\\xbc\\xe5\\xb1\\x95": 5505,
      "But": 5506,
      "\\xe8\\x81\\xb2": 5507,
      "\\xe5\\x91\\x8a": 5508,
      "▁insurance": 5509,
      "ely,": 5510,
      "rab": 5511,
      "▁rout": 5512,
      "47": 5513,
      "▁Israel": 5514,
      "ar,": 5515,
      "▁dise": 5516,
      "\\xe5\\xaf\\xab": 5517,
      "iated": 5518,
      "day,": 5519,
      "500": 5520,
      "OT": 5521,
      "▁seek": 5522,
      "\\xe8\\xb2\\xbb": 5523,
      "\\xe7\\x8e\\x87": 5524,
      "▁achieve": 5525,
      "rast": 5526,
      "utes": 5527,
      "▁Public": 5528,
      "▁sus": 5529,
      "orthern": 5530,
      "▁security": 5531,
      "▁cele": 5532,
      "\\xe5\\x93\\x88": 5533,
      "▁gre": 5534,
      "▁police": 5535,
      "▁receive": 5536,
      "sych": 5537,
      "fect": 5538,
      "\\xe6\\x90": 5539,
      "▁events": 5540,
      "▁Que": 5541,
      "uke": 5542,
      "▁Day": 5543,
      "ure.": 5544,
      "\\xe5\\xb9\\xb3\\xe6\\x96\\xb9\\xe5\\x85\\xac\\xe9\\x87\\x8c": 5545,
      "ij": 5546,
      "▁mid": 5547,
      "▁mass": 5548,
      "▁features": 5549,
      "▁column": 5550,
      "\\xe9\\x99\\xb3": 5551,
      "\\xe7\\x92\\xb0": 5552,
      "\\xe7\\xb9\\xbc": 5553,
      "▁Rich": 5554,
      "中的": 5555,
      "▁Ob": 5556,
      "come": 5557,
      "lib": 5558,
      "\\xe5\\x8b\\x92": 5559,
      "▁architect": 5560,
      "▁bur": 5561,
      "▁hot": 5562,
      "\\xe6\\x93\\x94\\xe4\\xbb\\xbb": 5563,
      "ic,": 5564,
      "a\\x8a": 5565,
      "▁region": 5566,
      "▁article": 5567,
      "atur": 5568,
      "▁Mexic": 5569,
      "\\xe5\\x8a\\x89": 5570,
      "▁Sam": 5571,
      "▁(1)": 5572,
      "▁countries": 5573,
      "isode": 5574,
      "▁forward": 5575,
      "sec": 5576,
      "reek": 5577,
      "▁global": 5578,
      "MP": 5579,
      "▁wrong": 5580,
      "190": 5581,
      "▁meeting": 5582,
      "\\xe8\\x8c": 5583,
      "ider": 5584,
      "▁Mag": 5585,
      "hem": 5586,
      "\\xe4\\xb8\\xad\\xe7\\x9a\\x84": 5587,
      "▁Dis": 5588,
      "▁email": 5589,
      "▁states": 5590,
      "▁structure": 5591,
      "\\xe6\\x95\\xb4": 5592,
      "▁write": 5593,
      "erve": 5594,
      "▁Ben": 5595,
      "9\\xbf": 5596,
      "▁void": 5597,
      "atives": 5598,
      "oring": 5599,
      "LL": 5600,
      "\\xe7\\xb4\\xb": 5601,
      "▁speak": 5602,
      "’ve": 5603,
      "▁Mac": 5604,
      "hing": 5605,
      "▁anyone": 5606,
      "forms": 5607,
      "\\xe4\\xbb\\xa5\\xe5\\x8f\\x8a": 5608,
      "3/": 5609,
      "II": 5610,
      "▁(D": 5611,
      "▁partn": 5612,
      "▁soon": 5613,
      "\\xe7\\x94\\xb7": 5614,
      "mon": 5615,
      "sk": 5616,
      "\\xe3\\x80\\x82\\xe9\\x80\\x99": 5617,
      "▁=&gt;": 5618,
      "framework": 5619,
      "▁director": 5620,
      "\\xe8\\xae\\x93": 5621,
      "ements": 5622,
      "▁Now": 5623,
      "▁km": 5624,
      "▁China": 5625,
      "igned": 5626,
      "\\xe5\\xa1\\x94": 5627,
      "ply": 5628,
      "▁sense": 5629,
      "t.": 5630,
      "\\xe9\\x82\\x8a": 5631,
      "\\xe6\\x83\\xb3": 5632,
      "▁District": 5633,
      "uments": 5634,
      "▁hit": 5635,
      "▁arriv": 5636,
      "\\xe5\\x8d\\x8a": 5637,
      "\\xe7\\x99\\xbb": 5638,
      "▁girl": 5639,
      "▁Found": 5640,
      "▁concept": 5641,
      "▁Chinese": 5642,
      "▁practice": 5643,
      "\\xe7\\x97\\x85": 5644,
      "46": 5645,
      "ess.": 5646,
      "rial": 5647,
      "ager": 5648,
      "▁platform": 5649,
      "▁Although": 5650,
      "▁language": 5651,
      ":5": 5652,
      "▁Tex": 5653,
      "\\xef\\xbc\\x8c\\xe6\\x98\\xaf": 5654,
      "▁demand": 5655,
      "\\xe4\\xbe\\xbf": 5656,
      "known": 5657,
      "\\xe6\\xad\\x90": 5658,
      "▁Business": 5659,
      "\\xe6\\x84\\x9f": 5660,
      "\\xe6\\xae\\xba": 5661,
      "\\xe4\\xb8\\x83": 5662,
      "\\xe4\\xb8\\xad\\xe5\\xbf\\x83": 5663,
      "▁this.": 5664,
      "▁whose": 5665,
      "▁Rec": 5666,
      "▁brought": 5667,
      "\\xe6\\x8a\\x80": 5668,
      "▁growth": 5669,
      "ase.": 5670,
      "▁Mart": 5671,
      "▁Green": 5672,
      "▁citiz": 5673,
      "▁player": 5674,
      "\\xe9\\x9c\\x80": 5675,
      "hel": 5676,
      "▁force": 5677,
      "\\xe8\\x89\\xa6": 5678,
      "test": 5679,
      "▁cand": 5680,
      "▁emb": 5681,
      "▁medical": 5682,
      "▁Germany": 5683,
      "▁variety": 5684,
      "▁largest": 5685,
      "\\xe6\\x9d\\xb": 5686,
      "▁jav": 5687,
      "▁</code></pre>\n": 5688,
      "▁ability": 5689,
      "▁spend": 5690,
      "vest": 5691,
      "以及": 5692,
      "irit": 5693,
      "\\xe5\\x83\\x8f": 5694,
      "▁constit": 5695,
      "▁Education": 5696,
      "\\xe6\\x91": 5697,
      "▁collect": 5698,
      "\\xe7\\x8f\\xad": 5699,
      "room": 5700,
      "▁TV": 5701,
      "▁Jack": 5702,
      "▁Angel": 5703,
      "\\xe7\\xaf\\x89": 5704,
      "▁and,": 5705,
      "\\xe7\\x94\\xb2": 5706,
      "\\xe6\\xa8\\xa1": 5707,
      "▁opened": 5708,
      "▁foreign": 5709,
      "▁Top": 5710,
      "▁Develop": 5711,
      ",他": 5712,
      "▁Over": 5713,
      "▁appeared": 5714,
      "\\xe7\\x9c\\x9f": 5715,
      "▁188": 5716,
      "ython": 5717,
      "电影": 5718,
      "\\xe5\\xb4": 5719,
      "49": 5720,
      "▁lic": 5721,
      "▁\"A": 5722,
      "-C": 5723,
      "run": 5724,
      "ara": 5725,
      "▁corpor": 5726,
      "担任": 5727,
      "政治": 5728,
      "▁Care": 5729,
      "\\xe6\\x89\\x8d": 5730,
      "Type": 5731,
      "▁complete": 5732,
      "▁wor": 5733,
      "▁(N": 5734,
      "▁screen": 5735,
      "▁allowed": 5736,
      "▁Institute": 5737,
      "▁String": 5738,
      "umber": 5739,
      "▁Under": 5740,
      "▁avoid": 5741,
      "▁correct": 5742,
      "▁<p>I'm": 5743,
      "▁Robert": 5744,
      "▁watch": 5745,
      "\\xe3\\x81": 5746,
      "▁analys": 5747,
      "vey": 5748,
      "venue": 5749,
      "ises": 5750,
      "▁Since": 5751,
      "\\xe4\\xbd\\x95": 5752,
      ".c": 5753,
      "▁sen": 5754,
      "▁nature": 5755,
      "▁commercial": 5756,
      "▁followed": 5757,
      "▁Sal": 5758,
      "▁Dan": 5759,
      "▁189": 5760,
      "▁active": 5761,
      "annel": 5762,
      "-19": 5763,
      "▁Book": 5764,
      "\\xe7\\x9d": 5765,
      "\\xe5\\xbe\\xa9": 5766,
      "▁probably": 5767,
      "het": 5768,
      "▁stru": 5769,
      "ics,": 5770,
      "\\xe4\\xbd\\x9c\\xe7\\x82\\xba": 5771,
      "▁degree": 5772,
      "\\xe7\\x9a\\x87": 5773,
      "▁Vol": 5774,
      "▁everything": 5775,
      "▁establish": 5776,
      "▁ensure": 5777,
      "cing": 5778,
      "▁Alex": 5779,
      "▁4.": 5780,
      "▁products": 5781,
      "中华": 5782,
      "▁Person": 5783,
      "outhern": 5784,
      "\\xe6\\xb2\\x99": 5785,
      "▁Association": 5786,
      "▁emer": 5787,
      "like": 5788,
      "文化": 5789,
      "▁base": 5790,
      "tty": 5791,
      "▁regist": 5792,
      "CC": 5793,
      "作为": 5794,
      "\\xe4\\xbc\\xaf": 5795,
      "▁reve": 5796,
      "▁Hall": 5797,
      "pen": 5798,
      "acc": 5799,
      "▁2007": 5800,
      "成立": 5801,
      "▁gun": 5802,
      "ternet": 5803,
      "系统": 5804,
      "▁Program": 5805,
      "itting": 5806,
      "\\xe6\\x94\\xbf\\xe6\\xb2\\xbb": 5807,
      "▁groups": 5808,
      "force": 5809,
      "orial": 5810,
      "▁conv": 5811,
      "▁didn’t": 5812,
      ".D": 5813,
      ":“": 5814,
      "\\xe6\\x96\\x87\\xe5\\x8c\\x96": 5815,
      "▁Government": 5816,
      "▁http://": 5817,
      "▁Brown": 5818,
      "▁knowledge": 5819,
      "▁academ": 5820,
      "ription": 5821,
      "\\xe8\\x85": 5822,
      "▁load": 5823,
      "▁option": 5824,
      "▁debut": 5825,
      "▁longer": 5826,
      "aught": 5827,
      ".get": 5828,
      "▁threat": 5829,
      "▁coming": 5830,
      "▁News": 5831,
      "\\xe9\\x86\\xab": 5832,
      "6)": 5833,
      "Un": 5834,
      "▁alt": 5835,
      "▁exhib": 5836,
      "mark": 5837,
      "▁ver": 5838,
      "▁ded": 5839,
      "\\xe6\\x96\\x99": 5840,
      "iance": 5841,
      ",不": 5842,
      "-&gt;": 5843,
      "ming": 5844,
      "itch": 5845,
      "▁Mil": 5846,
      "▁defin": 5847,
      "▁credit": 5848,
      "c\\x8b": 5849,
      "▁<p><strong>": 5850,
      "人。": 5851,
      "▁\"S": 5852,
      "\\xe5\\x9c\\x8d": 5853,
      "▁govern": 5854,
      "▁experien": 5855,
      "▁eight": 5856,
      "▁Most": 5857,
      "▁Inter": 5858,
      "vis": 5859,
      "▁towards": 5860,
      "▁leave": 5861,
      "▁22": 5862,
      ".</p>\n": 5863,
      "::": 5864,
      "light": 5865,
      "men": 5866,
      "lying": 5867,
      "\\xe6\\xb4\\x9b": 5868,
      "▁taxp": 5869,
      "down": 5870,
      "icial": 5871,
      "▁android:": 5872,
      "平方公里": 5873,
      "▁Cur": 5874,
      "▁Form": 5875,
      "▁appropri": 5876,
      "\\xe9\\x85\\x92": 5877,
      "\\xe9\\x81\\x8a\\xe6\\x88\\xb2": 5878,
      "Ar": 5879,
      "ipl": 5880,
      "▁Read": 5881,
      "ables": 5882,
      "▁seven": 5883,
      "▁types": 5884,
      "\\xef\\xbc\\x8d": 5885,
      "\\xe4\\xbb\\x8d": 5886,
      "▁Inst": 5887,
      "▁Year": 5888,
      "wood": 5889,
      "\\xe7\\xb9\\x94": 5890,
      "▁rock": 5891,
      "▁white": 5892,
      "▁26": 5893,
      "▁college": 5894,
      "asc": 5895,
      "ixed": 5896,
      "▁lack": 5897,
      "▁resid": 5898,
      "▁competition": 5899,
      "ned": 5900,
      "change": 5901,
      "\\xe8\\x80\\x81": 5902,
      "irth": 5903,
      "\\xe3\\x80\\x82\\xe4\\xbb\\x96": 5904,
      "▁London": 5905,
      "可能": 5906,
      "▁ways": 5907,
      "▁legisl": 5908,
      "时间": 5909,
      "▁bad": 5910,
      "▁scient": 5911,
      "\\xe5\\x9d\\x87": 5912,
      "75": 5913,
      "▁Pri": 5914,
      "\\xe6\\xad\\xb2": 5915,
      "\\xe7\\x93\\xa6": 5916,
      "中心": 5917,
      "formation": 5918,
      "▁easy": 5919,
      "▁opportunity": 5920,
      "cel": 5921,
      "▁propert": 5922,
      "raz": 5923,
      "▁status": 5924,
      "▁primary": 5925,
      "国际": 5926,
      "\\xe9\\x9d\\xa9": 5927,
      "▁purpose": 5928,
      "▁individuals": 5929,
      "▁agreement": 5930,
      "语:": 5931,
      "▁task": 5932,
      "osition": 5933,
      "\\xe7\\xb3\\xbb\\xe7\\xb5\\xb1": 5934,
      "▁autom": 5935,
      "▁century": 5936,
      "inter": 5937,
      "▁wall": 5938,
      "▁Many": 5939,
      "▁(the": 5940,
      "To": 5941,
      "▁lower": 5942,
      "▁(B": 5943,
      "▁effective": 5944,
      "zh": 5945,
      "erc": 5946,
      "▁completed": 5947,
      "▁digital": 5948,
      "\\xe6\\x99\\xaf": 5949,
      "▁associated": 5950,
      "\\xef\\xbc\\x89\\xe3\\x80\\x81": 5951,
      "▁Office": 5952,
      ",由": 5953,
      "CE": 5954,
      "▁sem": 5955,
      "\\xe5\\xae\\xa4": 5956,
      "ranch": 5957,
      "▁said,": 5958,
      "▁strateg": 5959,
      "▁Cup": 5960,
      "2000": 5961,
      "\\xe7\\x8d\\xa8": 5962,
      "▁cast": 5963,
      "\\xe8\\x87\\xba": 5964,
      "ications": 5965,
      "▁Hen": 5966,
      "▁plans": 5967,
      "▁/&gt;": 5968,
      "bon": 5969,
      "学院": 5970,
      "\\xe6\\xaa": 5971,
      "\\xe5\\x80\\xab": 5972,
      "▁expand": 5973,
      "▁League": 5974,
      "后来": 5975,
      "\\xef\\xbc\\x8c\\xe4\\xb9\\x9f": 5976,
      "\\xe6\\xbb": 5977,
      "▁Fore": 5978,
      "▁plant": 5979,
      "Val": 5980,
      "ST": 5981,
      "ica": 5982,
      "▁except": 5983,
      "▁Ann": 5984,
      "/s": 5985,
      "▁Del": 5986,
      "porary": 5987,
      "A,": 5988,
      "\\xe8\\xad\\x89": 5989,
      "▁(F": 5990,
      "▁Academ": 5991,
      "行政": 5992,
      "表示": 5993,
      "ici": 5994,
      "▁star": 5995,
      "\\xe9\\x98\\xb2": 5996,
      "util": 5997,
      "ample": 5998,
      "\\xe5\\xaf\\x9f": 5999,
      "▁players": 6000,
      "▁responsible": 6001,
      "aper": 6002,
      "▁mention": 6003,
      "▁eth": 6004,
      "▁style": 6005,
      "\\xe6\\x88\\xbf": 6006,
      "▁pick": 6007,
      "▁spent": 6008,
      "\\xe7\\x95\\x99": 6009,
      ",也": 6010,
      "、、": 6011,
      "oud": 6012,
      "▁select": 6013,
      "▁Gold": 6014,
      "\\xe6\\xb7\\xb1": 6015,
      "▁Super": 6016,
      "▁Agre": 6017,
      "\";": 6018,
      "EM": 6019,
      "▁Out": 6020,
      "▁income": 6021,
      "ship": 6022,
      "▁sch": 6023,
      "▁circum": 6024,
      "Text": 6025,
      "经济": 6026,
      "▁Up": 6027,
      "▁adopt": 6028,
      "\\xe7\\xbe\\xa4": 6029,
      "where": 6030,
      "▁Sk": 6031,
      "\\xe5\\x8d\\x83": 6032,
      "\\xef\\xbc\\x9a\\xe3\\x80\\x8c": 6033,
      "],": 6034,
      "as.": 6035,
      "▁Rel": 6036,
      "▁interview": 6037,
      "▁providing": 6038,
      "▁expected": 6039,
      "▁oil": 6040,
      "iring": 6041,
      "▁life.": 6042,
      "▁Roman": 6043,
      "▁comment": 6044,
      "▁increased": 6045,
      "▁Tur": 6046,
      "▁S.": 6047,
      "\\xe6\\x86": 6048,
      "\\xe4\\xb8\\xad\\xe8\\x8f\\xaf": 6049,
      "\\xe5\\xb8\\xad": 6050,
      "▁element": 6051,
      "▁unique": 6052,
      "。”": 6053,
      "中央": 6054,
      "发现": 6055,
      "▁release": 6056,
      "▁investment": 6057,
      "\\xe5\\xa0\\x82": 6058,
      "▁hor": 6059,
      "\\xe5\\xb0\\x84": 6060,
      "\\xe8\\xa3\\xa1": 6061,
      "\\xe4\\xb8\\x8d\\xe5\\x90\\x8c": 6062,
      "▁African": 6063,
      "icate": 6064,
      "\\xe6\\x9c\\xa8": 6065,
      "ges": 6066,
      "▁Mr.": 6067,
      "\\xe6\\x98\\x93": 6068,
      "\\xe8\\xa9\\xb1": 6069,
      "AP": 6070,
      "ML": 6071,
      "▁Nor": 6072,
      "\\xe6\\xa5\\xb5": 6073,
      "\\xe8\\x80\\x83": 6074,
      "▁max": 6075,
      "\\xe7\\xb4\\xa0": 6076,
      "▁train": 6077,
      "lied": 6078,
      "▁hope": 6079,
      "ribute": 6080,
      "list": 6081,
      "​​​​": 6082,
      ":_NEWLINE_": 6083,
      "chan": 6084,
      "▁formula": 6085,
      "\\xe6\\x95\\x99\\xe8\\x82\\xb2": 6086,
      "\\xe5\\x8f\\xb0\\xe7\\x81\\xa3": 6087,
      "▁Carol": 6088,
      "▁28": 6089,
      "\\xe7\\x9c\\x8b": 6090,
      "▁anything": 6091,
      "▁quite": 6092,
      "▁candid": 6093,
      "OM": 6094,
      "UT": 6095,
      "▁cy": 6096,
      "▁Profess": 6097,
      "▁reb": 6098,
      "▁regul": 6099,
      "▁server": 6100,
      "\\xe9\\x90\\xb5\\xe8\\xb7\\xaf": 6101,
      ")、": 6102,
      "▁card": 6103,
      "\\xe5\\xbf\\xb": 6104,
      "\\xe8\\x84": 6105,
      "▁values": 6106,
      "▁doesn't": 6107,
      "Mod": 6108,
      "edom": 6109,
      "road": 6110,
      "rue": 6111,
      "ices.": 6112,
      "▁Leg": 6113,
      "body": 6114,
      "\\xe6\\x92\\xad": 6115,
      "\\xe5\\xb1\\xa4": 6116,
      "▁programs": 6117,
      "34": 6118,
      "▁treatment": 6119,
      "▁paper": 6120,
      "▁beaut": 6121,
      "▁needed": 6122,
      "▁eventually": 6123,
      "▁grand": 6124,
      "\\xe5\\xbb\\xba\\xe7\\xaf\\x89": 6125,
      "\\xe5\\xa5\\x87": 6126,
      "▁false": 6127,
      "\\xe3\\x82": 6128,
      "计划": 6129,
      "rian": 6130,
      "▁pretty": 6131,
      "▁changed": 6132,
      "▁meaning": 6133,
      "▁Best": 6134,
      "▁step": 6135,
      "\\xe5\\x9f\\x9f": 6136,
      "▁technolog": 6137,
      "▁sec": 6138,
      "▁benefit": 6139,
      "▁rail": 6140,
      "ken": 6141,
      "▁)": 6142,
      "▁wond": 6143,
      "##": 6144,
      "AD": 6145,
      "file": 6146,
      "vant": 6147,
      "因为": 6148,
      "▁deep": 6149,
      "ousand": 6150,
      "学校": 6151,
      "resp": 6152,
      "\\xe6\\xad\\xa5": 6153,
      "comp": 6154,
      "▁den": 6155,
      "ades": 6156,
      "\\xe5\\xad\\xb8\\xe9\\x99\\xa2": 6157,
      "\\xe7\\x99\\xbc\\xe7\\x8f\\xbe": 6158,
      "\\xe6\\x8a\\x8a": 6159,
      "\\xe8\\xb4": 6160,
      "▁enter": 6161,
      "▁Franc": 6162,
      "ent,": 6163,
      "url": 6164,
      "\\xe6\\xad\\xa2": 6165,
      "10.": 6166,
      "▁allows": 6167,
      "▁Are": 6168,
      "▁Jes": 6169,
      "▁uses": 6170,
      "\\xe8\\xab\\x8b": 6171,
      "▁aim": 6172,
      "▁Royal": 6173,
      "▁Life": 6174,
      "ius": 6175,
      "▁increasing": 6176,
      "\\xe8\\xb1\\xa1": 6177,
      "aith": 6178,
      "ess,": 6179,
      "▁Camp": 6180,
      "▁world.": 6181,
      "▁Club": 6182,
      "▁directly": 6183,
      "▁creating": 6184,
      "ell,": 6185,
      "\\xe6\\x8e\\x88": 6186,
      "▁manufact": 6187,
      "board": 6188,
      "法国": 6189,
      "\\xe5\\xa2\\x83": 6190,
      "box": 6191,
      "eal": 6192,
      "\\xe8\\x93": 6193,
      "▁(18": 6194,
      "\\xe3\\x80\\x82\\xe3\\x80\\x8d": 6195,
      "▁Vir": 6196,
      "▁summer": 6197,
      "▁California": 6198,
      "\\xe5\\xa8": 6199,
      "▁Miss": 6200,
      "Exception": 6201,
      "▁worth": 6202,
      "▁White": 6203,
      "ociet": 6204,
      "\\xe5\\xaf\\xb6": 6205,
      "▁themselves": 6206,
      "IP": 6207,
      "\\xe5\\x8f\\xaf\\xe8\\x83\\xbd": 6208,
      "What": 6209,
      "▁<p>How": 6210,
      "▁encou": 6211,
      "▁choose": 6212,
      "▁sy": 6213,
      "\\xe9\\x81\\x8b\\xe5\\x8b\\x95": 6214,
      "▁brand": 6215,
      "que": 6216,
      "▁Second": 6217,
      "aced": 6218,
      "-B": 6219,
      "ha": 6220,
      "\\xe7\\xbf\\xb": 6221,
      "▁neigh": 6222,
      "▁Met": 6223,
      "▁I've": 6224,
      "▁sil": 6225,
      "ors,": 6226,
      "▁blood": 6227,
      "同时": 6228,
      "android": 6229,
      "▁simply": 6230,
      "ridge": 6231,
      "▁billion": 6232,
      "▁reading": 6233,
      "\\xe8\\xa8\\xad\\xe8\\xa8\\x88": 6234,
      "▁questions": 6235,
      "▁box": 6236,
      "feren": 6237,
      "ENT": 6238,
      "▁Music": 6239,
      "▁27": 6240,
      "▁cases": 6241,
      "hest": 6242,
      "itz": 6243,
      "arian": 6244,
      "\\xe9\\x99\\x90": 6245,
      "\\xe6\\x99\\x82\\xe9\\x96\\x93": 6246,
      "英国": 6247,
      "▁stri": 6248,
      "▁hours": 6249,
      "▁Division": 6250,
      "].": 6251,
      "et,": 6252,
      "\\xe4\\xbd\\x8f": 6253,
      "aily": 6254,
      "\\xe5\\xbd\\xb1\\xe9\\x9f\\xbf": 6255,
      "berg": 6256,
      "ountain": 6257,
      "olars": 6258,
      "▁Good": 6259,
      "\\xe4\\xbd\\x8e": 6260,
      "66": 6261,
      "ester": 6262,
      "。_NEWLINE_201": 6263,
      "tained": 6264,
      "▁cert": 6265,
      "aval": 6266,
      "▁limit": 6267,
      "▁woman": 6268,
      "▁central": 6269,
      "data": 6270,
      "in.": 6271,
      "▁Def": 6272,
      "\\xe6\\x88\\x90\\xe7\\xab\\x8b": 6273,
      "▁appointed": 6274,
      "onst": 6275,
      "\\xef\\xbc\\x8c\\xe7\\x94\\xb1": 6276,
      "▁frequ": 6277,
      "▁copy": 6278,
      "社区": 6279,
      "pping": 6280,
      "\\xe9\\x81\\xa0": 6281,
      "▁Union": 6282,
      "▁Early": 6283,
      "▁mis": 6284,
      "▁C.": 6285,
      "▁dep": 6286,
      "\\xe5\\xba\\x8": 6287,
      "▁lives": 6288,
      "▁Bill": 6289,
      "▁No.": 6290,
      "0\\xb8": 6291,
      "▁array": 6292,
      "\\xe5\\xa1\\x9e": 6293,
      "▁favor": 6294,
      "▁pow": 6295,
      "agu": 6296,
      "▁und": 6297,
      "\\xe6\\x8e\\x92": 6298,
      "44": 6299,
      "▁nothing": 6300,
      "▁29": 6301,
      "▁client": 6302,
      "-8": 6303,
      "udget": 6304,
      "\\xe8\\xbc\\x89": 6305,
      "\\xe8\\xa1\\x8c\\xe6\\x94\\xbf": 6306,
      "▁founded": 6307,
      "-D": 6308,
      "▁television": 6309,
      "▁prep": 6310,
      "\\xe7\\x8b\\x80": 6311,
      "▁circumst": 6312,
      "/p": 6313,
      "yond": 6314,
      "外,": 6315,
      "▁Mal": 6316,
      "pread": 6317,
      "\\xe6\\x95\\x88": 6318,
      "\\xe6\\xa8\\x93": 6319,
      "▁inside": 6320,
      "\\xe8\\xaa\\x9e\\xef\\xbc\\x9a": 6321,
      "\\xe7\\xa4\\xbe\\xe6\\x9c\\x83": 6322,
      "▁recently": 6323,
      "▁price": 6324,
      "\\xe9\\x80\\x9a\\xe9\\x81\\x8e": 6325,
      "▁collabor": 6326,
      "通过": 6327,
      "▁stop": 6328,
      "▁novel": 6329,
      "▁resources": 6330,
      "▁Museum": 6331,
      "▁traditional": 6332,
      "▁Lat": 6333,
      "ance.": 6334,
      "▁annual": 6335,
      "\\xe9\\x9f\\x93": 6336,
      "▁software": 6337,
      "设计": 6338,
      "▁bill": 6339,
      "▁drug": 6340,
      "▁shot": 6341,
      "▁conditions": 6342,
      "springframework": 6343,
      "les,": 6344,
      "ide.": 6345,
      "学生": 6346,
      "\\xe5\\xb7\\x9d": 6347,
      "▁tou": 6348,
      "▁categ": 6349,
      "▁Bet": 6350,
      "▁Great": 6351,
      "ence,": 6352,
      "▁finished": 6353,
      "\\xe5\\x81\\x9a": 6354,
      "el,": 6355,
      "运动": 6356,
      "f\\xb1": 6357,
      "inn": 6358,
      "▁exact": 6359,
      "▁AP": 6360,
      "▁Cath": 6361,
      "▁stated": 6362,
      "▁adj": 6363,
      "▁script": 6364,
      "BA": 6365,
      "BS": 6366,
      "▁der": 6367,
      "\\xe5\\x8f\\x8b": 6368,
      "▁Championship": 6369,
      "\\xe7\\xb2\\xbe": 6370,
      "之一": 6371,
      "▁Jose": 6372,
      "▁transport": 6373,
      "-P": 6374,
      "\\xe5\\xb9\\xbe": 6375,
      "▁center": 6376,
      "more": 6377,
      "▁rel=\"noreferrer\">": 6378,
      "▁pict": 6379,
      "\\xe9\\x9b\\xbb\\xe8\\xa6\\x96": 6380,
      "不同": 6381,
      "▁wide": 6382,
      "▁generally": 6383,
      "已经": 6384,
      "\\xe5\\x8d\\xb0": 6385,
      ":30": 6386,
      "▁AM": 6387,
      "\\xe6\\x89\\xb9": 6388,
      "▁rank": 6389,
      "▁projects": 6390,
      "▁particularly": 6391,
      "65": 6392,
      "\\xe4\\xbd\\x9b": 6393,
      "mar": 6394,
      "▁Data": 6395,
      "▁recorded": 6396,
      "▁France": 6397,
      "属于": 6398,
      "\\xe8\\xb5": 6399,
      "▁location": 6400,
      "▁message": 6401,
      "EO": 6402,
      "▁fair": 6403,
      "▁Social": 6404,
      "▁parts": 6405,
      "van": 6406,
      "\\xe5\\xbd\\xb": 6407,
      "▁sometimes": 6408,
      "▁affect": 6409,
      "cretary": 6410,
      "▁know,": 6411,
      "\\xe6\\x95\\x97": 6412,
      "7)": 6413,
      "\\xe7\\xb0\\xa1": 6414,
      "ellig": 6415,
      "▁row": 6416,
      "▁subsequ": 6417,
      "\\xe7\\xa7\\xbb": 6418,
      "')": 6419,
      "社会": 6420,
      "undred": 6421,
      "son,": 6422,
      "\\xe6\\xb4\\xa5": 6423,
      "▁Agreement": 6424,
      "\\xe6\\xba\\x96": 6425,
      "▁independent": 6426,
      "path": 6427,
      "rd": 6428,
      "\\xe7\\x9f": 6429,
      "▁Us": 6430,
      "\\xe5\\xbe\\x8c\\xe4\\xbe\\x86": 6431,
      "▁passed": 6432,
      "▁Tw": 6433,
      "▁placed": 6434,
      "▁farm": 6435,
      "▁dog": 6436,
      "▁Kh": 6437,
      "\\xe5\\xad\\xb8\\xe6\\xa0\\xa1": 6438,
      "\\xe4\\xbb\\x96\\xe7\\x9a\\x84": 6439,
      "▁artist": 6440,
      "\\xe9\\xad\\xaf": 6441,
      "div&gt;": 6442,
      "世纪": 6443,
      "▁hospital": 6444,
      "▁Pet": 6445,
      "▁Grand": 6446,
      "\\xe5\\xa4\\xae": 6447,
      "\\xe6\\x8a\\x97": 6448,
      "▁Play": 6449,
      "▁immedi": 6450,
      "▁mission": 6451,
      "▁imag": 6452,
      "\\xe5\\x90\\x8c\\xe6\\x99\\x82": 6453,
      "8)": 6454,
      "lim": 6455,
      "▁that’s": 6456,
      "▁background": 6457,
      "\\xe9\\xa3\\x9f": 6458,
      "▁Spe": 6459,
      "0\\x8f": 6460,
      "\\xe7\\x9b\\x9f": 6461,
      "▁I’ve": 6462,
      "\\xe6\\xb6\\x88": 6463,
      "影响": 6464,
      "ander": 6465,
      "\\xe9\\xa1\\xaf": 6466,
      "bit": 6467,
      "▁context": 6468,
      "▁journal": 6469,
      "\\xe7\\xa5\\x96": 6470,
      "\\xe7\\x86\\xb1": 6471,
      "▁Michael": 6472,
      "irection": 6473,
      "\\xe3\\x80\\x8d\\xe7\\x9a\\x84": 6474,
      "▁respond": 6475,
      "▁Democr": 6476,
      "-up": 6477,
      "ened": 6478,
      "▁Mont": 6479,
      "▁(200": 6480,
      "▁3,": 6481,
      "reland": 6482,
      "uration": 6483,
      "▁Peter": 6484,
      "▁Women": 6485,
      "▁People": 6486,
      "ston": 6487,
      "▁score": 6488,
      "▁prem": 6489,
      "\\xe4\\xb9\\x8b\\xe5\\xbe\\x8c": 6490,
      "\\xe6\\xa9\\x8b": 6491,
      "▁Russian": 6492,
      "▁contains": 6493,
      "For": 6494,
      "▁reach": 6495,
      "300": 6496,
      "▁Scott": 6497,
      "▁species": 6498,
      "IL": 6499,
      "▁§": 6500,
      "▁Wil": 6501,
      "\\xe6\\x9d\\x91\\xef\\xbc\\x8c": 6502,
      "\\xe5\\x9f\\xb7": 6503,
      "▁essential": 6504,
      "大的": 6505,
      "ences": 6506,
      "▁AS": 6507,
      "年代": 6508,
      "负责": 6509,
      "▁bal": 6510,
      "MS": 6511,
      "asons": 6512,
      "lig": 6513,
      "▁Cap": 6514,
      "ules": 6515,
      "▁Ret": 6516,
      "▁streng": 6517,
      "委员会": 6518,
      "\\xe8\\x94": 6519,
      "▁Cle": 6520,
      "▁Lord": 6521,
      "▁•": 6522,
      "aches": 6523,
      "▁vo": 6524,
      "▁can't": 6525,
      "\\xe5\\xbf\\xb5": 6526,
      "▁winning": 6527,
      "\\xe2\\x80\\x94": 6528,
      "▁parents": 6529,
      "rack": 6530,
      "▁subst": 6531,
      "\\xe6\\x81\\xa9": 6532,
      "▁Canada": 6533,
      "db": 6534,
      "▁Ir": 6535,
      "Man": 6536,
      "\\xe6\\x96\\xbd": 6537,
      "▁magaz": 6538,
      "▁you.": 6539,
      "▁\"D": 6540,
      "▁serve": 6541,
      "▁AR": 6542,
      "▁this,": 6543,
      "▁2006": 6544,
      "▁paid": 6545,
      "ech": 6546,
      "ago": 6547,
      "ynam": 6548,
      "illed": 6549,
      "▁surround": 6550,
      "bol": 6551,
      "ices,": 6552,
      "▁gives": 6553,
      "able,": 6554,
      "▁construct": 6555,
      "standing": 6556,
      "▁pm": 6557,
      "▁is,": 6558,
      "▁altern": 6559,
      "▁offered": 6560,
      "▁football": 6561,
      "\\xe8\\xb2\\xa0\\xe8\\xb2\\xac": 6562,
      "ialog": 6563,
      "▁sust": 6564,
      "\\xe5\\x8b\\x9d": 6565,
      "TV": 6566,
      "建筑": 6567,
      "▁(d": 6568,
      "▁\"I": 6569,
      "ecause": 6570,
      "By": 6571,
      "教育": 6572,
      "▁proces": 6573,
      "▁progress": 6574,
      "resh": 6575,
      "▁perfect": 6576,
      "▁serious": 6577,
      "▁destroy": 6578,
      "Col": 6579,
      "人的": 6580,
      "\\xef\\xbc\\x8c\\xe4\\xb8\\x8d": 6581,
      "\\xe6\\x8e\\xa7": 6582,
      "68": 6583,
      "▁thousand": 6584,
      "▁60": 6585,
      "▁helped": 6586,
      "▁trade": 6587,
      "▁Flor": 6588,
      "usband": 6589,
      "▁Bank": 6590,
      "▁stock": 6591,
      "▁users": 6592,
      "▁Review": 6593,
      "\\xe6\\x8e\\xa1": 6594,
      "▁maintain": 6595,
      "▁couple": 6596,
      "之后": 6597,
      "\\xe5\\xae\\x88": 6598,
      "ory.": 6599,
      "\\xe7\\xab\\xa0": 6600,
      "参加": 6601,
      "\\xe5\\xbe\\x8b": 6602,
      "able.": 6603,
      "px": 6604,
      "\\xe7\\xa4": 6605,
      "\\xe6\\xb0\\x8f": 6606,
      "▁Hill": 6607,
      "version": 6608,
      "▁7.": 6609,
      "\\xe8\\x90\\x8a": 6610,
      "VID": 6611,
      "时期": 6612,
      "▁IS": 6613,
      "rief": 6614,
      "▁movie": 6615,
      "grad": 6616,
      "\\xe7\\xb5\\x84\\xe7\\xb9\\x94": 6617,
      "”的": 6618,
      "▁M.": 6619,
      "▁remained": 6620,
      "▁conflic": 6621,
      "▁Central": 6622,
      "▁problems": 6623,
      "\\xe8\\xab\\xbe": 6624,
      "ms": 6625,
      "ride": 6626,
      "上的": 6627,
      "▁pric": 6628,
      "▁Wind": 6629,
      "▁communities": 6630,
      "\\xe5\\x83\\x85": 6631,
      "活动": 6632,
      "▁Then": 6633,
      "▁dead": 6634,
      "▁cultural": 6635,
      "host": 6636,
      "▁wife": 6637,
      "this": 6638,
      "▁Jer": 6639,
      "▁marri": 6640,
      "\\xe9\\x85\\x8d": 6641,
      "▁Charles": 6642,
      "▁src": 6643,
      "alu": 6644,
      "▁fam": 6645,
      "▁Fort": 6646,
      "▁Class": 6647,
      "\\xe5\\xb7\\xb2\\xe7\\xb6\\x93": 6648,
      "but": 6649,
      "▁length": 6650,
      "\\xe5\\xba\\xb7": 6651,
      "▁Also": 6652,
      "place": 6653,
      "\\xe5\\xba\\xab": 6654,
      "\\xe7\\x9d\\xa3": 6655,
      "▁ID": 6656,
      "▁giving": 6657,
      "\\xe6\\x85\\x8b": 6658,
      "▁Director": 6659,
      "最后": 6660,
      "▁Tim": 6661,
      "▁whom": 6662,
      "▁institution": 6663,
      "电视": 6664,
      "▁me.": 6665,
      "▁Tom": 6666,
      "\\xe5\\xaf\\xba": 6667,
      "ide,": 6668,
      "NA": 6669,
      "itter": 6670,
      "\\xe5\\x93\\xa5": 6671,
      "▁Any": 6672,
      "9月": 6673,
      ",于": 6674,
      "ras": 6675,
      "▁figure": 6676,
      "▁Virgin": 6677,
      "writ": 6678,
      "▁immediately": 6679,
      "▁busin": 6680,
      "\\xe6\\x89\\xbf": 6681,
      "._NEWLINE_On": 6682,
      "\\xe9\\x99\\x8d": 6683,
      "\\xe5\\x94\\x90": 6684,
      "\\xe9\\xbb\\x91": 6685,
      "▁files": 6686,
      "agn": 6687,
      "\\xe4\\xb8\\xad\\xe5\\xa4\\xae": 6688,
      "php": 6689,
      "▁<pre><code>&lt;": 6690,
      "aled": 6691,
      "▁transaction": 6692,
      "▁Party": 6693,
      "ECT": 6694,
      "e._NEWLINE_": 6695,
      "\\xe5\\x87\\xba\\xe7\\x8f\\xbe": 6696,
      "▁formed": 6697,
      "出现": 6698,
      "▁gra": 6699,
      "▁Rob": 6700,
      "▁Ireland": 6701,
      "▁overall": 6702,
      "\\xe8\\xa1\\xa8\\xe7\\xa4\\xba": 6703,
      "▁Minister": 6704,
      "▁Western": 6705,
      "▁Los": 6706,
      "web": 6707,
      "&amp;": 6708,
      "-2": 6709,
      "▁Tag": 6710,
      "empl": 6711,
      "▁RE": 6712,
      "\\xe5\\xae\\xae": 6713,
      "-4": 6714,
      "\\xe7\\x83\\x8f": 6715,
      "▁scen": 6716,
      "▁assess": 6717,
      "组织": 6718,
      "▁ST": 6719,
      "\\xe5\\xb9\\xb4\\xe4\\xbb\\xa3": 6720,
      "astic": 6721,
      "▁See": 6722,
      "▁everyone": 6723,
      "\\xe7\\xb6\\x93\\xe6\\xbf\\x9f": 6724,
      "\\xe9\\xa0\\x90": 6725,
      "▁href=\"http://": 6726,
      "lam": 6727,
      "\\xe3\\x80\\x82_NEWLINE_201": 6728,
      "\\xe5\\x9b\\xa0\\xe7\\x82\\xba": 6729,
      "\\xe7\\xbf\\x92": 6730,
      "\\xef\\xbc\\x89\\xe6\\x98\\xaf": 6731,
      "▁5.": 6732,
      "游戏": 6733,
      "unn": 6734,
      "▁Ke": 6735,
      "airs": 6736,
      "▁nearly": 6737,
      "5%": 6738,
      "▁bod": 6739,
      "▁Sund": 6740,
      "▁gas": 6741,
      "ocation": 6742,
      "▁datab": 6743,
      "▁strugg": 6744,
      "▁Tod": 6745,
      "▁ple": 6746,
      "\\xe7\\x9a\\x84\\xe3\\x80\\x8c": 6747,
      "\\xe7\\xa6\\xae": 6748,
      "iers": 6749,
      "aker": 6750,
      "\\xe8\\x8b\\xb1\\xe5\\x9c\\x8b": 6751,
      "enty": 6752,
      "ether": 6753,
      "▁Jud": 6754,
      "▁schools": 6755,
      "▁doesn’t": 6756,
      "▁aware": 6757,
      "\\xe5\\xa4\\x96\\xef\\xbc\\x8c": 6758,
      ",为": 6759,
      "at,": 6760,
      "▁Sol": 6761,
      "-3": 6762,
      "ishing": 6763,
      "\\xe6\\x80\\x9d": 6764,
      "▁double": 6765,
      "▁university": 6766,
      "▁==": 6767,
      "▁difference": 6768,
      "IG": 6769,
      "期间": 6770,
      "\\xe5\\x85\\xa8\\xe5\\x9c\\x8b": 6771,
      "▁Smith": 6772,
      "itle": 6773,
      "▁null": 6774,
      "▁Road": 6775,
      "▁<p>S": 6776,
      "▁output": 6777,
      "\\xe8\\xbe\\xb2": 6778,
      "▁understanding": 6779,
      "td&gt;": 6780,
      "▁goes": 6781,
      "\\xe4\\xb9\\x8b\\xe4\\xb8\\x80": 6782,
      "▁(E": 6783,
      "\\xe6\\xb4\\xbb\\xe5\\x8b\\x95": 6784,
      "▁awarded": 6785,
      "2019": 6786,
      "com/": 6787,
      "\\xe5\\x83\\xb9": 6788,
      "ifying": 6789,
      "▁&gt;": 6790,
      "▁sun": 6791,
      "▁nation": 6792,
      "▁click": 6793,
      "一些": 6794,
      "的“": 6795,
      "▁Tor": 6796,
      "▁estim": 6797,
      "\\xe8\\xae\\x80": 6798,
      "oz": 6799,
      "urning": 6800,
      "▁Let": 6801,
      "▁Chic": 6802,
      "▁husband": 6803,
      "▁Society": 6804,
      "▁island": 6805,
      "▁shown": 6806,
      "▁Child": 6807,
      "▁Chief": 6808,
      "▁culture": 6809,
      "NG": 6810,
      "itation": 6811,
      "▁Bay": 6812,
      "▁Fe": 6813,
      "▁peace": 6814,
      "▁existing": 6815,
      "78": 6816,
      "olf": 6817,
      "▁Human": 6818,
      "Qu": 6819,
      "正式": 6820,
      "atre": 6821,
      "urd": 6822,
      "\\xe6\\x8c": 6823,
      "\\xe5\\x85\\xb8": 6824,
      "▁introduced": 6825,
      "▁green": 6826,
      "▁virt": 6827,
      "\\xe6\\xb3\\x95\\xe5\\x9c\\x8b": 6828,
      "\\xe5\\x8f\\x83\\xe5\\x8a\\xa0": 6829,
      "\\xe5\\xb1\\xac\\xe6\\x96\\xbc": 6830,
      "▁regarding": 6831,
      "ret": 6832,
      "▁reached": 6833,
      "Class": 6834,
      "▁Att": 6835,
      "\\xe6\\x9c\\x9b": 6836,
      "\\xe7\\x89\\x8c": 6837,
      "▁protection": 6838,
      "▁demonst": 6839,
      "\\xe8\\x92\\x99": 6840,
      "▁department": 6841,
      "lication": 6842,
      "\\xe8\\xad\\xa6": 6843,
      "▁becoming": 6844,
      "▁answer": 6845,
      "aging": 6846,
      "estival": 6847,
      "▁prison": 6848,
      "▁starting": 6849,
      "roller": 6850,
      "▁sales": 6851,
      "问题": 6852,
      "ite.": 6853,
      "▁occup": 6854,
      "-L": 6855,
      "AB": 6856,
      "ya": 6857,
      "▁nar": 6858,
      "\\xef\\xbc\\x8c\\xe4\\xbd\\x8d\\xe6\\x96\\xbc": 6859,
      "\\xe5\\x8d\\xbb": 6860,
      "▁extra": 6861,
      "▁sort": 6862,
      "▁pen": 6863,
      "▁innov": 6864,
      "\\xe7\\xae\\x97": 6865,
      "iverse": 6866,
      "Context": 6867,
      "▁“A": 6868,
      "-time": 6869,
      "\\xe7\\xaa\\x8": 6870,
      "▁Canadian": 6871,
      "▁stage": 6872,
      "▁Jun": 6873,
      "▁transl": 6874,
      "1/": 6875,
      "▁numb": 6876,
      "encies": 6877,
      "▁taxpayer": 6878,
      "rie": 6879,
      "\\xe9\\x80\\x80": 6880,
      "soft": 6881,
      "itions": 6882,
      "▁majority": 6883,
      "▁miles": 6884,
      "vere": 6885,
      "iful": 6886,
      "▁work.": 6887,
      "▁positive": 6888,
      "▁highly": 6889,
      "▁chem": 6890,
      "▁religious": 6891,
      "▁sports": 6892,
      "12月": 6893,
      "▁color": 6894,
      "▁&quot;": 6895,
      "\\xe4\\xb8\\x96\\xe7\\xb4\\x80": 6896,
      "▁emot": 6897,
      "\\xe7\\x85\\xa7": 6898,
      "▁greater": 6899,
      "▁Development": 6900,
      "oom": 6901,
      "\\xe8\\x88\\xb": 6902,
      "▁recommend": 6903,
      "8月": 6904,
      "▁bound": 6905,
      "omet": 6906,
      "▁lat": 6907,
      "▁(or": 6908,
      "▁Even": 6909,
      "\\xe5\\xb1\\x86": 6910,
      "共和": 6911,
      "aves": 6912,
      "\\xe6\\x9c\\x9f\\xe9\\x96\\x93": 6913,
      "▁Management": 6914,
      "\\xe7\\xa2\\xba": 6915,
      "▁failed": 6916,
      "rs": 6917,
      "one.": 6918,
      "aces": 6919,
      "ville": 6920,
      "\\xe4\\xb8\\x8a\\xe7\\x9a\\x84": 6921,
      "h,": 6922,
      "▁yourself": 6923,
      ",位于": 6924,
      "所有": 6925,
      "▁books": 6926,
      "s.\n": 6927,
      "▁selected": 6928,
      "▁ult": 6929,
      "▁sell": 6930,
      "orpor": 6931,
      "iles": 6932,
      "▁apply": 6933,
      "▁them,": 6934,
      "上,": 6935,
      "\\xc3": 6936,
      "发生": 6937,
      "▁opin": 6938,
      "下,": 6939,
      "▁Ter": 6940,
      "\\xe5\\x80\\x99": 6941,
      "▁systems": 6942,
      "▁capac": 6943,
      "File": 6944,
      "▁sens": 6945,
      "see": 6946,
      "_NEWLINE__NEWLINE_": 6947,
      "urban": 6948,
      "▁Louis": 6949,
      "-e": 6950,
      "anish": 6951,
      "▁List": 6952,
      "Conn": 6953,
      "▁caused": 6954,
      "▁Army": 6955,
      "▁transfer": 6956,
      "▁moment": 6957,
      "▁formula:": 6958,
      "。他": 6959,
      "\\xe6\\x89\\x98": 6960,
      "\\xe9\\xa0\\x93": 6961,
      "\\xe5\\xa7\\x86": 6962,
      "▁psych": 6963,
      "\\xe5\\xbf\\x97": 6964,
      "进入": 6965,
      "▁elected": 6966,
      "▁friends": 6967,
      "全国": 6968,
      "\\xe6\\x82": 6969,
      "\\xe6\\x99\\x82\\xe6\\x9c\\x9f": 6970,
      "提供": 6971,
      "▁Get": 6972,
      "▁Another": 6973,
      ",\"": 6974,
      "OP": 6975,
      "▁PRO": 6976,
      "▁him.": 6977,
      "embly": 6978,
      "▁patients": 6979,
      "\\xe7\\xae\\xa1\\xe7\\x90\\x86": 6980,
      "====": 6981,
      "▁Mad": 6982,
      "\\xe7\\xa5\\xa8": 6983,
      "\\xe7\\x91\\x9e": 6984,
      "\\xe8\\xbf\\xb0": 6985,
      "▁birth": 6986,
      "▁please": 6987,
      "\\xe9\\xb": 6988,
      "▁(I": 6989,
      "▁conforms": 6990,
      "▁advant": 6991,
      "▁employees": 6992,
      "▁senior": 6993,
      "▁Henry": 6994,
      "音乐": 6995,
      "perty": 6996,
      "▁finally": 6997,
      "\\xe6\\xb8\\xac": 6998,
      "oes": 6999,
      "with": 7000,
      "▁hundred": 7001,
      "▁Ev": 7002,
      "▁unit": 7003,
      "▁household": 7004,
      "▁esc": 7005,
      "▁quickly": 7006,
      "▁aspect": 7007,
      "▁shoot": 7008,
      "lick": 7009,
      "\\xe7\\x9b\\xa3": 7010,
      "▁square": 7011,
      "\\xe5\\xa7\\x94\\xe5\\x93\\xa1\\xe6\\x9c\\x83": 7012,
      "▁Congress": 7013,
      "▁west": 7014,
      "▁ball": 7015,
      "▁Test": 7016,
      "▁Gr": 7017,
      "d\\xb7": 7018,
      "liament": 7019,
      "Ob": 7020,
      "第三": 7021,
      "▁driv": 7022,
      "▁Hel": 7023,
      ".m.": 7024,
      "\\xe8\\xa8\\xb1\\xe5\\xa4\\x9a": 7025,
      "one,": 7026,
      "essage": 7027,
      "ism,": 7028,
      "▁ruling": 7029,
      "isher": 7030,
      "▁Journal": 7031,
      "▁Why": 7032,
      "▁6.": 7033,
      "▁(R": 7034,
      "\\xe5\\xaf\\xa7": 7035,
      "▁studies": 7036,
      "▁zh": 7037,
      "t,": 7038,
      "▁fif": 7039,
      "▁words": 7040,
      "▁pan": 7041,
      "▁du": 7042,
      "▁<strong>": 7043,
      "▁Star": 7044,
      "▁4,": 7045,
      "\\xe6\\x9c\\x80\\xe5\\xbe\\x8c": 7046,
      "▁critic": 7047,
      "!!": 7048,
      "9)": 7049,
      "▁felt": 7050,
      "f\\xb4": 7051,
      "▁Land": 7052,
      "▁Every": 7053,
      "▁name=\"": 7054,
      "▁previously": 7055,
      "▁opportunities": 7056,
      "hens": 7057,
      "fully": 7058,
      "▁valid": 7059,
      "ournament": 7060,
      "▁System.": 7061,
      "主义": 7062,
      "▁middle": 7063,
      "▁Sur": 7064,
      "▁Oper": 7065,
      "▁season,": 7066,
      "▁cru": 7067,
      "▁Web": 7068,
      "springframework.": 7069,
      "▁forces": 7070,
      "▁height": 7071,
      "▁186": 7072,
      "▁buildings": 7073,
      "▁interested": 7074,
      "\\xe6\\xad\\xa3\\xe5\\xbc\\x8f": 7075,
      "gen": 7076,
      "▁Plan": 7077,
      "▁featured": 7078,
      "▁Thomas": 7079,
      "];": 7080,
      "▁input": 7081,
      "\\xe4\\xb8\\x8a\\xe6\\xb5\\xb7": 7082,
      "▁proposed": 7083,
      "▁radio": 7084,
      "no": 7085,
      "▁});": 7086,
      "▁observ": 7087,
      "是一": 7088,
      "▁tro": 7089,
      "▁187": 7090,
      "▁hop": 7091,
      "▁coach": 7092,
      "▁saying": 7093,
      "米,": 7094,
      "\\xe6\\xbb\\xbf": 7095,
      "▁Team": 7096,
      "”.": 7097,
      "\\xef\\xbc\\x8c\\xe7\\x82\\xba": 7098,
      "\\xe6\\x8f\\x90\\xe4\\xbe\\x9b": 7099,
      "7月": 7100,
      "▁convert": 7101,
      "\\xe5\\xa4\\x8f": 7102,
      "enge": 7103,
      "▁names": 7104,
      "ur.com/": 7105,
      "\\xe6\\xb3\\xb0": 7106,
      "imgur.com/": 7107,
      "\\xe5\\x95\\x8f\\xe9\\xa1\\x8c": 7108,
      "▁master": 7109,
      "rang": 7110,
      "▁commission": 7111,
      "▁0x": 7112,
      "▁movement": 7113,
      "▁self-": 7114,
      "\\xe6\\xb0\\xb8": 7115,
      "▁behavior": 7116,
      "edd": 7117,
      "▁(G": 7118,
      "▁exerc": 7119,
      "ricult": 7120,
      "▁race": 7121,
      "▁patient": 7122,
      "ste": 7123,
      "\\xe4\\xbb\\x8b": 7124,
      "▁join": 7125,
      "\\xe7\\x9a": 7126,
      "\\xe7\\x89\\x9b": 7127,
      "\\xe5\\x8c\\x97\\xe4\\xba\\xac": 7128,
      "a's": 7129,
      "pm": 7130,
      "\\xe6\\xb3\\x81": 7131,
      "▁Services": 7132,
      "4月": 7133,
      "UN": 7134,
      "▁Federal": 7135,
      "▁pursu": 7136,
      "▁carry": 7137,
      "的,": 7138,
      "▁mill": 7139,
      "▁ang": 7140,
      "▁save": 7141,
      "▁phil": 7142,
      "▁description": 7143,
      "▁McC": 7144,
      "▁remember": 7145,
      "▁ended": 7146,
      "ronic": 7147,
      "▁therefore": 7148,
      "\\xe5\\xaf\\x8c": 7149,
      "▁approx": 7150,
      "\\xe8\\x82\\xa1": 7151,
      "▁performed": 7152,
      "▁planning": 7153,
      "决定": 7154,
      "\\xef\\xbc\\x8c\\xe4\\xb8\\x80": 7155,
      "istics": 7156,
      "\\xe7\\xb4\\xa2": 7157,
      "++": 7158,
      "how": 7159,
      "▁Rad": 7160,
      "▁can’t": 7161,
      "cons": 7162,
      "▁spirit": 7163,
      "▁Project": 7164,
      "6月": 7165,
      "eder": 7166,
      "ician": 7167,
      "▁remains": 7168,
      "\\xe6\\xba\\xab": 7169,
      "▁presented": 7170,
      "flow": 7171,
      "▁village": 7172,
      "▁Florid": 7173,
      "bur": 7174,
      "ros": 7175,
      "▁quarter": 7176,
      "▁defined": 7177,
      "▁advance": 7178,
      "▁Aut": 7179,
      "▁Back": 7180,
      "▁consult": 7181,
      "▁looks": 7182,
      "▁Conn": 7183,
      "▁Committee": 7184,
      "3月": 7185,
      "\\xe5\\xba\\x95": 7186,
      "\\xe8\\x97\\x8f": 7187,
      "▁episode": 7188,
      "▁Catholic": 7189,
      "u,": 7190,
      "▁boy": 7191,
      "▁hol": 7192,
      "\\xe5\\xaa": 7193,
      "▁Sant": 7194,
      "\\xe8\\xa9\\x9e": 7195,
      "i.stack": 7196,
      "PS": 7197,
      "itness": 7198,
      "\\xe5\\x86\\xa0": 7199,
      "\\xef\\xbc\\x8c\\xe5\\x85\\xb6\\xe4\\xb8\\xad": 7200,
      "▁fully": 7201,
      "\\xe8\\x88\\xb9": 7202,
      "\\xe6\\x96\\xb7": 7203,
      "▁Vis": 7204,
      "\\xe4\\xbd\\x9c\\xe5\\x93\\x81": 7205,
      "▁efforts": 7206,
      "-se": 7207,
      "rative": 7208,
      "\\xe6\\x88\\xb6": 7209,
      "estic": 7210,
      "▁lab": 7211,
      "▁otherw": 7212,
      "rows": 7213,
      "▁numerous": 7214,
      "\\xe6\\xb4\\x8b": 7215,
      "ite,": 7216,
      "▁apprec": 7217,
      "▁editor": 7218,
      "▁benefits": 7219,
      ".imgur.com/": 7220,
      "▁thus": 7221,
      "ption": 7222,
      "i.stack.imgur.com/": 7223,
      "58": 7224,
      "。但": 7225,
      "▁direction": 7226,
      "▁Prov": 7227,
      "▁doll": 7228,
      "\\xe9\\x9f\\xb3\\xe6\\xa8\\x82": 7229,
      "许多": 7230,
      "10月": 7231,
      "\\xe7\\xaf\\x84": 7232,
      "▁Corpor": 7233,
      "Error": 7234,
      "比赛": 7235,
      "▁Di": 7236,
      "▁Econom": 7237,
      "▁activity": 7238,
      ",其中": 7239,
      "▁Texas": 7240,
      "term": 7241,
      "Us": 7242,
      "ces,": 7243,
      "▁Fund": 7244,
      "▁ideas": 7245,
      "▁laun": 7246,
      "\\xe7\\xa4\\xbe\\xe5\\x8d\\x80\\xe3\\x80\\x81": 7247,
      "56": 7248,
      "▁Two": 7249,
      "))": 7250,
      "管理": 7251,
      "▁resident": 7252,
      "▁entered": 7253,
      "\\xe8\\xad\\x98": 7254,
      "\\xe8\\xa3\\xbd\\xe4\\xbd\\x9c": 7255,
      "\\xe6\\xa0\\xb9\\xe6\\x93\\x9a": 7256,
      "\\xe7\\xaa\\x81": 7257,
      "bar": 7258,
      "atively": 7259,
      "▁hum": 7260,
      "unk": 7261,
      "▁attention": 7262,
      "\\xe7\\xa0\\xb4": 7263,
      "▁earlier": 7264,
      "/or": 7265,
      "\\xe4\\xb9\\x85": 7266,
      "▁Frank": 7267,
      "En": 7268,
      "stract": 7269,
      "▁Iran": 7270,
      "\\xe6\\x91\\xa9": 7271,
      "ening": 7272,
      "\\xe5\\x94\\xb1": 7273,
      "▁Big": 7274,
      "\\xe9\\x9a\\x86": 7275,
      "▁killed": 7276,
      "▁java.": 7277,
      "-old": 7278,
      "mas": 7279,
      "支持": 7280,
      "▁File": 7281,
      "▁Ep": 7282,
      "antic": 7283,
      "\\xe6\\x9b\\xbc": 7284,
      "▁minutes": 7285,
      "▁wa": 7286,
      "\\xe7\\x99\\xbc\\xe7\\x94\\x9f": 7287,
      "▁stream": 7288,
      "▁anc": 7289,
      "ips": 7290,
      "▁agree": 7291,
      "▁evalu": 7292,
      "12\\xe6\\x9c\\x88": 7293,
      "\\xe6\\x89\\x80\\xe6\\x9c\\x89": 7294,
      "IR": 7295,
      "OC": 7296,
      "QL": 7297,
      "ordin": 7298,
      "amily": 7299,
      "▁larger": 7300,
      "content": 7301,
      "orney": 7302,
      "▁struct": 7303,
      "\\xe8\\x81\\x9e": 7304,
      "▁format": 7305,
      "▁issued": 7306,
      "▁Richard": 7307,
      "house": 7308,
      "▁Uk": 7309,
      "▁Tre": 7310,
      "▁(and": 7311,
      "▁proceed": 7312,
      "▁slow": 7313,
      "\\xe8\\xbc\\xaf": 7314,
      "▁originally": 7315,
      "上海": 7316,
      "2023": 7317,
      "▁separate": 7318,
      "\\xe4\\xba\\xba\\xe7\\x9a\\x84": 7319,
      "stitution": 7320,
      "事件": 7321,
      "▁Rock": 7322,
      "\\xe6\\x8b\\x94": 7323,
      "(A": 7324,
      "▁Sum": 7325,
      "asion": 7326,
      "hab": 7327,
      "\\xe9\\x99\\x84": 7328,
      "\\xe8\\xbf\\xaa": 7329,
      "When": 7330,
      "ry,": 7331,
      "\\xe8\\x88\\xac": 7332,
      "▁Georg": 7333,
      "\\xe9\\x9b\\xb2": 7334,
      "▁academic": 7335,
      "▁\"B": 7336,
      "\\xe5\\xb0\\x81": 7337,
      "\\xe8\\xa8\\x8a": 7338,
      "▁Kn": 7339,
      "▁payment": 7340,
      "▁Italian": 7341,
      "▁Pac": 7342,
      "▁critical": 7343,
      "4\\xe6\\x9c\\x88": 7344,
      "▁mechan": 7345,
      "-9": 7346,
      "leep": 7347,
      "yt": 7348,
      "etic": 7349,
      "▁beyond": 7350,
      "▁levels": 7351,
      "▁territ": 7352,
      "\\xe9\\xac\\xa5": 7353,
      "\\xe7\\xb1\\xb3\\xef\\xbc\\x8c": 7354,
      "▁renew": 7355,
      "▁(L": 7356,
      "▁completely": 7357,
      "最终": 7358,
      "▁purpos": 7359,
      "▁Engine": 7360,
      "▁About": 7361,
      "▁turned": 7362,
      "itable": 7363,
      "▁mobile": 7364,
      "▁Det": 7365,
      "\\xe6\\x97\\x85": 7366,
      "▁gets": 7367,
      "\\xe9\\x80\\xb2\\xe5\\x85\\xa5": 7368,
      "59": 7369,
      "方面": 7370,
      "▁Town": 7371,
      "▁Bre": 7372,
      "script": 7373,
      "ancing": 7374,
      "▁influence": 7375,
      "rame": 7376,
      "man,": 7377,
      "us.": 7378,
      "user": 7379,
      "▁End": 7380,
      "elled": 7381,
      "\\xe4\\xbe\\x9d": 7382,
      "。_NEWLINE_在": 7383,
      "▁day,": 7384,
      "▁lived": 7385,
      "lymp": 7386,
      "▁street": 7387,
      "tery": 7388,
      "\\xe3\\x80\\x82201": 7389,
      "▁highest": 7390,
      "R.": 7391,
      "▁Invest": 7392,
      "\\xe5\\x81\\x9c": 7393,
      "7\\xe6\\x9c\\x88": 7394,
      "北京": 7395,
      "重要": 7396,
      "▁gold": 7397,
      "▁Because": 7398,
      "\\xe5\\x88\\xb0\\xe4\\xba\\x86": 7399,
      "▁moving": 7400,
      "▁explain": 7401,
      "Pl": 7402,
      "miss": 7403,
      "\\xe9\\x9b\\xa3": 7404,
      "rage": 7405,
      "▁leadership": 7406,
      "\\xe9\\x8a\\x80": 7407,
      "这个": 7408,
      "icon": 7409,
      "▁har": 7410,
      "\\xef\\xbc\\x8c\\xe6\\x9c\\x89": 7411,
      "\\xef\\xbc\\x8c\\xe6\\x96\\xbc": 7412,
      "\\xe8\\x8d\\x89": 7413,
      "▁hear": 7414,
      "\\xe9\\x81\\xba": 7415,
      "\\xe5\\xbf\\xab": 7416,
      "\\xe5\\x9d\\xa1": 7417,
      "▁reduce": 7418,
      "▁Joseph": 7419,
      "77": 7420,
      "ces.": 7421,
      "astern": 7422,
      "▁repe": 7423,
      "▁https://www.": 7424,
      ",有": 7425,
      "9\\xe6\\x9c\\x88": 7426,
      "根据": 7427,
      "▁Civil": 7428,
      "\\xe9\\x9b\\x96": 7429,
      "▁Colleg": 7430,
      "http://": 7431,
      "ATION": 7432,
      "▁alleg": 7433,
      "▁adapt": 7434,
      "▁east": 7435,
      "▁beg": 7436,
      "\\xe3\\x80\\x82\\xe6\\xad\\xa4": 7437,
      "unicip": 7438,
      "▁workers": 7439,
      "anned": 7440,
      "之间": 7441,
      "▁Mill": 7442,
      "._NEWLINE_He": 7443,
      "▁facilities": 7444,
      "▁Trump": 7445,
      "haps": 7446,
      "ulf": 7447,
      "▁univers": 7448,
      "▁raised": 7449,
      "▁laws": 7450,
      "▁weeks": 7451,
      "▁appears": 7452,
      "▁historical": 7453,
      "战争": 7454,
      "▁wood": 7455,
      "\\xe8\\x9e": 7456,
      "izes": 7457,
      "▁Vict": 7458,
      "▁computer": 7459,
      "▁expert": 7460,
      "($": 7461,
      "aid": 7462,
      "▁stories": 7463,
      "▁80": 7464,
      "▁pattern": 7465,
      "gl": 7466,
      "服务": 7467,
      "▁fast": 7468,
      "▁faith": 7469,
      "▁\"C": 7470,
      "\\xe5\\xa4\\xa7\\xe7\\x9a\\x84": 7471,
      "▁attract": 7472,
      "rapy": 7473,
      "\\xe7\\xb4\\xb0": 7474,
      "的一个": 7475,
      "▁Sy": 7476,
      "\\xe8\\xb5\\xb0": 7477,
      "ttp": 7478,
      "\\xe9\\xa9\\x97": 7479,
      "bour": 7480,
      "it.": 7481,
      "▁operations": 7482,
      "▁rules": 7483,
      "\\xe5\\xa9\\x9a": 7484,
      "▁heard": 7485,
      "▁adult": 7486,
      "▁retire": 7487,
      "▁options": 7488,
      "\\xe8\\x89\\xaf": 7489,
      "\\xe9\\x83\\xa1": 7490,
      "▁cities": 7491,
      "▁elements": 7492,
      "▁leader": 7493,
      "vention": 7494,
      "▁fourth": 7495,
      "▁sustain": 7496,
      "▁R.": 7497,
      "▁Posted": 7498,
      "icrosoft": 7499,
      "/d": 7500,
      "pan": 7501,
      "到了": 7502,
      "▁society": 7503,
      "▁developing": 7504,
      "▁Australia": 7505,
      "▁dut": 7506,
      "\\xe6\\x98\\xa5": 7507,
      "城市": 7508,
      "ain,": 7509,
      "(S": 7510,
      "5\\xe6\\x9c\\x88": 7511,
      "▁Writ": 7512,
      "________": 7513,
      "▁Mem": 7514,
      "▁families": 7515,
      "/b": 7516,
      "IV": 7517,
      "f\\xb2": 7518,
      "string": 7519,
      "▁Long": 7520,
      "ive,": 7521,
      "apache": 7522,
      "▁surpr": 7523,
      "3\\xe6\\x9c\\x88": 7524,
      "▁生": 7525,
      "input": 7526,
      "enced": 7527,
      "▁cook": 7528,
      "ario": 7529,
      "0\\xbc": 7530,
      "▁arrest": 7531,
      "\\xe4\\xbf\\x82": 7532,
      "▁setting": 7533,
      "▁minor": 7534,
      ",因此": 7535,
      "5月": 7536,
      "ios": 7537,
      "▁reference": 7538,
      "10\\xe6\\x9c\\x88": 7539,
      "。此": 7540,
      "▁and/or": 7541,
      "▁conference": 7542,
      "ircraft": 7543,
      "Web": 7544,
      "gest": 7545,
      "iat": 7546,
      "\\xe4\\xb9\\x8b\\xe9\\x96\\x93": 7547,
      "-n": 7548,
      "▁tal": 7549,
      "▁studio": 7550,
      "\\xe7\\x94\\x9f\\xe6\\xb4\\xbb": 7551,
      "▁equip": 7552,
      "▁growing": 7553,
      "▁famous": 7554,
      "iding": 7555,
      "\\xe5\\xbb\\xa0": 7556,
      "▁sexual": 7557,
      "▁Inf": 7558,
      "avig": 7559,
      "\\xe7\\x95\\xa2": 7560,
      "▁&amp;": 7561,
      "▁config": 7562,
      "ydro": 7563,
      "▁Film": 7564,
      "▁Japanese": 7565,
      "▁Jeff": 7566,
      "▁Olymp": 7567,
      "▁replace": 7568,
      "8\\xe6\\x9c\\x88": 7569,
      "\\xe9\\xb3": 7570,
      "▁Google": 7571,
      "-H": 7572,
      "1月": 7573,
      "les.": 7574,
      "och": 7575,
      "s'": 7576,
      "▁upd": 7577,
      "\\xe5\\xad\\xb8\\xe7\\x94\\x9f": 7578,
      "▁Polic": 7579,
      "\\xe5\\x8f\\xb3": 7580,
      "\\xe5\\x90\\x8c\\xe5\\xb9\\xb4": 7581,
      "▁restrict": 7582,
      "▁symbol": 7583,
      "▁Record": 7584,
      "▁numbers": 7585,
      "53": 7586,
      "acebook": 7587,
      "rison": 7588,
      ")的": 7589,
      "?”": 7590,
      "ase,": 7591,
      "range": 7592,
      "\\xe5\\xba\\x97": 7593,
      "▁produce": 7594,
      "▁opening": 7595,
      "\\xef\\xbc\\x8c\\xe5\\x9b\\xa0\\xe6\\xad\\xa4": 7596,
      "▁analysis": 7597,
      "FF": 7598,
      "参与": 7599,
      "▁AN": 7600,
      "▁liv": 7601,
      "ollowing": 7602,
      "▁budget": 7603,
      "▁Cast": 7604,
      "▁library": 7605,
      "▁(wh": 7606,
      "▁blog": 7607,
      "\\xe5\\x90\\xb3": 7608,
      "\\xe5\\xa0\\xa1": 7609,
      "▁Bu": 7610,
      "。而": 7611,
      "▁Author": 7612,
      "▁Rail": 7613,
      "▁impl": 7614,
      "\\xef\\xbc\\x89\\xe7\\x9a\\x84": 7615,
      "aud": 7616,
      "虽然": 7617,
      "raq": 7618,
      "▁button": 7619,
      "▁feed": 7620,
      "IA": 7621,
      "▁Av": 7622,
      "▁flow": 7623,
      "▁Atl": 7624,
      "\\xe4\\xb8\\x81": 7625,
      "imal": 7626,
      "\\xe4\\xb8\\x80\\xe4\\xba\\x9b": 7627,
      "\\xe5\\xad\\xab": 7628,
      "Item": 7629,
      "▁Sil": 7630,
      "▁jur": 7631,
      "▁division": 7632,
      "加入": 7633,
      "工程": 7634,
      "▁weap": 7635,
      "共和国": 7636,
      "▁shared": 7637,
      "▁presence": 7638,
      "▁places": 7639,
      "</strong></p>": 7640,
      "▁criminal": 7641,
      "▁sav": 7642,
      "▁(T": 7643,
      "▁2005": 7644,
      "▁becomes": 7645,
      "▁female": 7646,
      "▁citizens": 7647,
      "_t": 7648,
      "▁Each": 7649,
      "\\xe7\\x89\\x99": 7650,
      "equ": 7651,
      "\\xe5\\x98\\x8": 7652,
      "▁(J": 7653,
      "\\xe5\\x81\\xb4": 7654,
      "▁Organ": 7655,
      "\\xe5\\x85\\xb1\\xe5\\x92\\x8c": 7656,
      "6\\xe6\\x9c\\x88": 7657,
      "do": 7658,
      "▁cash": 7659,
      "\\xe3\\x80\\x81\\xe3\\x80\\x8a": 7660,
      "。200": 7661,
      "▁me,": 7662,
      "▁(f": 7663,
      "it,": 7664,
      "ic.": 7665,
      "▁Build": 7666,
      "▁OR": 7667,
      "▁Spanish": 7668,
      "▁later,": 7669,
      "\\xe4\\xbc\\xbc": 7670,
      "42": 7671,
      "民国": 7672,
      "\\xe5\\x80\\xbc": 7673,
      "ube": 7674,
      "▁teaching": 7675,
      "\\xe5\\xbd\\x88": 7676,
      "\\xe6\\xa2\\x85": 7677,
      "▁resear": 7678,
      "▁window": 7679,
      "\\xe6\\x99\\xb": 7680,
      "▁partner": 7681,
      "▁Arts": 7682,
      "▁addition,": 7683,
      "osoph": 7684,
      "\\xe7\\xb4\\x90": 7685,
      "\\xe5\\xbf\\x85": 7686,
      "ATE": 7687,
      "▁Kingdom": 7688,
      "▁paint": 7689,
      "▁Ill": 7690,
      "▁(c": 7691,
      "▁Fre": 7692,
      "\\xe4\\xbf\\x84": 7693,
      "▁supported": 7694,
      "▁morning": 7695,
      "▁It's": 7696,
      "ng\"": 7697,
      "▁bott": 7698,
      "\\xe7\\xac\\xac\\xe4\\xb8\\x89": 7699,
      "▁life,": 7700,
      "▁attended": 7701,
      "▁Market": 7702,
      "df": 7703,
      "well": 7704,
      "edy": 7705,
      "▁dro": 7706,
      "urt": 7707,
      "\\xe3\\x80\\x82_NEWLINE_\\xe5\\x9c\\xa8": 7708,
      "▁older": 7709,
      "abilities": 7710,
      "▁Ox": 7711,
      "▁tend": 7712,
      "lient": 7713,
      "▁well.": 7714,
      "▁situation": 7715,
      "43": 7716,
      "aling": 7717,
      "▁Mat": 7718,
      "▁Frid": 7719,
      "▁advert": 7720,
      "▁mental": 7721,
      "▁Est": 7722,
      "▁basis": 7723,
      "ued": 7724,
      "宣布": 7725,
      "ria": 7726,
      ")是": 7727,
      "▁So,": 7728,
      "\\xe5\\xb9\\xb3\\xe6\\x96\\xb9\\xe5\\x85\\xac\\xe9\\x87\\x8c\\xef\\xbc\\x8c": 7729,
      "\\xe5\\x9a": 7730,
      "▁Arab": 7731,
      "ibly": 7732,
      "▁etc.": 7733,
      "CO": 7734,
      "”(": 7735,
      "▁Its": 7736,
      "\\xe4\\xba\\x8b\\xe4\\xbb\\xb6": 7737,
      ":\\": 7738,
      "\\xe5\\x9f\\x83": 7739,
      "value": 7740,
      "1\\xe6\\x9c\\x88": 7741,
      "▁camer": 7742,
      "▁Old": 7743,
      "preme": 7744,
      "▁commit": 7745,
      "▁teams": 7746,
      "▁lines": 7747,
      "▁(2)": 7748,
      "▁Water": 7749,
      "▁ran": 7750,
      "▁basic": 7751,
      "-T": 7752,
      "\\xe9\\x9c\\x8": 7753,
      "odes": 7754,
      "▁that.": 7755,
      "\\xe3\\x80\\x82\\xe4\\xbd\\x86": 7756,
      "▁compared": 7757,
      "\\xe5\\xb7\\xa6": 7758,
      "ory,": 7759,
      "\\xe5\\xba\\xad": 7760,
      "Config": 7761,
      "-pro": 7762,
      "yer": 7763,
      "\\xe7\\x95\\xb0": 7764,
      "▁br": 7765,
      "▁Cult": 7766,
      "ist,": 7767,
      "▁assum": 7768,
      "\\xe7\\x9a\\xae": 7769,
      "。201": 7770,
      "关系": 7771,
      "inct": 7772,
      "▁(s": 7773,
      "▁Ram": 7774,
      "\\xe6\\x9c\\xb1": 7775,
      "\\xe9\\x80\\x99\\xe5\\x80\\x8b": 7776,
      "\\xe7\\x8e\\xa9": 7777,
      "▁determine": 7778,
      "▁purchase": 7779,
      "。其": 7780,
      "▁intended": 7781,
      "▁people,": 7782,
      "\\xe9\\xa4\\x98": 7783,
      "▁costs": 7784,
      "▁customer": 7785,
      "尼亚": 7786,
      "▁weight": 7787,
      "ishop": 7788,
      "▁coast": 7789,
      "▁instru": 7790,
      "\\xe6\\x9e\\xb6": 7791,
      "ina.": 7792,
      "idth": 7793,
      "▁wear": 7794,
      "▁referred": 7795,
      "\\xe5\\x8b\\xa2": 7796,
      "▁regional": 7797,
      "11月": 7798,
      "▁relevant": 7799,
      "▁Medic": 7800,
      "平方公里,": 7801,
      "java:": 7802,
      "osh": 7803,
      "▁diss": 7804,
      "▁param": 7805,
      "德国": 7806,
      "▁noted": 7807,
      "-year-old": 7808,
      "Int": 7809,
      "▁forced": 7810,
      "▁Jo": 7811,
      "▁reserv": 7812,
      "ology,": 7813,
      "\\xe4\\xb8\\xbb\\xe7\\xbe\\xa9": 7814,
      "▁reflect": 7815,
      "▁Jesus": 7816,
      "/j": 7817,
      "xml": 7818,
      "▁river": 7819,
      "▁fort": 7820,
      "\\xe9\\x9b\\xaa": 7821,
      "▁leaving": 7822,
      "coming": 7823,
      "\\xe8\\xb2\\x9d": 7824,
      "\\xe7\\xb7\\xb4": 7825,
      "▁Iraq": 7826,
      "\\xe6\\x8d": 7827,
      "\\xe5\\xb0\\x9a": 7828,
      "gar": 7829,
      "▁Id": 7830,
      "var": 7831,
      "▁dram": 7832,
      "\\xe7\\x9a\\x84\\xe4\\xb8\\x80\\xe5\\x80\\x8b": 7833,
      "▁Their": 7834,
      "▁Lake": 7835,
      "conn": 7836,
      "\\xe8\\x88\\x8a": 7837,
      "▁popul": 7838,
      "▁effects": 7839,
      "▁requirements": 7840,
      "FL": 7841,
      "科学": 7842,
      "▁defend": 7843,
      "▁characters": 7844,
      "\\xe8\\x8e\\x8a": 7845,
      "zz": 7846,
      "▁?": 7847,
      "▁chief": 7848,
      "▁knew": 7849,
      "▁Chris": 7850,
      "▁myself": 7851,
      "▁2004": 7852,
      "▁Zeal": 7853,
      "\\xe5\\xb7\\xa5\\xe7\\xa8\\x8b": 7854,
      "rolled": 7855,
      "\\xe3\\x80\\x82200": 7856,
      "▁Middle": 7857,
      "▁UN": 7858,
      "\\xe5\\x82\\xb7": 7859,
      "\\xe5\\x88\\xa9\\xe4\\xba\\x9e": 7860,
      "cription": 7861,
      "▁Personal": 7862,
      "ge,": 7863,
      "作品": 7864,
      "cho": 7865,
      "▁stra": 7866,
      "kend": 7867,
      "▁climate": 7868,
      "▁“S": 7869,
      "-G": 7870,
      "▁spread": 7871,
      "▁brief": 7872,
      "ounder": 7873,
      "\\xe6\\x96\\xb9\\xe9\\x9d\\xa2": 7874,
      "▁appropriate": 7875,
      "▁despite": 7876,
      "▁rap": 7877,
      "\\xe3\\x80\\x8b\\xef\\xbc\\x88": 7878,
      "57": 7879,
      "▁B.": 7880,
      "rypt": 7881,
      "11\\xe6\\x9c\\x88": 7882,
      "\\xe9\\x87\\x8d\\xe8\\xa6\\x81": 7883,
      "▁Academy": 7884,
      ",一": 7885,
      "IM": 7886,
      "▁Bas": 7887,
      "\\xe7\\x82\\xba\\xe4\\xba\\x86": 7888,
      "▁Som": 7889,
      "▁Information": 7890,
      "\\xe9\\x9d\\x88": 7891,
      "▁oblig": 7892,
      "▁manager": 7893,
      "▁Enter": 7894,
      "▁Zealand": 7895,
      "ban": 7896,
      "arant": 7897,
      "race": 7898,
      "▁Den": 7899,
      "▁clean": 7900,
      "().": 7901,
      "-term": 7902,
      "ingu": 7903,
      "▁Aff": 7904,
      "▁Love": 7905,
      "active": 7906,
      "spect": 7907,
      "▁replaced": 7908,
      "coh": 7909,
      "▁covered": 7910,
      "▁fle": 7911,
      "▁requires": 7912,
      "▁freedom": 7913,
      "▁temper": 7914,
      "▁WH": 7915,
      "▁Jewish": 7916,
      "▁gain": 7917,
      "▁technical": 7918,
      "▁funds": 7919,
      "olarship": 7920,
      "成员": 7921,
      "emporary": 7922,
      "\\xe5\\xbb\\xb6": 7923,
      "▁ir": 7924,
      "两个": 7925,
      "itude": 7926,
      "▁(199": 7927,
      "\\xe5\\xbb\\x9f": 7928,
      "-of": 7929,
      "iar": 7930,
      "overy": 7931,
      "ors.": 7932,
      "▁D.": 7933,
      "\\xe9\\xae": 7934,
      "▁prop": 7935,
      "pload": 7936,
      "\\xe5\\x88\\xa4": 7937,
      "▁believed": 7938,
      "▁urban": 7939,
      "el.": 7940,
      "▁Wal": 7941,
      "istan": 7942,
      "\\xe5\\xbe\\xb5": 7943,
      "ctions": 7944,
      "▁king": 7945,
      "▁Head": 7946,
      "\\xe5\\xbc\\x9f": 7947,
      "▁obtain": 7948,
      "\\xe5\\xa3\\x93": 7949,
      "▁Spring": 7950,
      "\\xe9\\xad\\x9a": 7951,
      "▁rat": 7952,
      "▁10.": 7953,
      "Id&gt;": 7954,
      "/c": 7955,
      "▁Bo": 7956,
      "▁Australian": 7957,
      "Request": 7958,
      "生活": 7959,
      "▁Bur": 7960,
      "▁Ins": 7961,
      "\\xe9\\x81\\xad": 7962,
      "\\xe6\\xb0\\x91\\xe5\\x9c\\x8b": 7963,
      "Stream": 7964,
      "\\xe6\\xb1\\xba\\xe5\\xae\\x9a": 7965,
      "▁forms": 7966,
      "▁default": 7967,
      "type": 7968,
      "▁businesses": 7969,
      "▁broadcast": 7970,
      "Fact": 7971,
      "▁%": 7972,
      "(f": 7973,
      "地方": 7974,
      "▁Satur": 7975,
      "▁withd": 7976,
      "\\xe5\\x90\\xab": 7977,
      "\\xe6\\x98\\xaf\\xe4\\xb8\\x80": 7978,
      "\\xe5\\x9c\\xb0\\xe6\\x96\\xb9": 7979,
      "\\xe9\\xab\\x98\\xe5\\xba\\xa6": 7980,
      "\\xe5\\xa4\\xa9\\xe6\\xb4\\xa5": 7981,
      "\\xe8\\xa8\\x88\\xe5\\x8a\\x83": 7982,
      "\\xe5\\x94\\xae": 7983,
      "▁launched": 7984,
      "hent": 7985,
      "▁Penn": 7986,
      "\\xe6\\x9c\\x80\\xe7\\xb5\\x82": 7987,
      "▁skills": 7988,
      "▁counter": 7989,
      "▁work,": 7990,
      "ses": 7991,
      "要求": 7992,
      "isf": 7993,
      "▁Mo": 7994,
      "就是": 7995,
      "▁Wood": 7996,
      "▁goals": 7997,
      "▁leaders": 7998,
      "▁marketing": 7999,
      "\\xe5\\xbb\\xb3": 8000,
      "sl": 8001,
      "▁chair": 8002,
      "\\xe9\\x80\\x90": 8003,
      "▁parties": 8004,
      "▁5,": 8005,
      "▁1990": 8006,
      "\\xe9\\x97\\x9c\\xe4\\xbf\\x82": 8007,
      "\\xe6\\x81\\xaf": 8008,
      "▁measure": 8009,
      "Object": 8010,
      "为了": 8011,
      "\\xe6\\x9b": 8012,
      "\\xe6\\x85\\xb6": 8013,
      "▁sche": 8014,
      "\\xe7\\xa7\\x80": 8015,
      "▁Execut": 8016,
      "▁funding": 8017,
      "▁safety": 8018,
      "▁v.": 8019,
      "▁Open": 8020,
      "▁joint": 8021,
      "▁flo": 8022,
      "▁owned": 8023,
      "\\xe5\\x8f\\x83\\xe8\\x88\\x87": 8024,
      "oto": 8025,
      "▁Hot": 8026,
      "\\xe8\\x81\\xaf\\xe5\\x90\\x88": 8027,
      "elligence": 8028,
      "ina,": 8029,
      "▁batt": 8030,
      "\\xe9\\x80\\x81": 8031,
      "eria": 8032,
      "▁Main": 8033,
      "\\xe5\\x84\\x84": 8034,
      "gu": 8035,
      "\\xe6\\xa5\\x8a": 8036,
      "\\xe5\\x82\\x91": 8037,
      "Form": 8038,
      "ise,": 8039,
      "▁dang": 8040,
      "▁Rem": 8041,
      "\\xe6\\xb3\\xa8": 8042,
      "▁materials": 8043,
      "▁Justice": 8044,
      "▁dedicated": 8045,
      "▁battle": 8046,
      "▁Tax": 8047,
      "udd": 8048,
      "AAAA": 8049,
      "▁Africa": 8050,
      "▁Lim": 8051,
      "thlet": 8052,
      "▁continues": 8053,
      "ying": 8054,
      "的人": 8055,
      "▁aircraft": 8056,
      "▁sister": 8057,
      "▁revenue": 8058,
      "▁didn't": 8059,
      "OL": 8060,
      "ienc": 8061,
      "\\xe9\\x87\\x8e": 8062,
      "国民": 8063,
      "pert": 8064,
      "▁managed": 8065,
      "\\xe9\\xba\\x97": 8066,
      "\\xe8\\x80\\xb6": 8067,
      "\\xe6\\x9c\\x8d\\xe5\\x8b\\x99": 8068,
      "nic": 8069,
      "pat": 8070,
      "▁(H": 8071,
      "▁<p>Th": 8072,
      "▁incorpor": 8073,
      "\\xe5\\xae\\x8c\\xe6\\x88\\x90": 8074,
      "▁approximately": 8075,
      "▁Sun": 8076,
      "▁Priv": 8077,
      "ocument": 8078,
      "▁retail": 8079,
      "\\xe8\\x91\\x89": 8080,
      "▁reports": 8081,
      "bt": 8082,
      "》、": 8083,
      "技术": 8084,
      "\\xe7\\x99": 8085,
      "▁\"M": 8086,
      "\\xe5\\x8d\\xa0": 8087,
      "▁thinking": 8088,
      "\\xe5\\x9a\\xb4": 8089,
      "-le": 8090,
      "▁bus": 8091,
      "\\xe7\\x8c": 8092,
      "cluding": 8093,
      "▁Community": 8094,
      ".)": 8095,
      "88": 8096,
      "▁societ": 8097,
      "▁Cy": 8098,
      "olk": 8099,
      "67": 8100,
      "sey": 8101,
      "▁kn": 8102,
      "\\xe4\\xba\\xba\\xe3\\x80\\x82": 8103,
      "▁“We": 8104,
      "▁pressure": 8105,
      "部队": 8106,
      "enter": 8107,
      "▁Mel": 8108,
      "▁90": 8109,
      "▁visual": 8110,
      "ptom": 8111,
      "▁latest": 8112,
      "需要": 8113,
      "ado": 8114,
      "\\xe8\\x86": 8115,
      "▁2017,": 8116,
      "ethyl": 8117,
      "\\xe6\\x9a\\xb4": 8118,
      "isd": 8119,
      "\\xe6\\x88\\xb0\\xe7\\x88\\xad": 8120,
      "▁launch": 8121,
      "▁beautiful": 8122,
      "layout": 8123,
      "高度": 8124,
      "onents": 8125,
      "\\xe7\\xa3": 8126,
      "\\xe7\\xad\\x96": 8127,
      "▁Conference": 8128,
      "▁electric": 8129,
      "\\xe9\\x9c\\x80\\xe8\\xa6\\x81": 8130,
      "s;": 8131,
      "▁index": 8132,
      "▁day.": 8133,
      "▁otherwise": 8134,
      "-re": 8135,
      "▁rent": 8136,
      "▁Mass": 8137,
      "▁closed": 8138,
      "▁entry": 8139,
      "▁Once": 8140,
      "secut": 8141,
      "▁Martin": 8142,
      "lang": 8143,
      "举行": 8144,
      "▁Facebook": 8145,
      "▁chance": 8146,
      "▁images": 8147,
      "inding": 8148,
      "▁actual": 8149,
      "\\xe5\\x8a\\xa0\\xe5\\x85\\xa5": 8150,
      "▁neighbor": 8151,
      "利亚": 8152,
      "▁Pub": 8153,
      "ifically": 8154,
      "efault": 8155,
      "\\xe8\\x92\\x82": 8156,
      "/201": 8157,
      "osen": 8158,
      "▁scored": 8159,
      "▁Before": 8160,
      "▁piece": 8161,
      "FA": 8162,
      "rey": 8163,
      "\\xe3\\x80\\x82\\xe8\\x80\\x8c": 8164,
      "▁L.": 8165,
      "▁Jul": 8166,
      "arden": 8167,
      "Hand": 8168,
      "can": 8169,
      "▁convers": 8170,
      "\\xe7\\x95\\xa5": 8171,
      "▁carried": 8172,
      "▁excell": 8173,
      "▁fear": 8174,
      "ent.": 8175,
      "\\xe4\\xba\\xa1": 8176,
      "land,": 8177,
      "▁estate": 8178,
      "\\xe8\\x97\\x9d\\xe8\\xa1\\x93": 8179,
      "ously": 8180,
      "▁prec": 8181,
      "▁70": 8182,
      "ucle": 8183,
      "rastructure": 8184,
      "▁Code": 8185,
      "▁Mos": 8186,
      "▁Mond": 8187,
      "verse": 8188,
      "▁E.": 8189,
      "oken": 8190,
      "▁newsp": 8191,
      "\\xe4\\xb8\\x8a\\xef\\xbc\\x8c": 8192,
      "...]": 8193,
      "\\xe6\\xa0\\xb8": 8194,
      "行政区": 8195,
      "/m": 8196,
      "▁lin": 8197,
      "ant,": 8198,
      "▁notice": 8199,
      "▁rare": 8200,
      "▁Lead": 8201,
      "▁Addition": 8202,
      "▁factors": 8203,
      "group": 8204,
      "z,": 8205,
      "▁在": 8206,
      "发行": 8207,
      "▁dark": 8208,
      "▁ec": 8209,
      "▁Gal": 8210,
      "▁2016,": 8211,
      "▁clin": 8212,
      "▁kept": 8213,
      "▁operating": 8214,
      "▁Supreme": 8215,
      "1-": 8216,
      "pass": 8217,
      "orrow": 8218,
      "\\xe5\\xb0\\xba": 8219,
      "▁charge": 8220,
      "▁Govern": 8221,
      "\\xe9\\xba\\xa5": 8222,
      "▁pull": 8223,
      "▁feet": 8224,
      "▁capacity": 8225,
      "0\\xbd": 8226,
      "的。": 8227,
      "▁corn": 8228,
      "olit": 8229,
      "▁P.": 8230,
      "▁Please": 8231,
      "▁202": 8232,
      "\\xe5\\x88\\x87": 8233,
      "▁earned": 8234,
      "▁sites": 8235,
      "▁audience": 8236,
      "是在": 8237,
      "alled": 8238,
      "▁people.": 8239,
      "▁belong": 8240,
      "▁cris": 8241,
      "▁Bob": 8242,
      "\\xe4\\xba\\xba\\xe7\\x89\\xa9": 8243,
      "▁accur": 8244,
      "▁earth": 8245,
      "\\xe9\\x96\\x8b\\xe7\\x99\\xbc": 8246,
      "\\xe6\\x8f\\x9b": 8247,
      "▁download": 8248,
      "▁details": 8249,
      "ka": 8250,
      "rust": 8251,
      "▁huge": 8252,
      "\\xe6\\x94\\x9d": 8253,
      "\\xe8\\x83\\x8c": 8254,
      "▁touch": 8255,
      "lock": 8256,
      "er's": 8257,
      "▁sport": 8258,
      "▁cat": 8259,
      "▁H.": 8260,
      "abled": 8261,
      "▁&lt;div": 8262,
      "▁machine": 8263,
      "▁mentioned": 8264,
      "PR": 8265,
      "成功": 8266,
      "ics.": 8267,
      "▁labor": 8268,
      "imb": 8269,
      "</code>,": 8270,
      "\\xe8\\xbb\\x8a\\xe7\\xab\\x99": 8271,
      "\\xe8\\xb1\\x90": 8272,
      "▁Lab": 8273,
      "▁exception": 8274,
      "\\xe9\\xa3\\xbe": 8275,
      "▁authorities": 8276,
      "respond": 8277,
      "/lib": 8278,
      "post": 8279,
      "▁powerful": 8280,
      "clusion": 8281,
      "eed": 8282,
      "二十": 8283,
      "▁aw": 8284,
      "▁PM": 8285,
      "▁serving": 8286,
      "\\xe8\\xa9\\xa9": 8287,
      "▁focused": 8288,
      "▁celebr": 8289,
      "▁sn": 8290,
      "\\xe7\\xbd\\xb2": 8291,
      "▁sequ": 8292,
      "ary,": 8293,
      "▁2015,": 8294,
      "\\xe5\\x85\\xa9\\xe5\\x80\\x8b": 8295,
      "\\xe6\\xaf\\x94\\xe8\\xb3\\xbd": 8296,
      "▁That’s": 8297,
      "</em>": 8298,
      "▁methods": 8299,
      "');": 8300,
      "itled": 8301,
      "isation": 8302,
      "▁catch": 8303,
      "▁Sir": 8304,
      "▁runs": 8305,
      "xy": 8306,
      "oma": 8307,
      "▁Next": 8308,
      "▁impress": 8309,
      "▁researcher": 8310,
      "TH": 8311,
      "铁路": 8312,
      "\\xe4\\xb8\\xb9": 8313,
      "▁studied": 8314,
      "▁affil": 8315,
      "▁toward": 8316,
      "▁harm": 8317,
      "5\\xb8": 8318,
      "▁2003": 8319,
      "▁interesting": 8320,
      "▁easily": 8321,
      "BI": 8322,
      "Ph": 8323,
      "fit": 8324,
      "met": 8325,
      "▁brain": 8326,
      "▁Boy": 8327,
      "▁2010,": 8328,
      "▁obtained": 8329,
      "▁listed": 8330,
      "▁normal": 8331,
      "▁Matt": 8332,
      "clude": 8333,
      "\\xe5\\x96\\x84": 8334,
      "▁COVID": 8335,
      "-F": 8336,
      "imin": 8337,
      "\\xe3\\x80\\x8d\\xef\\xbc\\x88": 8338,
      "▁Secretary": 8339,
      "▁organizations": 8340,
      "▁experienced": 8341,
      "建立": 8342,
      "atically": 8343,
      "▁lay": 8344,
      "._NEWLINE_D": 8345,
      "\\xe8\\x87\\xa8": 8346,
      "Service": 8347,
      "▁Jon": 8348,
      "▁2012,": 8349,
      "▁2013,": 8350,
      "▁resol": 8351,
      "▁offering": 8352,
      "▁Indust": 8353,
      "▁truth": 8354,
      "▁poor": 8355,
      "▁loan": 8356,
      "86": 8357,
      "▁subs": 8358,
      "▁distribution": 8359,
      "▁Pacific": 8360,
      "ii": 8361,
      "▁drive": 8362,
      "gend": 8363,
      "\\xe6\\xad\\xb8": 8364,
      ".in": 8365,
      "▁border": 8366,
      "ero": 8367,
      "▁sam": 8368,
      "enth": 8369,
      "▁stress": 8370,
      "\\xe6\\x9c\\xab": 8371,
      "▁31": 8372,
      "189": 8373,
      ".s": 8374,
      "会议": 8375,
      "▁tick": 8376,
      "▁micro": 8377,
      "▁consequ": 8378,
      "ruit": 8379,
      "▁<p>Is": 8380,
      "▁interpre": 8381,
      "▁finding": 8382,
      "And": 8383,
      "▁_": 8384,
      "▁AD": 8385,
      "▁2014,": 8386,
      "▁Victor": 8387,
      "▁Executive": 8388,
      "前往": 8389,
      "▁Oh": 8390,
      "▁<p>This": 8391,
      "▁restaur": 8392,
      "▁Paris": 8393,
      "▁songs": 8394,
      "▁honor": 8395,
      "ocket": 8396,
      "▁Medical": 8397,
      "pire": 8398,
      "▁daily": 8399,
      "▁heav": 8400,
      "\\xe5\\x85\\x8d": 8401,
      "▁Kore": 8402,
      "\\xe4\\xb8\\x8b\\xef\\xbc\\x8c": 8403,
      "gypt": 8404,
      "▁Foundation": 8405,
      "▁src=\"htt": 8406,
      "\\xe5\\x85\\xb1\\xe5\\x92\\x8c\\xe5\\x9c\\x8b": 8407,
      "▁you,": 8408,
      "\\xe8\\xbc\\xaa": 8409,
      "\\xe5\\xb6": 8410,
      "▁Battle": 8411,
      "▁concent": 8412,
      "\\xe4\\xba\\x86\\xe4\\xb8\\x80": 8413,
      "▁helps": 8414,
      "ah,": 8415,
      "▁id=\"": 8416,
      "联合": 8417,
      "▁dream": 8418,
      "\\xe6\\x8b\\xbf": 8419,
      "▁area.": 8420,
      "\\xe6\\x93\\x81": 8421,
      "\\xe5\\x84\\xaa": 8422,
      "▁encourag": 8423,
      "rum": 8424,
      "的大": 8425,
      "orter": 8426,
      "▁&lt;/div&gt;": 8427,
      "▁determined": 8428,
      "\\xe6\\x8a\\x80\\xe8\\xa1\\x93": 8429,
      "\\xe6\\x8f\\xb4": 8430,
      "▁stor": 8431,
      "▁mostly": 8432,
      "▁1980": 8433,
      "受到": 8434,
      "▁1960": 8435,
      "\\xe3\\x80\\x8b\\xe3\\x80\\x81\\xe3\\x80\\x8a": 8436,
      "▁fell": 8437,
      "ady": 8438,
      "▁Jim": 8439,
      "▁enh": 8440,
      "\\xe6\\xa8\\xb9": 8441,
      "▁world,": 8442,
      "With": 8443,
      "▁FOR": 8444,
      "▁disapp": 8445,
      "enses": 8446,
      "▁7,": 8447,
      "▁Associate": 8448,
      "\\xe9\\x9c\\xb2": 8449,
      "▁Despite": 8450,
      "▁Irish": 8451,
      "itar": 8452,
      "▁bond": 8453,
      "▁Dou": 8454,
      "PA": 8455,
      "ki": 8456,
      "▁trou": 8457,
      "\\xe7\\x9a\\x84\\xe3\\x80\\x8a": 8458,
      "config": 8459,
      "-the": 8460,
      "▁protest": 8461,
      "time": 8462,
      "\\xe9\\xa8": 8463,
      "▁committee": 8464,
      "\\xe6\\x88\\x90\\xe5\\x8a\\x9f": 8465,
      "▁residents": 8466,
      "\\xe9\\x9b\\x96\\xe7\\x84\\xb6": 8467,
      "ley,": 8468,
      "▁Haw": 8469,
      "▁spring": 8470,
      "▁however": 8471,
      "▁Global": 8472,
      "xx": 8473,
      "集团": 8474,
      "hew": 8475,
      "▁tow": 8476,
      "▁Duke": 8477,
      "-12": 8478,
      "Ad": 8479,
      "\\xe8\\x89\\xbe": 8480,
      "▁10,": 8481,
      "▁Administ": 8482,
      "▁typically": 8483,
      "▁pet": 8484,
      "▁Lear": 8485,
      "▁seat": 8486,
      "phas": 8487,
      "▁Swed": 8488,
      "\\xe8\\x97\\xa5": 8489,
      "▁wonder": 8490,
      "▁CD": 8491,
      "▁nor": 8492,
      "▁Both": 8493,
      "▁2011,": 8494,
      "2009\\xe5\\xb9\\xb4": 8495,
      "▁traff": 8496,
      "▁owner": 8497,
      "▁season.": 8498,
      "\\xe5\\xb0\\xb1\\xe6\\x98\\xaf": 8499,
      "za": 8500,
      "▁mist": 8501,
      "▁map": 8502,
      "▁vision": 8503,
      "osure": 8504,
      "\\xe7\\x94\\x9a": 8505,
      "index": 8506,
      "pir": 8507,
      "ay.": 8508,
      "▁Fox": 8509,
      "▁Network": 8510,
      "▁Greek": 8511,
      "▁note": 8512,
      "ulty": 8513,
      "▁rob": 8514,
      "\\xe7\\x94\\x9f\\xe5\\xb9\\xb3": 8515,
      "iences": 8516,
      "\\xe8\\xa1\\x8c\\xe6\\x94\\xbf\\xe5\\x8d\\x80": 8517,
      "▁that's": 8518,
      "\\xe6\\xb2\\xb9": 8519,
      "▁importance": 8520,
      "\\xe5\\x8f\\x97\\xe5\\x88\\xb0": 8521,
      "▁calcul": 8522,
      "\\xe8\\xb5\\xab": 8523,
      "New": 8524,
      "▁fine": 8525,
      "otype": 8526,
      "▁Pan": 8527,
      "▁Edward": 8528,
      ".C.": 8529,
      "▁memory": 8530,
      "有一": 8531,
      "▁Ham": 8532,
      "▁claims": 8533,
      "▁responsibility": 8534,
      "▁partnership": 8535,
      "TP": 8536,
      "毕业": 8537,
      "▁wel": 8538,
      "▁Time": 8539,
      "▁Northern": 8540,
      "▁contest": 8541,
      "ounds": 8542,
      "▁</blockquote>": 8543,
      "▁Blue": 8544,
      "▁Earth": 8545,
      "分别": 8546,
      "▁<blockquote>": 8547,
      "\\xe3\\x80\\x8b\\xe7\\x9a\\x84": 8548,
      "▁centre": 8549,
      "\\xe5\\xaf\\xa9": 8550,
      "▁remove": 8551,
      "▁facility": 8552,
      "▁ones": 8553,
      "\\xe7\\x8d\\xb": 8554,
      "ile,": 8555,
      "\\xe7\\xb5\\x95": 8556,
      "▁Conf": 8557,
      "▁communication": 8558,
      "/&gt;": 8559,
      "S,": 8560,
      "▁Card": 8561,
      "▁league": 8562,
      "▁Show": 8563,
      "\\xe9\\x9a\\x8e": 8564,
      "51": 8565,
      "。19": 8566,
      "▁taught": 8567,
      "▁Gall": 8568,
      "▁View": 8569,
      "▁officer": 8570,
      "▁explore": 8571,
      "\\xe5\\x9f\\x8e\\xe5\\xb8\\x82": 8572,
      "ns": 8573,
      "制作": 8574,
      "antly": 8575,
      "\\xe6\\x9c\\x83\\xe8\\xad\\xb0": 8576,
      "▁showed": 8577,
      "\\xe5\\xb8\\x82\\xe9\\x8e\\xae": 8578,
      "\\xe5\\x98\\x89": 8579,
      "C.": 8580,
      "MA": 8581,
      "Test": 8582,
      "local": 8583,
      "▁Ro": 8584,
      "▁remaining": 8585,
      "▁executive": 8586,
      "▁spl": 8587,
      "▁CON": 8588,
      "▁Eth": 8589,
      "▁Egypt": 8590,
      "▁applied": 8591,
      "arsh": 8592,
      "▁Centre": 8593,
      "▁claimed": 8594,
      "2010\\xe5\\xb9\\xb4": 8595,
      ",大": 8596,
      "TER": 8597,
      "▁Elect": 8598,
      "\\xe6\\xbe\\xa4": 8599,
      "SA": 8600,
      "ie,": 8601,
      "人物": 8602,
      "\\xe4\\xbd\\xb3": 8603,
      "▁applicable": 8604,
      "69": 8605,
      "▁mone": 8606,
      "▁Special": 8607,
      "▁Report": 8608,
      "▁1970": 8609,
      "▁Trust": 8610,
      "▁course,": 8611,
      "bre": 8612,
      "reate": 8613,
      "▁chart": 8614,
      "▁indic": 8615,
      "▁advis": 8616,
      "\\xe5\\x9d\\xa6": 8617,
      "▁Carl": 8618,
      "\\xe5\\xb9\\xa3": 8619,
      "\\xe8\\x8b\\xa5": 8620,
      "-R": 8621,
      "ita": 8622,
      "\\xe5\\xae\\x8b": 8623,
      "▁artists": 8624,
      "▁ready": 8625,
      "▁educational": 8626,
      "west": 8627,
      "unte": 8628,
      "\\xe9\\x9b\\x84": 8629,
      "asket": 8630,
      "-10": 8631,
      "eds": 8632,
      "\\xe5\\x88\\xb": 8633,
      "▁Library": 8634,
      "ipal": 8635,
      "▁Media": 8636,
      "79": 8637,
      "。该": 8638,
      "▁exactly": 8639,
      "▁rang": 8640,
      "▁[...]": 8641,
      "\\xe6\\xb5\\xb7\\xe6\\x8b\\x94": 8642,
      "\\xe9\\xa4\\x8a": 8643,
      "▁Russia": 8644,
      "\\xe8\\x88\\x89\\xe8\\xa1\\x8c": 8645,
      "\\xe9\\x8a\\xb7": 8646,
      "\\xe5\\xbd\\xb9": 8647,
      "point": 8648,
      "\\xef\\xbc\\x8c\\xe5\\xa6\\x82": 8649,
      "orship": 8650,
      "\\xe4\\xba\\x8c\\xe5\\x8d\\x81": 8651,
      "▁Design": 8652,
      "br>": 8653,
      "cohol": 8654,
      ",,": 8655,
      "中共": 8656,
      "完成": 8657,
      "\\xe5\\x85\\xbc": 8658,
      "▁returns": 8659,
      "▁Adv": 8660,
      "▁directed": 8661,
      "▁protected": 8662,
      "Get": 8663,
      "ul>": 8664,
      "▁suc": 8665,
      "▁there.": 8666,
      "\\xe7\\x95\\xa2\\xe6\\xa5\\xad": 8667,
      "ates,": 8668,
      "▁Tour": 8669,
      "▁Saint": 8670,
      "\\xe7\\xab\\xa5": 8671,
      "▁deliver": 8672,
      "▁environmental": 8673,
      "》、《": 8674,
      "▁label": 8675,
      "▁Fire": 8676,
      "▁Ener": 8677,
      "▁there’s": 8678,
      "2009年": 8679,
      "01": 8680,
      "市镇": 8681,
      "▁500": 8682,
      "▁conserv": 8683,
      "\\xe8\\xb3\\xbc": 8684,
      "\\xe8\\xbc\\x95": 8685,
      "▁alt=\"": 8686,
      "hi": 8687,
      "因此": 8688,
      "▁Term": 8689,
      "atever": 8690,
      "▁Game": 8691,
      "▁you’ll": 8692,
      "▁2008,": 8693,
      "▁prepar": 8694,
      "▁learned": 8695,
      "\\xe5\\xae\\xa3\\xe5\\xb8\\x83": 8696,
      ",与": 8697,
      "gn": 8698,
      "olar": 8699,
      "▁15,": 8700,
      "▁Family": 8701,
      "▁2018,": 8702,
      "▁out.": 8703,
      "ecute": 8704,
      "ky": 8705,
      "▁comfort": 8706,
      "\\xe8\\xb2\\xb4": 8707,
      "▁defense": 8708,
      "ancy": 8709,
      "\\xe8\\x8e\\xab": 8710,
      "▁agreed": 8711,
      "▁生平": 8712,
      "'ve": 8713,
      "2\\xe6\\x9c\\x88": 8714,
      "52": 8715,
      "s\"": 8716,
      "了一": 8717,
      "▁Parent": 8718,
      "▁Last": 8719,
      "\\xe9\\x83\\x8e": 8720,
      "\\xe5\\x88\\x86\\xe5\\x88\\xa5": 8721,
      "▁classes": 8722,
      "scape": 8723,
      "▁connected": 8724,
      "▁installed": 8725,
      "';": 8726,
      "(M": 8727,
      "当地": 8728,
      "▁perman": 8729,
      "▁guest": 8730,
      "▁Christmas": 8731,
      "................": 8732,
      "▁negot": 8733,
      "▁procedure": 8734,
      "ferences": 8735,
      "(d": 8736,
      "py": 8737,
      "ednes": 8738,
      "▁Br": 8739,
      "▁\"the": 8740,
      "▁meant": 8741,
      "▁discl": 8742,
      "▁2009,": 8743,
      "\\xe6\\x8b\\x8d": 8744,
      "▁wants": 8745,
      "\\xe9\\x80\\x99\\xe4\\xba\\x9b": 8746,
      "\\xef\\xbc\\x8c\\xe4\\xbd\\x8d\\xe6\\x96\\xbc\\xe8\\xa9\\xb2": 8747,
      ",使": 8748,
      "\\xe3\\x80\\x82\\xe5\\x85\\xb6": 8749,
      "▁Rights": 8750,
      "▁compar": 8751,
      "apore": 8752,
      "weet": 8753,
      "▁Force": 8754,
      "▁surface": 8755,
      "▁Const": 8756,
      "▁case,": 8757,
      "▁src=\"https://": 8758,
      "54": 8759,
      "map": 8760,
      "▁AC": 8761,
      "ota": 8762,
      "\\xe6\\xaf\\x92": 8763,
      "\\xe7\\x9f\\xad": 8764,
      "/t": 8765,
      "E,": 8766,
      "球队": 8767,
      "\\xe6\\xa4": 8768,
      "▁wild": 8769,
      "▁Times": 8770,
      "▁Sar": 8771,
      "▁Gi": 8772,
      "▁1950": 8773,
      "\\xe6\\x9d\\x9f": 8774,
      "▁hands": 8775,
      "▁Polit": 8776,
      "idden": 8777,
      "▁items": 8778,
      "\\xe9\\xbd\\x8a": 8779,
      "▁CEO": 8780,
      "s.”": 8781,
      "\\xe6\\xb2\\x83": 8782,
      "\\xe8\\xa8\\x93": 8783,
      "\\xe8\\xa6\\x81\\xe6\\xb1\\x82": 8784,
      "▁symptom": 8785,
      "▁conducted": 8786,
      "anda": 8787,
      "▁6,": 8788,
      "▁records": 8789,
      "▁States.": 8790,
      "\\xe3\\x80\\x8219": 8791,
      "▁W.": 8792,
      "ress,": 8793,
      "▁Kar": 8794,
      "▁skill": 8795,
      "▁identify": 8796,
      "/S": 8797,
      "1:": 8798,
      "▁session": 8799,
      "▁Wall": 8800,
      "▁Stand": 8801,
      "\\xe6\\x98\\xaf\\xe5\\x9c\\xa8": 8802,
      "-a": 8803,
      "▁tournament": 8804,
      "▁Dub": 8805,
      "▁filed": 8806,
      "iki": 8807,
      "▁feeling": 8808,
      "▁trial": 8809,
      "▁acquired": 8810,
      "然而": 8811,
      "icit": 8812,
      "▁Hon": 8813,
      "▁jour": 8814,
      "\\xe6\\x88\\x90\\xe5\\x93\\xa1": 8815,
      "\\xe5\\xb2\\xb8": 8816,
      "\\xe4\\xbe\\x8b\\xe5\\xa6\\x82": 8817,
      "▁exchange": 8818,
      "\\xe6\\x99\\x89": 8819,
      "▁Columb": 8820,
      "▁trend": 8821,
      "ixt": 8822,
      "▁draft": 8823,
      "\\xef\\xbc\\x8c\\xe8\\x88\\x87": 8824,
      "amin": 8825,
      "▁phone": 8826,
      "▁here.": 8827,
      "▁safe": 8828,
      "You": 8829,
      "\\xe7\\x94\\x9f\\xe7\\x94\\xa2": 8830,
      "▁employee": 8831,
      "Impl": 8832,
      "Wind": 8833,
      "_id": 8834,
      "ue,": 8835,
      "ena": 8836,
      "chang": 8837,
      "▁agency": 8838,
      "▁him,": 8839,
      "▁Americans": 8840,
      "\\xe6\\xbc\\xb8": 8841,
      "▁Add": 8842,
      "1990": 8843,
      "▁extrem": 8844,
      "▁customers": 8845,
      "▁victim": 8846,
      "的是": 8847,
      "▁Gar": 8848,
      "\\xe6\\x99\\x9a": 8849,
      "▁cooper": 8850,
      "▁correspond": 8851,
[...]
